<unk>	0
<s>	0
</s>	0
<start_of_turn>	0
<end_of_turn>	0
<system_prompt>	0
<language>	0
</language>	0

	0


	0



	0




	0





	0






	0







	0








	0









	0










	0











	0












	0













	0














	0















	0
















	0

















	0


















	0



















	0




















	0





















	0






















	0























	0
























	0

























	0


























	0



























	0




























	0





























	0






























	0































	0
▁▁	0
▁▁▁	0
▁▁▁▁	0
▁▁▁▁▁	0
▁▁▁▁▁▁	0
▁▁▁▁▁▁▁	0
▁▁▁▁▁▁▁▁	0
▁▁▁▁▁▁▁▁▁	0
▁▁▁▁▁▁▁▁▁▁	0
▁▁▁▁▁▁▁▁▁▁▁	0
▁▁▁▁▁▁▁▁▁▁▁▁	0
▁▁▁▁▁▁▁▁▁▁▁▁▁	0
▁▁▁▁▁▁▁▁▁▁▁▁▁▁	0
▁▁▁▁▁▁▁▁▁▁▁▁▁▁▁	0
▁▁▁▁▁▁▁▁▁▁▁▁▁▁▁▁	0
▁▁▁▁▁▁▁▁▁▁▁▁▁▁▁▁▁	0
▁▁▁▁▁▁▁▁▁▁▁▁▁▁▁▁▁▁	0
▁▁▁▁▁▁▁▁▁▁▁▁▁▁▁▁▁▁▁	0
▁▁▁▁▁▁▁▁▁▁▁▁▁▁▁▁▁▁▁▁	0
▁▁▁▁▁▁▁▁▁▁▁▁▁▁▁▁▁▁▁▁▁	0
▁▁▁▁▁▁▁▁▁▁▁▁▁▁▁▁▁▁▁▁▁▁	0
▁▁▁▁▁▁▁▁▁▁▁▁▁▁▁▁▁▁▁▁▁▁▁	0
▁▁▁▁▁▁▁▁▁▁▁▁▁▁▁▁▁▁▁▁▁▁▁▁	0
▁▁▁▁▁▁▁▁▁▁▁▁▁▁▁▁▁▁▁▁▁▁▁▁▁	0
▁▁▁▁▁▁▁▁▁▁▁▁▁▁▁▁▁▁▁▁▁▁▁▁▁▁	0
▁▁▁▁▁▁▁▁▁▁▁▁▁▁▁▁▁▁▁▁▁▁▁▁▁▁▁	0
▁▁▁▁▁▁▁▁▁▁▁▁▁▁▁▁▁▁▁▁▁▁▁▁▁▁▁▁	0
▁▁▁▁▁▁▁▁▁▁▁▁▁▁▁▁▁▁▁▁▁▁▁▁▁▁▁▁▁	0
▁▁▁▁▁▁▁▁▁▁▁▁▁▁▁▁▁▁▁▁▁▁▁▁▁▁▁▁▁▁	0
▁▁▁▁▁▁▁▁▁▁▁▁▁▁▁▁▁▁▁▁▁▁▁▁▁▁▁▁▁▁▁	0
<table>	0
<caption>	0
<thead>	0
<tbody>	0
<tfoot>	0
<tr>	0
<th>	0
<td>	0
</table>	0
</caption>	0
</thead>	0
</tbody>	0
</tfoot>	0
</tr>	0
</th>	0
</td>	0
<h1>	0
<h2>	0
<h3>	0
<h4>	0
<h5>	0
<h6>	0
<blockquote>	0
</h1>	0
</h2>	0
</h3>	0
</h4>	0
</h5>	0
</h6>	0
</blockquote>	0
<strong>	0
<em>	0
<b>	0
<i>	0
<u>	0
<sub>	0
<sup>	0
<code>	0
</strong>	0
</em>	0
</b>	0
</i>	0
</u>	0
</sub>	0
</sup>	0
</code>	0
		0
<mask>	0
<2mass>	0
[@BOS@]	0
<unused0>	0
<unused1>	0
<unused2>	0
<unused3>	0
<unused4>	0
<unused5>	0
<unused6>	0
<unused7>	0
<unused8>	0
<unused9>	0
<unused10>	0
<unused11>	0
<unused12>	0
<unused13>	0
<unused14>	0
<unused15>	0
<unused16>	0
<unused17>	0
<unused18>	0
<unused19>	0
<unused20>	0
<unused21>	0
<unused22>	0
<unused23>	0
<unused24>	0
<unused25>	0
<unused26>	0
<unused27>	0
<unused28>	0
<unused29>	0
<unused30>	0
<unused31>	0
<unused32>	0
<unused33>	0
<unused34>	0
<unused35>	0
<unused36>	0
<unused37>	0
<unused38>	0
<unused39>	0
<unused40>	0
<unused41>	0
<unused42>	0
<unused43>	0
<unused44>	0
<unused45>	0
<unused46>	0
<unused47>	0
<unused48>	0
<unused49>	0
<unused50>	0
<unused51>	0
<unused52>	0
<unused53>	0
<unused54>	0
<unused55>	0
<unused56>	0
<unused57>	0
<unused58>	0
<unused59>	0
<unused60>	0
<unused61>	0
<unused62>	0
<unused63>	0
<unused64>	0
<unused65>	0
<unused66>	0
<unused67>	0
<unused68>	0
<unused69>	0
<unused70>	0
<unused71>	0
<unused72>	0
<unused73>	0
<unused74>	0
<unused75>	0
<unused76>	0
<unused77>	0
<unused78>	0
<unused79>	0
<unused80>	0
<unused81>	0
<unused82>	0
<unused83>	0
<unused84>	0
<unused85>	0
<unused86>	0
<unused87>	0
<unused88>	0
<unused89>	0
<unused90>	0
<unused91>	0
<unused92>	0
<unused93>	0
<unused94>	0
<unused95>	0
<unused96>	0
<unused97>	0
<unused98>	0
00	0
01	0
02	0
03	0
04	0
05	0
06	0
07	0
08	0
09	0
10	0
11	0
12	0
13	0
14	0
15	0
16	0
17	0
18	0
19	0
20	0
21	0
22	0
23	0
24	0
25	0
26	0
27	0
28	0
29	0
30	0
31	0
32	0
33	0
34	0
35	0
36	0
37	0
38	0
39	0
40	0
41	0
42	0
43	0
44	0
45	0
46	0
47	0
48	0
49	0
50	0
51	0
52	0
53	0
54	0
55	0
56	0
57	0
58	0
59	0
60	0
61	0
62	0
63	0
64	0
65	0
66	0
67	0
68	0
69	0
70	0
71	0
72	0
73	0
74	0
75	0
76	0
77	0
78	0
79	0
80	0
81	0
82	0
83	0
84	0
85	0
86	0
87	0
88	0
89	0
90	0
91	0
92	0
93	0
94	0
95	0
96	0
97	0
98	0
99	0
100	0
101	0
102	0
103	0
104	0
105	0
106	0
107	0
108	0
109	0
110	0
111	0
112	0
113	0
114	0
115	0
116	0
117	0
118	0
119	0
120	0
121	0
122	0
123	0
124	0
125	0
126	0
127	0
128	0
129	0
130	0
131	0
132	0
133	0
134	0
135	0
136	0
137	0
138	0
139	0
140	0
141	0
142	0
143	0
144	0
145	0
146	0
147	0
148	0
149	0
150	0
151	0
152	0
153	0
154	0
155	0
156	0
157	0
158	0
159	0
160	0
161	0
162	0
163	0
164	0
165	0
166	0
167	0
168	0
169	0
170	0
171	0
172	0
173	0
174	0
175	0
176	0
177	0
178	0
179	0
180	0
181	0
182	0
183	0
184	0
185	0
186	0
187	0
188	0
189	0
190	0
191	0
192	0
193	0
194	0
195	0
196	0
197	0
198	0
199	0
200	0
201	0
202	0
203	0
204	0
205	0
206	0
207	0
208	0
209	0
210	0
211	0
212	0
213	0
214	0
215	0
216	0
217	0
218	0
219	0
220	0
221	0
222	0
223	0
224	0
225	0
226	0
227	0
228	0
229	0
230	0
231	0
232	0
233	0
234	0
235	0
236	0
237	0
238	0
239	0
240	0
241	0
242	0
243	0
244	0
245	0
246	0
247	0
248	0
249	0
250	0
251	0
252	0
253	0
254	0
255	0
256	0
257	0
258	0
259	0
260	0
261	0
262	0
263	0
264	0
265	0
266	0
267	0
268	0
269	0
270	0
271	0
272	0
273	0
274	0
275	0
276	0
277	0
278	0
279	0
280	0
281	0
282	0
283	0
284	0
285	0
286	0
287	0
288	0
289	0
290	0
291	0
292	0
293	0
294	0
295	0
296	0
297	0
298	0
299	0
300	0
301	0
302	0
303	0
304	0
305	0
306	0
307	0
308	0
309	0
310	0
311	0
312	0
313	0
314	0
315	0
316	0
317	0
318	0
319	0
320	0
321	0
322	0
323	0
324	0
325	0
326	0
327	0
328	0
329	0
330	0
331	0
332	0
333	0
334	0
335	0
336	0
337	0
338	0
339	0
340	0
341	0
342	0
343	0
344	0
345	0
346	0
347	0
348	0
349	0
350	0
351	0
352	0
353	0
354	0
355	0
356	0
357	0
358	0
359	0
360	0
361	0
362	0
363	0
364	0
365	0
366	0
367	0
368	0
369	0
370	0
371	0
372	0
373	0
374	0
375	0
376	0
377	0
378	0
379	0
380	0
381	0
382	0
383	0
384	0
385	0
386	0
387	0
388	0
389	0
390	0
391	0
392	0
393	0
394	0
395	0
396	0
397	0
398	0
399	0
400	0
401	0
402	0
403	0
404	0
405	0
406	0
407	0
408	0
409	0
410	0
411	0
412	0
413	0
414	0
415	0
416	0
417	0
418	0
419	0
420	0
421	0
422	0
423	0
424	0
425	0
426	0
427	0
428	0
429	0
430	0
431	0
432	0
433	0
434	0
435	0
436	0
437	0
438	0
439	0
440	0
441	0
442	0
443	0
444	0
445	0
446	0
447	0
448	0
449	0
450	0
451	0
452	0
453	0
454	0
455	0
456	0
457	0
458	0
459	0
460	0
461	0
462	0
463	0
464	0
465	0
466	0
467	0
468	0
469	0
470	0
471	0
472	0
473	0
474	0
475	0
476	0
477	0
478	0
479	0
480	0
481	0
482	0
483	0
484	0
485	0
486	0
487	0
488	0
489	0
490	0
491	0
492	0
493	0
494	0
495	0
496	0
497	0
498	0
499	0
500	0
501	0
502	0
503	0
504	0
505	0
506	0
507	0
508	0
509	0
510	0
511	0
512	0
513	0
514	0
515	0
516	0
517	0
518	0
519	0
520	0
521	0
522	0
523	0
524	0
525	0
526	0
527	0
528	0
529	0
530	0
531	0
532	0
533	0
534	0
535	0
536	0
537	0
538	0
539	0
540	0
541	0
542	0
543	0
544	0
545	0
546	0
547	0
548	0
549	0
550	0
551	0
552	0
553	0
554	0
555	0
556	0
557	0
558	0
559	0
560	0
561	0
562	0
563	0
564	0
565	0
566	0
567	0
568	0
569	0
570	0
571	0
572	0
573	0
574	0
575	0
576	0
577	0
578	0
579	0
580	0
581	0
582	0
583	0
584	0
585	0
586	0
587	0
588	0
589	0
590	0
591	0
592	0
593	0
594	0
595	0
596	0
597	0
598	0
599	0
600	0
601	0
602	0
603	0
604	0
605	0
606	0
607	0
608	0
609	0
610	0
611	0
612	0
613	0
614	0
615	0
616	0
617	0
618	0
619	0
620	0
621	0
622	0
623	0
624	0
625	0
626	0
627	0
628	0
629	0
630	0
631	0
632	0
633	0
634	0
635	0
636	0
637	0
638	0
639	0
640	0
641	0
642	0
643	0
644	0
645	0
646	0
647	0
648	0
649	0
650	0
651	0
652	0
653	0
654	0
655	0
656	0
657	0
658	0
659	0
660	0
661	0
662	0
663	0
664	0
665	0
666	0
667	0
668	0
669	0
670	0
671	0
672	0
673	0
674	0
675	0
676	0
677	0
678	0
679	0
680	0
681	0
682	0
683	0
684	0
685	0
686	0
687	0
688	0
689	0
690	0
691	0
692	0
693	0
694	0
695	0
696	0
697	0
698	0
699	0
700	0
701	0
702	0
703	0
704	0
705	0
706	0
707	0
708	0
709	0
710	0
711	0
712	0
713	0
714	0
715	0
716	0
717	0
718	0
719	0
720	0
721	0
722	0
723	0
724	0
725	0
726	0
727	0
728	0
729	0
730	0
731	0
732	0
733	0
734	0
735	0
736	0
737	0
738	0
739	0
740	0
741	0
742	0
743	0
744	0
745	0
746	0
747	0
748	0
749	0
750	0
751	0
752	0
753	0
754	0
755	0
756	0
757	0
758	0
759	0
760	0
761	0
762	0
763	0
764	0
765	0
766	0
767	0
768	0
769	0
770	0
771	0
772	0
773	0
774	0
775	0
776	0
777	0
778	0
779	0
780	0
781	0
782	0
783	0
784	0
785	0
786	0
787	0
788	0
789	0
790	0
791	0
792	0
793	0
794	0
795	0
796	0
797	0
798	0
799	0
800	0
801	0
802	0
803	0
804	0
805	0
806	0
807	0
808	0
809	0
810	0
811	0
812	0
813	0
814	0
815	0
816	0
817	0
818	0
819	0
820	0
821	0
822	0
823	0
824	0
825	0
826	0
827	0
828	0
829	0
830	0
831	0
832	0
833	0
834	0
835	0
836	0
837	0
838	0
839	0
840	0
841	0
842	0
843	0
844	0
845	0
846	0
847	0
848	0
849	0
850	0
851	0
852	0
853	0
854	0
855	0
856	0
857	0
858	0
859	0
860	0
861	0
862	0
863	0
864	0
865	0
866	0
867	0
868	0
869	0
870	0
871	0
872	0
873	0
874	0
875	0
876	0
877	0
878	0
879	0
880	0
881	0
882	0
883	0
884	0
885	0
886	0
887	0
888	0
889	0
890	0
891	0
892	0
893	0
894	0
895	0
896	0
897	0
898	0
899	0
900	0
901	0
902	0
903	0
904	0
905	0
906	0
907	0
908	0
909	0
910	0
911	0
912	0
913	0
914	0
915	0
916	0
917	0
918	0
919	0
920	0
921	0
922	0
923	0
924	0
925	0
926	0
927	0
928	0
929	0
930	0
931	0
932	0
933	0
934	0
935	0
936	0
937	0
938	0
939	0
940	0
941	0
942	0
943	0
944	0
945	0
946	0
947	0
948	0
949	0
950	0
951	0
952	0
953	0
954	0
955	0
956	0
957	0
958	0
959	0
960	0
961	0
962	0
963	0
964	0
965	0
966	0
967	0
968	0
969	0
970	0
971	0
972	0
973	0
974	0
975	0
976	0
977	0
978	0
979	0
980	0
981	0
982	0
983	0
984	0
985	0
986	0
987	0
988	0
989	0
990	0
991	0
992	0
993	0
994	0
995	0
996	0
997	0
998	0
999	0
<0x00>	0
<0x01>	0
<0x02>	0
<0x03>	0
<0x04>	0
<0x05>	0
<0x06>	0
<0x07>	0
<0x08>	0
<0x09>	0
<0x0A>	0
<0x0B>	0
<0x0C>	0
<0x0D>	0
<0x0E>	0
<0x0F>	0
<0x10>	0
<0x11>	0
<0x12>	0
<0x13>	0
<0x14>	0
<0x15>	0
<0x16>	0
<0x17>	0
<0x18>	0
<0x19>	0
<0x1A>	0
<0x1B>	0
<0x1C>	0
<0x1D>	0
<0x1E>	0
<0x1F>	0
<0x20>	0
<0x21>	0
<0x22>	0
<0x23>	0
<0x24>	0
<0x25>	0
<0x26>	0
<0x27>	0
<0x28>	0
<0x29>	0
<0x2A>	0
<0x2B>	0
<0x2C>	0
<0x2D>	0
<0x2E>	0
<0x2F>	0
<0x30>	0
<0x31>	0
<0x32>	0
<0x33>	0
<0x34>	0
<0x35>	0
<0x36>	0
<0x37>	0
<0x38>	0
<0x39>	0
<0x3A>	0
<0x3B>	0
<0x3C>	0
<0x3D>	0
<0x3E>	0
<0x3F>	0
<0x40>	0
<0x41>	0
<0x42>	0
<0x43>	0
<0x44>	0
<0x45>	0
<0x46>	0
<0x47>	0
<0x48>	0
<0x49>	0
<0x4A>	0
<0x4B>	0
<0x4C>	0
<0x4D>	0
<0x4E>	0
<0x4F>	0
<0x50>	0
<0x51>	0
<0x52>	0
<0x53>	0
<0x54>	0
<0x55>	0
<0x56>	0
<0x57>	0
<0x58>	0
<0x59>	0
<0x5A>	0
<0x5B>	0
<0x5C>	0
<0x5D>	0
<0x5E>	0
<0x5F>	0
<0x60>	0
<0x61>	0
<0x62>	0
<0x63>	0
<0x64>	0
<0x65>	0
<0x66>	0
<0x67>	0
<0x68>	0
<0x69>	0
<0x6A>	0
<0x6B>	0
<0x6C>	0
<0x6D>	0
<0x6E>	0
<0x6F>	0
<0x70>	0
<0x71>	0
<0x72>	0
<0x73>	0
<0x74>	0
<0x75>	0
<0x76>	0
<0x77>	0
<0x78>	0
<0x79>	0
<0x7A>	0
<0x7B>	0
<0x7C>	0
<0x7D>	0
<0x7E>	0
<0x7F>	0
<0x80>	0
<0x81>	0
<0x82>	0
<0x83>	0
<0x84>	0
<0x85>	0
<0x86>	0
<0x87>	0
<0x88>	0
<0x89>	0
<0x8A>	0
<0x8B>	0
<0x8C>	0
<0x8D>	0
<0x8E>	0
<0x8F>	0
<0x90>	0
<0x91>	0
<0x92>	0
<0x93>	0
<0x94>	0
<0x95>	0
<0x96>	0
<0x97>	0
<0x98>	0
<0x99>	0
<0x9A>	0
<0x9B>	0
<0x9C>	0
<0x9D>	0
<0x9E>	0
<0x9F>	0
<0xA0>	0
<0xA1>	0
<0xA2>	0
<0xA3>	0
<0xA4>	0
<0xA5>	0
<0xA6>	0
<0xA7>	0
<0xA8>	0
<0xA9>	0
<0xAA>	0
<0xAB>	0
<0xAC>	0
<0xAD>	0
<0xAE>	0
<0xAF>	0
<0xB0>	0
<0xB1>	0
<0xB2>	0
<0xB3>	0
<0xB4>	0
<0xB5>	0
<0xB6>	0
<0xB7>	0
<0xB8>	0
<0xB9>	0
<0xBA>	0
<0xBB>	0
<0xBC>	0
<0xBD>	0
<0xBE>	0
<0xBF>	0
<0xC0>	0
<0xC1>	0
<0xC2>	0
<0xC3>	0
<0xC4>	0
<0xC5>	0
<0xC6>	0
<0xC7>	0
<0xC8>	0
<0xC9>	0
<0xCA>	0
<0xCB>	0
<0xCC>	0
<0xCD>	0
<0xCE>	0
<0xCF>	0
<0xD0>	0
<0xD1>	0
<0xD2>	0
<0xD3>	0
<0xD4>	0
<0xD5>	0
<0xD6>	0
<0xD7>	0
<0xD8>	0
<0xD9>	0
<0xDA>	0
<0xDB>	0
<0xDC>	0
<0xDD>	0
<0xDE>	0
<0xDF>	0
<0xE0>	0
<0xE1>	0
<0xE2>	0
<0xE3>	0
<0xE4>	0
<0xE5>	0
<0xE6>	0
<0xE7>	0
<0xE8>	0
<0xE9>	0
<0xEA>	0
<0xEB>	0
<0xEC>	0
<0xED>	0
<0xEE>	0
<0xEF>	0
<0xF0>	0
<0xF1>	0
<0xF2>	0
<0xF3>	0
<0xF4>	0
<0xF5>	0
<0xF6>	0
<0xF7>	0
<0xF8>	0
<0xF9>	0
<0xFA>	0
<0xFB>	0
<0xFC>	0
<0xFD>	0
<0xFE>	0
<0xFF>	0
en	-0
er	-1
▁d	-2
▁s	-3
▁a	-4
in	-5
es	-6
▁p	-7
an	-8
on	-9
▁t	-10
ar	-11
▁m	-12
or	-13
▁c	-14
▁de	-15
▁l	-16
▁o	-17
ch	-18
et	-19
el	-20
is	-21
▁n	-22
▁f	-23
at	-24
▁v	-25
re	-26
as	-27
it	-28
al	-29
▁b	-30
▁h	-31
un	-32
os	-33
ie	-34
▁w	-35
▁e	-36
om	-37
il	-38
ent	-39
▁g	-40
ra	-41
ro	-42
qu	-43
▁in	-44
ed	-45
▁k	-46
ad	-47
ig	-48
te	-49
▁i	-50
ic	-51
ur	-52
le	-53
am	-54
us	-55
ing	-56
▁en	-57
▁S	-58
ol	-59
▁qu	-60
ion	-61
id	-62
▁z	-63
em	-64
▁un	-65
est	-66
ut	-67
▁j	-68
he	-69
▁D	-70
▁A	-71
ag	-72
st	-73
▁r	-74
ci	-75
▁an	-76
..	-77
de	-78
▁la	-79
▁P	-80
▁M	-81
iv	-82
▁I	-83
▁al	-84
▁E	-85
ter	-86
eg	-87
▁to	-88
im	-89
▁con	-90
ia	-91
ul	-92
ir	-93
▁C	-94
and	-95
ot	-96
▁que	-97
ow	-98
der	-99
▁T	-100
um	-101
▁di	-102
▁B	-103
▁st	-104
▁pr	-105
ich	-106
▁at	-107
▁L	-108
ij	-109
ac	-110
▁re	-111
▁com	-112
▁the	-113
▁y	-114
ist	-115
▁do	-116
▁se	-117
▁par	-118
od	-119
▁H	-120
▁(	-121
▁pro	-122
▁for	-123
ver	-124
▁F	-125
ak	-126
▁N	-127
la	-128
ess	-129
ant	-130
▁el	-131
▁le	-132
ab	-133
ou	-134
ik	-135
ers	-136
▁W	-137
ec	-138
og	-139
▁er	-140
ens	-141
▁G	-142
ne	-143
▁V	-144
▁of	-145
▁del	-146
end	-147
▁u	-148
▁na	-149
▁R	-150
ta	-151
▁O	-152
pp	-153
io	-154
ill	-155
ör	-156
ier	-157
▁K	-158
▁po	-159
to	-160
zy	-161
▁J	-162
är	-163
▁et	-164
▁th	-165
▁es	-166
ze	-167
▁der	-168
▁be	-169
▁su	-170
▁og	-171
▁ma	-172
ão	-173
ce	-174
ente	-175
...	-176
ere	-177
▁no	-178
▁and	-179
▁per	-180
▁on	-181
pr	-182
ve	-183
▁med	-184
▁da	-185
▁des	-186
na	-187
ort	-188
se	-189
ien	-190
sk	-191
▁på	-192
are	-193
den	-194
kt	-195
▁is	-196
▁op	-197
▁die	-198
ation	-199
▁och	-200
▁du	-201
iz	-202
ge	-203
▁det	-204
▁den	-205
▁est	-206
▁-	-207
▁som	-208
ud	-209
▁me	-210
▁vo	-211
ten	-212
ell	-213
▁af	-214
▁si	-215
▁so	-216
▁van	-217
▁ver	-218
▁U	-219
ke	-220
ung	-221
▁sp	-222
▁te	-223
▁att	-224
ine	-225
ma	-226
ib	-227
▁av	-228
▁au	-229
ru	-230
eb	-231
▁ha	-232
▁sk	-233
▁om	-234
ans	-235
ass	-236
▁und	-237
if	-238
tr	-239
ok	-240
▁een	-241
ning	-242
li	-243
ap	-244
az	-245
▁tr	-246
ind	-247
än	-248
ber	-249
ón	-250
▁il	-251
▁as	-252
▁im	-253
oc	-254
▁à	-255
▁ch	-256
▁för	-257
▁para	-258
pl	-259
▁um	-260
ale	-261
▁het	-262
for	-263
år	-264
▁je	-265
op	-266
▁man	-267
▁é	-268
▁em	-269
▁ex	-270
▁or	-271
me	-272
▁In	-273
je	-274
▁che	-275
gen	-276
all	-277
ff	-278
ado	-279
our	-280
▁til	-281
za	-282
▁por	-283
hr	-284
ont	-285
lig	-286
ade	-287
ost	-288
no	-289
▁ser	-290
ct	-291
und	-292
▁"	-293
art	-294
▁pl	-295
ica	-296
ler	-297
▁kan	-298
▁ein	-299
▁ge	-300
▁mo	-301
▁har	-302
ione	-303
che	-304
ento	-305
ka	-306
▁ar	-307
icht	-308
ub	-309
ast	-310
▁fr	-311
▁ne	-312
▁les	-313
ów	-314
ite	-315
ym	-316
du	-317
▁Z	-318
per	-319
cz	-320
iet	-321
ord	-322
▁una	-323
be	-324
mer	-325
▁we	-326
ato	-327
av	-328
ang	-329
ip	-330
▁nie	-331
ção	-332
ck	-333
ire	-334
ych	-335
▁var	-336
nie	-337
▁los	-338
▁bl	-339
▁är	-340
ach	-341
ción	-342
▁–	-343
▁met	-344
ies	-345
au	-346
ys	-347
▁gr	-348
ft	-349
iel	-350
que	-351
ard	-352
▁kom	-353
ven	-354
ando	-355
ob	-356
ada	-357
ken	-358
▁De	-359
▁he	-360
▁ro	-361
ment	-362
▁lo	-363
cia	-364
▁tra	-365
ho	-366
▁ik	-367
äl	-368
▁“	-369
▁ac	-370
ug	-371
▁ab	-372
▁En	-373
▁dat	-374
ego	-375
iss	-376
▁ra	-377
▁ad	-378
▁ent	-379
▁all	-380
ore	-381
▁An	-382
▁pas	-383
▁it	-384
▁you	-385
▁pre	-386
lich	-387
tt	-388
ks	-389
▁się	-390
▁till	-391
▁fin	-392
ust	-393
▁os	-394
▁voor	-395
ige	-396
ult	-397
da	-398
ni	-399
ate	-400
nen	-401
ger	-402
▁that	-403
▁co	-404
ån	-405
▁pos	-406
▁res	-407
▁så	-408
ive	-409
aar	-410
ør	-411
men	-412
ijn	-413
▁inter	-414
▁pour	-415
és	-416
ür	-417
▁zu	-418
▁ut	-419
▁das	-420
▁pers	-421
pe	-422
▁wy	-423
▁am	-424
ond	-425
ito	-426
ante	-427
▁cont	-428
▁Al	-429
ico	-430
dz	-431
▁men	-432
ue	-433
▁las	-434
age	-435
ett	-436
co	-437
ina	-438
uch	-439
▁dis	-440
▁ist	-441
po	-442
▁sam	-443
ede	-444
▁ob	-445
▁St	-446
res	-447
▁son	-448
so	-449
▁vi	-450
▁sch	-451
ją	-452
ais	-453
▁by	-454
ele	-455
▁ind	-456
els	-457
ement	-458
▁was	-459
ker	-460
▁min	-461
▁over	-462
wa	-463
ly	-464
▁ter	-465
ts	-466
we	-467
▁tem	-468
▁comp	-469
ér	-470
▁pe	-471
▁è	-472
ga	-473
ram	-474
ste	-475
▁dem	-476
ca	-477
▁cu	-478
ons	-479
▁us	-480
▁sol	-481
bre	-482
ande	-483
).	-484
▁wh	-485
▁part	-486
fer	-487
▁go	-488
ær	-489
igh	-490
sp	-491
att	-492
ende	-493
vo	-494
ure	-495
lo	-496
ano	-497
igt	-498
ię	-499
idad	-500
ja	-501
że	-502
▁non	-503
era	-504
▁person	-505
iem	-506
▁gen	-507
ith	-508
ri	-509
ici	-510
▁fa	-511
▁cons	-512
▁mit	-513
elle	-514
go	-515
form	-516
▁sig	-517
sch	-518
▁not	-519
tem	-520
▁Un	-521
▁dan	-522
ata	-523
wo	-524
ide	-525
ora	-526
ile	-527
▁:	-528
ect	-529
va	-530
▁Det	-531
ek	-532
do	-533
ijk	-534
her	-535
ali	-536
▁ou	-537
▁sur	-538
▁mais	-539
ido	-540
▁dé	-541
▁nu	-542
ater	-543
▁La	-544
ha	-545
cht	-546
▁nicht	-547
ki	-548
one	-549
amente	-550
itt	-551
▁inte	-552
▁sa	-553
▁wer	-554
mo	-555
ice	-556
▁jag	-557
ores	-558
ner	-559
▁od	-560
ura	-561
▁como	-562
ści	-563
ran	-564
▁reg	-565
igen	-566
▁Le	-567
▁imp	-568
ry	-569
▁mar	-570
▁pod	-571
vis	-572
▁aan	-573
ida	-574
▁auf	-575
▁ich	-576
ara	-577
▁with	-578
ble	-579
▁von	-580
ás	-581
▁une	-582
▁alle	-583
uss	-584
ert	-585
▁pu	-586
▁kun	-587
chen	-588
▁ho	-589
ko	-590
▁hab	-591
ía	-592
▁bes	-593
ai	-594
ados	-595
urs	-596
bl	-597
▁qui	-598
zen	-599
bi	-600
▁cas	-601
con	-602
▁als	-603
ela	-604
ati	-605
▁zijn	-606
owan	-607
▁have	-608
ita	-609
▁niet	-610
▁dans	-611
▁ve	-612
▁kl	-613
ła	-614
elt	-615
cial	-616
cr	-617
▁mu	-618
▁mod	-619
▁uma	-620
▁aut	-621
zi	-622
tre	-623
ativ	-624
▁wir	-625
esta	-626
min	-627
▁ud	-628
ingen	-629
ets	-630
▁are	-631
ual	-632
uld	-633
alt	-634
pos	-635
▁ikke	-636
gan	-637
▁für	-638
▁Q	-639
▁tak	-640
▁della	-641
eder	-642
uro	-643
cl	-644
▁vol	-645
▁Pro	-646
▁jest	-647
ins	-648
yn	-649
▁sem	-650
▁bo	-651
eld	-652
▁car	-653
ben	-654
ior	-655
ll	-656
gr	-657
ux	-658
▁za	-659
up	-660
▁tro	-661
!!	-662
),	-663
▁pol	-664
isk	-665
▁pi	-666
▁wor	-667
▁jak	-668
▁app	-669
▁ze	-670
▁eller	-671
ło	-672
ions	-673
▁The	-674
int	-675
▁Se	-676
ime	-677
▁Y	-678
▁br	-679
ied	-680
zo	-681
red	-682
▁ce	-683
sta	-684
▁pra	-685
▁bet	-686
com	-687
▁produ	-688
ces	-689
kl	-690
▁my	-691
ari	-692
oi	-693
▁sich	-694
▁dos	-695
fter	-696
▁her	-697
▁Th	-698
▁tu	-699
ny	-700
ée	-701
▁col	-702
▁nog	-703
▁mi	-704
▁ty	-705
▁Ar	-706
ings	-707
azione	-708
var	-709
ku	-710
zie	-711
ana	-712
ats	-713
▁fra	-714
▁han	-715
mente	-716
▁Com	-717
▁can	-718
ise	-719
▁cor	-720
endo	-721
esso	-722
▁pres	-723
▁str	-724
▁nos	-725
itu	-726
ità	-727
ji	-728
pt	-729
wi	-730
▁wie	-731
enti	-732
net	-733
else	-734
par	-735
▁Re	-736
▁przy	-737
lic	-738
▁plus	-739
ori	-740
pa	-741
▁pa	-742
▁your	-743
▁El	-744
tó	-745
▁prze	-746
nik	-747
▁this	-748
▁out	-749
akt	-750
ille	-751
▁não	-752
cy	-753
▁uit	-754
ami	-755
enn	-756
▁don	-757
ões	-758
ön	-759
yt	-760
gg	-761
cie	-762
▁seg	-763
ser	-764
▁war	-765
ann	-766
ras	-767
▁auch	-768
owe	-769
olog	-770
▁ten	-771
ui	-772
▁Pr	-773
land	-774
▁kr	-775
ors	-776
ioni	-777
aliz	-778
▁vous	-779
▁ré	-780
▁Ver	-781
▁pass	-782
dag	-783
owa	-784
iones	-785
vor	-786
▁któ	-787
▁Il	-788
▁cam	-789
▁vis	-790
▁ca	-791
▁gra	-792
ese	-793
pre	-794
vol	-795
pro	-796
▁Er	-797
▁ett	-798
ima	-799
able	-800
▁kon	-801
▁Je	-802
ros	-803
▁bij	-804
▁jeg	-805
ba	-806
▁...	-807
ça	-808
▁ess	-809
ss	-810
vel	-811
use	-812
▁fe	-813
▁No	-814
les	-815
▁Sch	-816
kom	-817
▁sin	-818
▁eine	-819
▁under	-820
amento	-821
out	-822
ance	-823
▁vers	-824
cer	-825
mi	-826
vent	-827
fe	-828
ät	-829
gt	-830
æn	-831
▁Sie	-832
ER	-833
pres	-834
▁sie	-835
eden	-836
▁sc	-837
▁prof	-838
dere	-839
▁dei	-840
dr	-841
▁alla	-842
ack	-843
ps	-844
act	-845
mar	-846
idade	-847
ional	-848
zione	-849
▁will	-850
entes	-851
én	-852
ivers	-853
▁art	-854
▁nat	-855
iver	-856
orm	-857
iden	-858
▁cl	-859
▁dag	-860
▁że	-861
▁rel	-862
ick	-863
▁nel	-864
▁Be	-865
▁cz	-866
ace	-867
ti	-868
nych	-869
ay	-870
fr	-871
▁serv	-872
▁aus	-873
ity	-874
ży	-875
▁år	-876
ene	-877
▁ook	-878
▁Mar	-879
▁wo	-880
hol	-881
▁dire	-882
▁gro	-883
ista	-884
hl	-885
lag	-886
▁quest	-887
anto	-888
kr	-889
▁poss	-890
åg	-891
ette	-892
▁dur	-893
ätt	-894
▁dig	-895
▁mer	-896
▁ot	-897
▁ag	-898
ase	-899
lev	-900
iter	-901
uer	-902
ania	-903
▁int	-904
▁heb	-905
▁Die	-906
br	-907
elijk	-908
ino	-909
ane	-910
ira	-911
▁mot	-912
▁vil	-913
▁fil	-914
▁más	-915
ono	-916
▁come	-917
▁mig	-918
eten	-919
ose	-920
▁act	-921
ute	-922
ider	-923
ket	-924
▁but	-925
▁entre	-926
▁proble	-927
▁sel	-928
▁„	-929
▁Ch	-930
▁ny	-931
ité	-932
mun	-933
ars	-934
uk	-935
tal	-936
ations	-937
ły	-938
by	-939
▁ju	-940
ål	-941
ong	-942
enta	-943
▁cr	-944
▁rec	-945
▁upp	-946
▁sal	-947
its	-948
iste	-949
▁tut	-950
ific	-951
▁mas	-952
org	-953
hen	-954
▁sm	-955
▁ass	-956
ść	-957
▁ö	-958
för	-959
▁form	-960
▁mon	-961
ligt	-962
ero	-963
▁ci	-964
▁qual	-965
czy	-966
iej	-967
▁efter	-968
wer	-969
unt	-970
elo	-971
▁sono	-972
imo	-973
EN	-974
ink	-975
så	-976
ns	-977
▁ke	-978
get	-979
▁prz	-980
amos	-981
ès	-982
ili	-983
▁inst	-984
cc	-985
▁fun	-986
▁mes	-987
szy	-988
anie	-989
über	-990
▁zo	-991
▁dit	-992
ções	-993
▁fl	-994
▁mak	-995
ém	-996
ete	-997
este	-998
▁inform	-999
uf	-1000
▁dass	-1001
ld	-1002
....	-1003
▁hat	-1004
▁ris	-1005
▁,	-1006
ios	-1007
▁pub	-1008
▁geb	-1009
▁dr	-1010
jer	-1011
▁has	-1012
▁?	-1013
yr	-1014
▁sind	-1015
ungen	-1016
▁Qu	-1017
▁bu	-1018
eter	-1019
ivo	-1020
rem	-1021
elf	-1022
cis	-1023
▁Sp	-1024
iten	-1025
ht	-1026
▁maar	-1027
jo	-1028
▁dal	-1029
gram	-1030
ally	-1031
▁Es	-1032
▁best	-1033
▁ed	-1034
ales	-1035
amo	-1036
por	-1037
ight	-1038
ahr	-1039
▁proc	-1040
egen	-1041
äm	-1042
▁sh	-1043
▁bien	-1044
▁mal	-1045
▁wel	-1046
gi	-1047
ster	-1048
val	-1049
▁nas	-1050
ère	-1051
atie	-1052
fin	-1053
▁più	-1054
▁We	-1055
oll	-1056
zt	-1057
▁from	-1058
▁tam	-1059
▁werden	-1060
▁ved	-1061
▁»	-1062
ór	-1063
▁beg	-1064
▁pot	-1065
▁avec	-1066
une	-1067
ull	-1068
▁.	-1069
pon	-1070
▁organ	-1071
adas	-1072
▁cap	-1073
▁val	-1074
▁inv	-1075
istr	-1076
zą	-1077
▁!	-1078
▁Con	-1079
▁mil	-1080
▁god	-1081
▁ś	-1082
▁cre	-1083
▁mom	-1084
▁fam	-1085
▁«	-1086
del	-1087
esch	-1088
▁Gr	-1089
bo	-1090
▁bed	-1091
▁cer	-1092
▁está	-1093
▁door	-1094
▁liv	-1095
▁pow	-1096
esse	-1097
ijd	-1098
ister	-1099
▁dom	-1100
▁Den	-1101
▁Der	-1102
▁spe	-1103
zu	-1104
▁væ	-1105
▁hand	-1106
▁oder	-1107
▁vor	-1108
▁tod	-1109
▁Du	-1110
▁ins	-1111
kon	-1112
ple	-1113
eft	-1114
▁sobre	-1115
▁din	-1116
ign	-1117
ome	-1118
vi	-1119
▁få	-1120
ikt	-1121
▁dell	-1122
▁So	-1123
▁alt	-1124
ument	-1125
▁ga	-1126
ild	-1127
aten	-1128
gl	-1129
▁leg	-1130
nia	-1131
pen	-1132
bar	-1133
▁Vi	-1134
▁acc	-1135
▁lik	-1136
pu	-1137
▁alg	-1138
ação	-1139
entr	-1140
▁über	-1141
▁sua	-1142
▁sl	-1143
ank	-1144
ję	-1145
▁este	-1146
▁up	-1147
▁enc	-1148
uw	-1149
▁czy	-1150
▁ret	-1151
▁gl	-1152
▁trans	-1153
cul	-1154
port	-1155
▁ni	-1156
▁[	-1157
äll	-1158
▁hier	-1159
gel	-1160
ition	-1161
▁tout	-1162
▁hel	-1163
▁had	-1164
▁ger	-1165
sten	-1166
änd	-1167
uto	-1168
ación	-1169
ques	-1170
fl	-1171
▁jed	-1172
cha	-1173
▁skal	-1174
▁ont	-1175
▁cos	-1176
▁delle	-1177
man	-1178
▁mis	-1179
▁ao	-1180
ên	-1181
▁eff	-1182
col	-1183
iva	-1184
▁sen	-1185
▁bar	-1186
als	-1187
▁Het	-1188
cio	-1189
▁He	-1190
jet	-1191
▁Par	-1192
▁ko	-1193
▁dies	-1194
ario	-1195
▁naar	-1196
iał	-1197
▁they	-1198
▁web	-1199
▁ele	-1200
iment	-1201
iu	-1202
▁Tr	-1203
ske	-1204
nes	-1205
raw	-1206
eren	-1207
ique	-1208
oss	-1209
jem	-1210
▁nach	-1211
nym	-1212
▁roz	-1213
▁från	-1214
rag	-1215
▁ant	-1216
▁sim	-1217
▁mag	-1218
emos	-1219
▁sz	-1220
▁parte	-1221
iro	-1222
▁just	-1223
▁sus	-1224
rij	-1225
▁ta	-1226
dzie	-1227
atis	-1228
▁Ma	-1229
▁mus	-1230
▁pens	-1231
ait	-1232
ial	-1233
▁off	-1234
▁For	-1235
▁Ne	-1236
yk	-1237
hand	-1238
AN	-1239
icas	-1240
▁resp	-1241
▁much	-1242
ión	-1243
hed	-1244
now	-1245
nej	-1246
▁sv	-1247
ES	-1248
AR	-1249
▁one	-1250
hn	-1251
▁mat	-1252
▁sta	-1253
▁wat	-1254
▁waar	-1255
ders	-1256
▁import	-1257
▁anche	-1258
met	-1259
▁sont	-1260
ible	-1261
ena	-1262
▁bra	-1263
ds	-1264
▁bel	-1265
ON	-1266
▁pla	-1267
▁dar	-1268
▁zw	-1269
▁partic	-1270
▁noch	-1271
▁Est	-1272
erg	-1273
▁ben	-1274
▁id	-1275
▁Te	-1276
idades	-1277
iner	-1278
▁worden	-1279
icz	-1280
ét	-1281
antes	-1282
itar	-1283
▁fot	-1284
▁end	-1285
▁kann	-1286
▁tre	-1287
▁ann	-1288
▁bei	-1289
aut	-1290
▁ans	-1291
vin	-1292
▁blog	-1293
▁super	-1294
▁onder	-1295
leg	-1296
▁nec	-1297
ische	-1298
▁ide	-1299
ningen	-1300
iliz	-1301
cip	-1302
▁tid	-1303
▁gar	-1304
▁blev	-1305
ction	-1306
▁bru	-1307
wie	-1308
IN	-1309
icos	-1310
ycz	-1311
nego	-1312
▁about	-1313
▁ste	-1314
▁Pol	-1315
isch	-1316
bet	-1317
▁loc	-1318
▁gu	-1319
▁ok	-1320
▁hv	-1321
raf	-1322
▁diff	-1323
ées	-1324
ár	-1325
ours	-1326
jąc	-1327
ona	-1328
my	-1329
cze	-1330
▁seu	-1331
inter	-1332
bej	-1333
enden	-1334
ini	-1335
ling	-1336
▁gan	-1337
▁nous	-1338
▁It	-1339
▁post	-1340
▁må	-1341
▁wird	-1342
▁word	-1343
str	-1344
ep	-1345
▁sul	-1346
▁aber	-1347
vers	-1348
éd	-1349
dy	-1350
▁gem	-1351
owie	-1352
æl	-1353
▁Me	-1354
ną	-1355
▁more	-1356
▁hist	-1357
imento	-1358
▁någ	-1359
ular	-1360
OR	-1361
▁Men	-1362
▁fir	-1363
être	-1364
rol	-1365
ator	-1366
ph	-1367
▁Jag	-1368
▁Na	-1369
▁dla	-1370
ellen	-1371
ww	-1372
▁deze	-1373
▁Inter	-1374
▁här	-1375
▁ale	-1376
ern	-1377
▁ol	-1378
▁plan	-1379
iti	-1380
ias	-1381
▁num	-1382
owy	-1383
▁fac	-1384
▁sn	-1385
▁contr	-1386
▁prin	-1387
ient	-1388
sl	-1389
idos	-1390
abe	-1391
ska	-1392
af	-1393
▁Ik	-1394
▁meer	-1395
▁compl	-1396
▁vid	-1397
▁dir	-1398
erv	-1399
▁inc	-1400
▁Si	-1401
▁uns	-1402
”.	-1403
▁realiz	-1404
▁einen	-1405
▁On	-1406
ame	-1407
iene	-1408
ello	-1409
▁ven	-1410
▁far	-1411
▁ska	-1412
mes	-1413
▁ét	-1414
▁kommer	-1415
ret	-1416
▁mor	-1417
ager	-1418
▁As	-1419
forma	-1420
▁Euro	-1421
▁heeft	-1422
jes	-1423
alen	-1424
of	-1425
▁dec	-1426
▁Ab	-1427
ian	-1428
▁conf	-1429
amp	-1430
▁naj	-1431
▁vot	-1432
▁när	-1433
app	-1434
▁'	-1435
éc	-1436
▁tot	-1437
▁program	-1438
ents	-1439
▁dz	-1440
▁Ich	-1441
▁his	-1442
▁stor	-1443
▁lib	-1444
▁via	-1445
▁get	-1446
▁cal	-1447
iche	-1448
rad	-1449
hing	-1450
erd	-1451
án	-1452
▁Ze	-1453
▁nur	-1454
det	-1455
ład	-1456
▁kön	-1457
”,	-1458
ola	-1459
ua	-1460
▁if	-1461
ala	-1462
▁Dan	-1463
acji	-1464
▁let	-1465
yw	-1466
▁time	-1467
line	-1468
▁å	-1469
▁får	-1470
ott	-1471
▁sub	-1472
ador	-1473
▁haben	-1474
kel	-1475
iert	-1476
▁også	-1477
▁forma	-1478
▁problem	-1479
▁bas	-1480
▁lä	-1481
▁fo	-1482
ią	-1483
▁gli	-1484
▁Ge	-1485
▁lig	-1486
iser	-1487
led	-1488
uen	-1489
øj	-1490
undo	-1491
▁Po	-1492
▁voc	-1493
ils	-1494
ange	-1495
▁ev	-1496
▁oraz	-1497
kar	-1498
cias	-1499
agen	-1500
ystem	-1501
ron	-1502
esto	-1503
orn	-1504
▁tip	-1505
niej	-1506
owych	-1507
urt	-1508
▁sein	-1509
▁gener	-1510
▁lu	-1511
▁viel	-1512
▁Pl	-1513
▁inf	-1514
ppen	-1515
uje	-1516
▁quel	-1517
▁Das	-1518
▁hvor	-1519
ants	-1520
olo	-1521
ament	-1522
ateg	-1523
▁Per	-1524
med	-1525
ieren	-1526
ência	-1527
▁fre	-1528
▁przez	-1529
▁/	-1530
pport	-1531
▁pom	-1532
▁Ho	-1533
gar	-1534
abil	-1535
ital	-1536
▁hun	-1537
het	-1538
sz	-1539
xt	-1540
▁who	-1541
▁være	-1542
heid	-1543
rit	-1544
▁Vo	-1545
▁ja	-1546
▁some	-1547
▁may	-1548
▁mater	-1549
hal	-1550
ischen	-1551
▁fait	-1552
▁what	-1553
▁Or	-1554
▁their	-1555
▁mö	-1556
isten	-1557
old	-1558
▁Kom	-1559
ift	-1560
▁Ad	-1561
ustr	-1562
jor	-1563
▁mog	-1564
▁them	-1565
ges	-1566
▁DE	-1567
▁Med	-1568
ika	-1569
ún	-1570
sa	-1571
øn	-1572
▁moż	-1573
▁stud	-1574
aż	-1575
▁lie	-1576
▁są	-1577
ności	-1578
▁cond	-1579
▁Bl	-1580
▁Reg	-1581
▁compr	-1582
▁natur	-1583
▁todo	-1584
itet	-1585
▁‘	-1586
elser	-1587
▁tal	-1588
▁would	-1589
▁Sk	-1590
▁Am	-1591
ald	-1592
▁like	-1593
onder	-1594
▁todos	-1595
▁there	-1596
▁pero	-1597
war	-1598
sen	-1599
▁bis	-1600
▁mens	-1601
oro	-1602
▁sent	-1603
▁Fran	-1604
▁nov	-1605
▁hebben	-1606
▁aqu	-1607
ême	-1608
▁Ein	-1609
▁apr	-1610
łem	-1611
▁va	-1612
▁Co	-1613
▁kont	-1614
▁pop	-1615
aciones	-1616
ungs	-1617
▁lang	-1618
▁faire	-1619
ktion	-1620
▁polit	-1621
▁To	-1622
yd	-1623
▁Por	-1624
▁bez	-1625
wor	-1626
▁esta	-1627
inder	-1628
łą	-1629
▁ye	-1630
▁einer	-1631
▁você	-1632
▁incl	-1633
▁const	-1634
▁añ	-1635
almente	-1636
eta	-1637
".	-1638
▁tym	-1639
essa	-1640
▁Pa	-1641
▁meg	-1642
jäl	-1643
▁aux	-1644
atur	-1645
ün	-1646
ix	-1647
▁wordt	-1648
▁mol	-1649
▁situ	-1650
▁comun	-1651
ibil	-1652
▁era	-1653
▁vez	-1654
▁ai	-1655
anc	-1656
iska	-1657
osta	-1658
▁Jeg	-1659
▁foi	-1660
anti	-1661
▁tur	-1662
▁gru	-1663
▁prom	-1664
▁hav	-1665
lio	-1666
ession	-1667
yl	-1668
▁ä	-1669
own	-1670
▁know	-1671
bra	-1672
cu	-1673
tra	-1674
stand	-1675
▁_	-1676
▁port	-1677
▁ap	-1678
ember	-1679
iga	-1680
▁där	-1681
."	-1682
nem	-1683
▁akt	-1684
ulle	-1685
ís	-1686
▁Les	-1687
bie	-1688
▁vir	-1689
uur	-1690
▁över	-1691
▁questo	-1692
▁Et	-1693
ict	-1694
▁zum	-1695
▁Do	-1696
▁ur	-1697
▁gel	-1698
gs	-1699
▁solo	-1700
nings	-1701
enie	-1702
▁bon	-1703
▁Her	-1704
aria	-1705
lie	-1706
▁Mo	-1707
.”	-1708
▁land	-1709
ws	-1710
▁dro	-1711
ST	-1712
▁arr	-1713
ely	-1714
▁Man	-1715
▁Min	-1716
enia	-1717
▁contin	-1718
cher	-1719
ijke	-1720
▁Go	-1721
▁ir	-1722
▁bę	-1723
acer	-1724
edan	-1725
▁mehr	-1726
▁perm	-1727
AL	-1728
AT	-1729
▁gest	-1730
▁wenn	-1731
▁been	-1732
▁które	-1733
▁einem	-1734
iger	-1735
▁mån	-1736
▁princip	-1737
entro	-1738
ence	-1739
▁bus	-1740
▁zur	-1741
▁skr	-1742
▁ges	-1743
emb	-1744
æk	-1745
ines	-1746
oria	-1747
▁our	-1748
▁&	-1749
king	-1750
▁Des	-1751
imi	-1752
gra	-1753
▁Em	-1754
▁faz	-1755
ved	-1756
▁För	-1757
hre	-1758
zw	-1759
▁Ex	-1760
szyst	-1761
elen	-1762
▁spr	-1763
▁sex	-1764
vid	-1765
▁sens	-1766
ço	-1767
oug	-1768
arna	-1769
▁hij	-1770
ece	-1771
cept	-1772
zę	-1773
øl	-1774
ires	-1775
iera	-1776
",	-1777
▁div	-1778
ex	-1779
▁”	-1780
acht	-1781
orr	-1782
▁conc	-1783
▁cette	-1784
▁red	-1785
▁ber	-1786
enter	-1787
ød	-1788
atr	-1789
tern	-1790
▁essere	-1791
jekt	-1792
▁segu	-1793
▁exper	-1794
▁hem	-1795
▁minut	-1796
▁mir	-1797
▁even	-1798
van	-1799
iske	-1800
eds	-1801
▁pou	-1802
▁priv	-1803
▁sempre	-1804
ester	-1805
▁divers	-1806
unto	-1807
dat	-1808
inger	-1809
cji	-1810
ít	-1811
▁Jo	-1812
ony	-1813
▁Im	-1814
orte	-1815
▁And	-1816
▁social	-1817
▁caso	-1818
▁also	-1819
itos	-1820
tag	-1821
▁hon	-1822
neh	-1823
▁eu	-1824
▁propr	-1825
▁tv	-1826
▁which	-1827
▁X	-1828
▁gi	-1829
▁cli	-1830
▁sec	-1831
bal	-1832
▁pag	-1833
▁ric	-1834
▁result	-1835
▁any	-1836
▁tempo	-1837
▁Su	-1838
oir	-1839
aren	-1840
any	-1841
▁votre	-1842
▁utiliz	-1843
▁hum	-1844
ować	-1845
ultur	-1846
iego	-1847
nac	-1848
ative	-1849
liga	-1850
cho	-1851
▁vra	-1852
▁Br	-1853
▁zap	-1854
lem	-1855
lijk	-1856
▁when	-1857
▁quando	-1858
▁comme	-1859
▁log	-1860
eller	-1861
▁skulle	-1862
lige	-1863
ues	-1864
äng	-1865
▁norm	-1866
lichen	-1867
rå	-1868
▁oc	-1869
ema	-1870
dern	-1871
▁now	-1872
cion	-1873
▁public	-1874
▁tele	-1875
▁unter	-1876
▁Ja	-1877
▁organiz	-1878
aux	-1879
chi	-1880
▁ph	-1881
▁samt	-1882
th	-1883
▁Om	-1884
aden	-1885
▁bil	-1886
bor	-1887
ader	-1888
▁än	-1889
yg	-1890
ades	-1891
▁pré	-1892
▁uw	-1893
▁nom	-1894
▁helt	-1895
▁vill	-1896
ople	-1897
▁geen	-1898
ju	-1899
▁muito	-1900
osa	-1901
▁want	-1902
plo	-1903
æg	-1904
▁ça	-1905
row	-1906
▁hu	-1907
ativa	-1908
di	-1909
zioni	-1910
▁pon	-1911
▁uno	-1912
▁beh	-1913
cket	-1914
amb	-1915
▁dest	-1916
▁wię	-1917
▁ihr	-1918
lä	-1919
fü	-1920
▁hot	-1921
▁Nie	-1922
▁;	-1923
ół	-1924
OS	-1925
etto	-1926
amy	-1927
▁¿	-1928
utt	-1929
▁You	-1930
iesz	-1931
▁hom	-1932
assen	-1933
▁sab	-1934
lt	-1935
▁fol	-1936
▁vara	-1937
▁site	-1938
▁ses	-1939
▁können	-1940
▁look	-1941
aba	-1942
▁bin	-1943
▁vin	-1944
reg	-1945
▁ord	-1946
ondo	-1947
▁même	-1948
æt	-1949
AS	-1950
▁equ	-1951
ück	-1952
▁Fr	-1953
ated	-1954
▁Car	-1955
▁esp	-1956
▁kle	-1957
ismo	-1958
▁lub	-1959
▁cel	-1960
elh	-1961
ól	-1962
▁dann	-1963
fic	-1964
▁cir	-1965
▁fat	-1966
▁pelo	-1967
▁andere	-1968
▁ever	-1969
▁cada	-1970
gende	-1971
▁vær	-1972
▁être	-1973
ibt	-1974
▁cui	-1975
▁grand	-1976
▁peut	-1977
pis	-1978
▁famil	-1979
▁sä	-1980
isto	-1981
▁mere	-1982
▁gre	-1983
▁kunnen	-1984
▁dev	-1985
ário	-1986
kte	-1987
▁dia	-1988
inen	-1989
▁chi	-1990
mt	-1991
udo	-1992
▁durch	-1993
gio	-1994
ender	-1995
▁são	-1996
vens	-1997
▁Ha	-1998
▁Jahr	-1999
▁selv	-2000
vert	-2001
▁bard	-2002
▁fal	-2003
plic	-2004
▁zak	-2005
▁ba	-2006
▁daar	-2007
▁wszyst	-2008
▁før	-2009
▁set	-2010
chn	-2011
ró	-2012
▁informa	-2013
owej	-2014
ilt	-2015
▁exp	-2016
▁sou	-2017
▁Art	-2018
▁grande	-2019
anda	-2020
ads	-2021
▁mijn	-2022
▁cou	-2023
erne	-2024
▁verd	-2025
▁nella	-2026
▁vida	-2027
▁anv	-2028
▁hö	-2029
yst	-2030
eda	-2031
▁sign	-2032
jar	-2033
ical	-2034
▁tom	-2035
los	-2036
ET	-2037
▁ya	-2038
▁cur	-2039
▁prim	-2040
▁prod	-2041
ock	-2042
▁hos	-2043
▁peu	-2044
gli	-2045
▁start	-2046
▁muy	-2047
mail	-2048
▁jaar	-2049
▁Bo	-2050
▁Aus	-2051
ché	-2052
▁goed	-2053
car	-2054
▁eigen	-2055
▁film	-2056
▁tar	-2057
wy	-2058
inda	-2059
idt	-2060
elsen	-2061
▁dzie	-2062
▁ander	-2063
amm	-2064
uta	-2065
▁espe	-2066
▁lim	-2067
▁empres	-2068
▁other	-2069
▁were	-2070
▁sho	-2071
unden	-2072
▁Ro	-2073
▁mich	-2074
▁meget	-2075
▁soci	-2076
▁esc	-2077
▁mass	-2078
▁väl	-2079
▁czas	-2080
▁veel	-2081
esz	-2082
▁Wh	-2083
idas	-2084
pie	-2085
▁euro	-2086
▁neg	-2087
▁than	-2088
uter	-2089
▁cost	-2090
ii	-2091
▁lui	-2092
azioni	-2093
dzi	-2094
▁très	-2095
anden	-2096
ussi	-2097
uit	-2098
▁mul	-2099
anz	-2100
fen	-2101
ary	-2102
▁doc	-2103
▁tamb	-2104
fon	-2105
▁people	-2106
▁soll	-2107
iere	-2108
ution	-2109
▁schon	-2110
▁Så	-2111
▁Ind	-2112
ava	-2113
▁gew	-2114
▁Op	-2115
▁wur	-2116
▁real	-2117
▁pode	-2118
▁rest	-2119
▁nuest	-2120
▁Wir	-2121
öl	-2122
enda	-2123
atter	-2124
wn	-2125
igo	-2126
ella	-2127
▁Da	-2128
▁she	-2129
▁Um	-2130
▁ple	-2131
▁tego	-2132
▁Lo	-2133
duc	-2134
úbl	-2135
▁jo	-2136
asse	-2137
owania	-2138
▁finns	-2139
oud	-2140
▁Is	-2141
▁him	-2142
▁sehr	-2143
adores	-2144
agt	-2145
ín	-2146
liche	-2147
▁bem	-2148
▁á	-2149
ograf	-2150
▁bec	-2151
EL	-2152
▁Wo	-2153
▁test	-2154
tait	-2155
▁fort	-2156
let	-2157
mos	-2158
▁fav	-2159
ług	-2160
IC	-2161
▁pes	-2162
ób	-2163
▁bre	-2164
▁fram	-2165
quer	-2166
anno	-2167
IS	-2168
▁pet	-2169
▁most	-2170
ief	-2171
ody	-2172
chter	-2173
▁då	-2174
nis	-2175
▁habe	-2176
uni	-2177
▁moment	-2178
erson	-2179
▁tyl	-2180
hold	-2181
▁também	-2182
vez	-2183
vet	-2184
▁går	-2185
▁ren	-2186
▁Fra	-2187
▁online	-2188
lement	-2189
▁kw	-2190
▁—	-2191
▁find	-2192
lar	-2193
gang	-2194
▁dist	-2195
▁casa	-2196
uj	-2197
▁hur	-2198
▁said	-2199
▁fu	-2200
odo	-2201
ages	-2202
ident	-2203
ninger	-2204
▁Een	-2205
rze	-2206
zer	-2207
endre	-2208
geb	-2209
▁Fre	-2210
ish	-2211
▁mind	-2212
vær	-2213
ári	-2214
▁pal	-2215
una	-2216
▁kra	-2217
▁nad	-2218
▁sit	-2219
▁Para	-2220
▁bud	-2221
isation	-2222
anten	-2223
osten	-2224
agem	-2225
aste	-2226
▁momento	-2227
!!!	-2228
ren	-2229
▁This	-2230
ful	-2231
▁já	-2232
▁deb	-2233
▁zd	-2234
ole	-2235
▁lug	-2236
▁•	-2237
ves	-2238
kow	-2239
ivid	-2240
▁któr	-2241
inst	-2242
part	-2243
▁necess	-2244
ani	-2245
▁Mon	-2246
▁ons	-2247
▁tylko	-2248
vere	-2249
unkt	-2250
▁pela	-2251
▁how	-2252
ång	-2253
øb	-2254
eto	-2255
emp	-2256
lia	-2257
▁wieder	-2258
IT	-2259
//	-2260
▁Ber	-2261
▁Sam	-2262
ouw	-2263
▁Har	-2264
át	-2265
▁immer	-2266
▁wiel	-2267
öra	-2268
▁vide	-2269
▁prov	-2270
▁ti	-2271
vr	-2272
▁bene	-2273
▁*	-2274
elles	-2275
OM	-2276
▁tijd	-2277
tri	-2278
▁durante	-2279
▁nem	-2280
▁prima	-2281
▁jour	-2282
▁contra	-2283
▁otr	-2284
conom	-2285
▁week	-2286
vie	-2287
▁ock	-2288
▁porque	-2289
▁At	-2290
▁rem	-2291
▁mycket	-2292
ienia	-2293
nos	-2294
ifica	-2295
▁invest	-2296
tes	-2297
▁defin	-2298
▁igen	-2299
▁make	-2300
▁gior	-2301
ices	-2302
▁swo	-2303
▁allt	-2304
▁US	-2305
▁weer	-2306
ości	-2307
▁ru	-2308
://	-2309
ligen	-2310
oli	-2311
▁aff	-2312
▁hay	-2313
▁hal	-2314
ense	-2315
▁long	-2316
▁Ä	-2317
owanie	-2318
zon	-2319
▁char	-2320
gu	-2321
cou	-2322
ningar	-2323
nal	-2324
ures	-2325
▁star	-2326
eln	-2327
▁Os	-2328
▁också	-2329
▁gebru	-2330
asz	-2331
ará	-2332
▁poder	-2333
anza	-2334
kommen	-2335
anç	-2336
▁aussi	-2337
▁fer	-2338
▁suis	-2339
essen	-2340
▁work	-2341
▁activ	-2342
▁traba	-2343
▁mont	-2344
ares	-2345
▁może	-2346
▁:)	-2347
▁did	-2348
▁pesso	-2349
mal	-2350
▁desde	-2351
lex	-2352
▁bå	-2353
ós	-2354
ject	-2355
▁ps	-2356
urg	-2357
▁job	-2358
zion	-2359
▁dispos	-2360
▁sid	-2361
▁lat	-2362
▁pen	-2363
ula	-2364
adr	-2365
▁speci	-2366
omen	-2367
▁gå	-2368
ege	-2369
▁new	-2370
▁arbej	-2371
▁internet	-2372
wij	-2373
▁lite	-2374
▁prop	-2375
øg	-2376
▁vår	-2377
amer	-2378
▁back	-2379
▁disc	-2380
▁już	-2381
öd	-2382
ęp	-2383
▁vä	-2384
▁oper	-2385
▁Dat	-2386
mark	-2387
▁kil	-2388
▁particip	-2389
ath	-2390
oren	-2391
▁versch	-2392
▁think	-2393
tain	-2394
▁kommun	-2395
imin	-2396
fo	-2397
▁bara	-2398
▁Kl	-2399
▁só	-2400
ście	-2401
▁puede	-2402
▁opt	-2403
▁perf	-2404
etzt	-2405
▁modo	-2406
▁Pre	-2407
▁przed	-2408
▁good	-2409
▁aller	-2410
▁Nu	-2411
wią	-2412
äd	-2413
ational	-2414
allen	-2415
keit	-2416
miss	-2417
▁interess	-2418
øre	-2419
imos	-2420
▁into	-2421
▁nam	-2422
ías	-2423
ulo	-2424
▁system	-2425
acc	-2426
ED	-2427
bién	-2428
▁precis	-2429
▁zich	-2430
▁frem	-2431
▁esper	-2432
zenia	-2433
etti	-2434
AD	-2435
som	-2436
dk	-2437
▁autor	-2438
▁alles	-2439
▁consider	-2440
▁Chr	-2441
jud	-2442
▁rece	-2443
▁tec	-2444
▁event	-2445
▁tutti	-2446
uc	-2447
ski	-2448
▁If	-2449
▁see	-2450
▁degli	-2451
▁pró	-2452
▁mie	-2453
▁syn	-2454
anta	-2455
kor	-2456
ícul	-2457
▁Fl	-2458
▁net	-2459
izione	-2460
▁could	-2461
ativo	-2462
▁når	-2463
▁dru	-2464
åll	-2465
entre	-2466
▁bill	-2467
▁tras	-2468
▁respons	-2469
reb	-2470
??	-2471
▁very	-2472
▁Og	-2473
▁Gen	-2474
ppe	-2475
ule	-2476
▁ż	-2477
▁été	-2478
estaur	-2479
▁zal	-2480
▁spraw	-2481
ook	-2482
▁vie	-2483
illa	-2484
ree	-2485
▁prote	-2486
istema	-2487
▁miss	-2488
isa	-2489
▁förs	-2490
ivi	-2491
▁ú	-2492
▁zelf	-2493
äs	-2494
▁wij	-2495
▁ban	-2496
uren	-2497
chte	-2498
oto	-2499
▁Auf	-2500
AM	-2501
▁Ter	-2502
cker	-2503
▁Hot	-2504
fol	-2505
▁vad	-2506
glich	-2507
▁etc	-2508
▁stat	-2509
ough	-2510
▁leur	-2511
▁vu	-2512
▁vec	-2513
▁propos	-2514
▁Kon	-2515
▁hacer	-2516
▁andra	-2517
iejs	-2518
▁Som	-2519
kan	-2520
feren	-2521
▁Pour	-2522
izz	-2523
ama	-2524
▁dej	-2525
ife	-2526
ég	-2527
änder	-2528
▁tanto	-2529
▁mill	-2530
▁stand	-2531
▁bardzo	-2532
▁mundo	-2533
æs	-2534
▁até	-2535
▁need	-2536
▁Zeit	-2537
▁nou	-2538
▁due	-2539
▁pap	-2540
▁kol	-2541
▁information	-2542
nas	-2543
ej	-2544
▁Mais	-2545
▁htt	-2546
▁Tra	-2547
▁vores	-2548
▁alc	-2549
▁dus	-2550
▁ces	-2551
istas	-2552
▁moet	-2553
dom	-2554
▁gez	-2555
▁onze	-2556
clus	-2557
atz	-2558
bil	-2559
▁É	-2560
▁elle	-2561
▁commun	-2562
▁Bar	-2563
él	-2564
▁Fin	-2565
▁Als	-2566
agn	-2567
▁ref	-2568
dan	-2569
▁nost	-2570
chten	-2571
yj	-2572
▁favor	-2573
▁gibt	-2574
▁ens	-2575
▁centr	-2576
▁Los	-2577
▁trat	-2578
▁fast	-2579
OL	-2580
▁only	-2581
▁Sa	-2582
zza	-2583
onn	-2584
▁stra	-2585
▁present	-2586
▁tit	-2587
▁vär	-2588
onte	-2589
elig	-2590
tere	-2591
▁wsp	-2592
ones	-2593
iken	-2594
ivos	-2595
IL	-2596
▁nä	-2597
nt	-2598
ugh	-2599
▁dam	-2600
▁mange	-2601
▁Unter	-2602
▁neces	-2603
▁ih	-2604
▁hele	-2605
▁hade	-2606
▁unser	-2607
▁base	-2608
▁godt	-2609
nak	-2610
erste	-2611
ory	-2612
▁comb	-2613
▁fant	-2614
aff	-2615
▁Ser	-2616
eben	-2617
▁fem	-2618
ering	-2619
▁temps	-2620
▁años	-2621
śli	-2622
▁gut	-2623
oso	-2624
▁doen	-2625
▁bek	-2626
ição	-2627
▁total	-2628
itam	-2629
▁diese	-2630
▁bro	-2631
▁nuo	-2632
▁bliver	-2633
▁tous	-2634
▁maken	-2635
▁trabal	-2636
ème	-2637
kter	-2638
kst	-2639
idente	-2640
nu	-2641
wad	-2642
under	-2643
▁ident	-2644
bud	-2645
▁zou	-2646
itter	-2647
▁hj	-2648
ye	-2649
▁#	-2650
vir	-2651
▁energ	-2652
ady	-2653
▁dalla	-2654
uli	-2655
ähr	-2656
enza	-2657
▁ang	-2658
▁Od	-2659
▁fut	-2660
▁lar	-2661
kie	-2662
zej	-2663
łu	-2664
lin	-2665
imm	-2666
▁extra	-2667
▁eg	-2668
hus	-2669
aler	-2670
▁ing	-2671
ibile	-2672
▁molto	-2673
▁hvis	-2674
▁exc	-2675
pend	-2676
▁Sver	-2677
▁sans	-2678
▁final	-2679
▁anos	-2680
▁bör	-2681
heit	-2682
jen	-2683
▁nue	-2684
▁product	-2685
ogo	-2686
osto	-2687
▁finan	-2688
▁x	-2689
▁bere	-2690
▁ży	-2691
heden	-2692
rar	-2693
RO	-2694
▁tipo	-2695
▁país	-2696
▁tim	-2697
▁roku	-2698
ogle	-2699
▁well	-2700
▁posit	-2701
▁anni	-2702
icy	-2703
▁cual	-2704
▁way	-2705
▁here	-2706
▁cuando	-2707
▁Str	-2708
▁mam	-2709
▁prés	-2710
▁oss	-2711
▁algun	-2712
▁Res	-2713
▁melh	-2714
▁individ	-2715
▁abs	-2716
▁lavor	-2717
▁jus	-2718
▁trad	-2719
▁trou	-2720
▁wys	-2721
rie	-2722
och	-2723
▁hor	-2724
▁loro	-2725
▁caus	-2726
▁gran	-2727
ogen	-2728
ationen	-2729
naj	-2730
▁będzie	-2731
óg	-2732
ują	-2733
▁Mit	-2734
▁merc	-2735
▁havde	-2736
▁genom	-2737
▁Cons	-2738
inha	-2739
▁gaan	-2740
▁pier	-2741
▁Mens	-2742
▁prime	-2743
bst	-2744
▁bor	-2745
▁miejs	-2746
ód	-2747
łącz	-2748
cej	-2749
ids	-2750
▁Und	-2751
ministr	-2752
▁odp	-2753
▁mesmo	-2754
▁vind	-2755
▁blir	-2756
▁Han	-2757
har	-2758
▁All	-2759
▁Mas	-2760
▁orig	-2761
▁deux	-2762
▁kunne	-2763
otto	-2764
isc	-2765
▁rad	-2766
▁webs	-2767
▁gesch	-2768
ellt	-2769
▁forsk	-2770
egu	-2771
ause	-2772
anu	-2773
▁sia	-2774
▁dispon	-2775
▁especial	-2776
▁hanno	-2777
▁nun	-2778
isse	-2779
▁importante	-2780
▁gratis	-2781
åd	-2782
▁toda	-2783
▁ø	-2784
▁Met	-2785
kę	-2786
isti	-2787
▁Ste	-2788
▁wurde	-2789
fici	-2790
pper	-2791
▁Wy	-2792
ware	-2793
ced	-2794
ying	-2795
▁hoe	-2796
aga	-2797
▁autom	-2798
atte	-2799
ân	-2800
▁lok	-2801
▁Inst	-2802
auf	-2803
ność	-2804
ków	-2805
▁kän	-2806
▁può	-2807
press	-2808
▁denne	-2809
izi	-2810
voor	-2811
▁Ob	-2812
nika	-2813
oth	-2814
▁fly	-2815
▁andre	-2816
▁pris	-2817
uwe	-2818
▁Non	-2819
▁cour	-2820
jon	-2821
▁sistema	-2822
▁públ	-2823
▁Vor	-2824
▁På	-2825
▁IN	-2826
▁down	-2827
itor	-2828
ök	-2829
ebook	-2830
ño	-2831
▁sedan	-2832
owego	-2833
▁wz	-2834
atori	-2835
▁även	-2836
▁noget	-2837
acional	-2838
iness	-2839
▁Fac	-2840
▁artic	-2841
▁Ges	-2842
▁både	-2843
▁isso	-2844
▁fund	-2845
icio	-2846
contr	-2847
▁equip	-2848
▁rów	-2849
▁use	-2850
▁anal	-2851
▁tiem	-2852
▁continu	-2853
▁tiene	-2854
utsch	-2855
▁también	-2856
▁help	-2857
RE	-2858
▁Au	-2859
pi	-2860
open	-2861
▁place	-2862
▁But	-2863
kład	-2864
ows	-2865
▁Å	-2866
▁być	-2867
▁lot	-2868
sto	-2869
berg	-2870
▁requ	-2871
▁menos	-2872
▁tutto	-2873
▁kvin	-2874
▁ainda	-2875
▁insp	-2876
▁można	-2877
owi	-2878
istra	-2879
▁ton	-2880
ussen	-2881
ites	-2882
▁dra	-2883
▁should	-2884
▁será	-2885
hos	-2886
▁quer	-2887
iller	-2888
▁nada	-2889
▁Mer	-2890
▁cho	-2891
▁foto	-2892
ID	-2893
▁mid	-2894
▁haar	-2895
fahr	-2896
ikker	-2897
ßen	-2898
fort	-2899
érie	-2900
dra	-2901
▁själ	-2902
bol	-2903
▁wil	-2904
plan	-2905
▁gaat	-2906
amen	-2907
tement	-2908
ível	-2909
present	-2910
eli	-2911
▁últ	-2912
baar	-2913
las	-2914
etz	-2915
elli	-2916
▁gam	-2917
▁Bras	-2918
▁Ö	-2919
▁questa	-2920
▁ville	-2921
amiento	-2922
fore	-2923
ters	-2924
bij	-2925
▁sett	-2926
▁ig	-2927
▁service	-2928
▁first	-2929
ôt	-2930
▁grund	-2931
▁Za	-2932
▁viv	-2933
▁fare	-2934
mas	-2935
ês	-2936
ecz	-2937
▁utan	-2938
was	-2939
▁these	-2940
ários	-2941
▁tecn	-2942
▁mejor	-2943
▁besch	-2944
uis	-2945
▁quanto	-2946
aix	-2947
til	-2948
rat	-2949
cza	-2950
▁werk	-2951
ecto	-2952
▁Jak	-2953
▁sport	-2954
iamo	-2955
▁anim	-2956
▁tan	-2957
RA	-2958
ighed	-2959
▁fazer	-2960
▁gł	-2961
▁hen	-2962
ederland	-2963
▁sto	-2964
▁fig	-2965
ENT	-2966
ænd	-2967
ktiv	-2968
▁tegen	-2969
▁twe	-2970
ander	-2971
▁mensen	-2972
▁kor	-2973
▁todas	-2974
óż	-2975
▁Was	-2976
▁też	-2977
fach	-2978
▁bør	-2979
ój	-2980
...]	-2981
▁lever	-2982
▁Dit	-2983
▁Dies	-2984
▁tag	-2985
▁bi	-2986
▁led	-2987
▁+	-2988
pra	-2989
vär	-2990
uten	-2991
unque	-2992
cep	-2993
ances	-2994
▁Ihr	-2995
▁Ant	-2996
.,	-2997
ude	-2998
len	-2999
▁vos	-3000
kn	-3001
ool	-3002
▁techn	-3003
▁produc	-3004
▁zas	-3005
gere	-3006
▁then	-3007
▁its	-3008
odzi	-3009
▁hvad	-3010
▁gör	-3011
▁seus	-3012
ving	-3013
▁waren	-3014
cil	-3015
▁two	-3016
pol	-3017
łam	-3018
ptem	-3019
itas	-3020
▁sé	-3021
▁dot	-3022
▁really	-3023
leich	-3024
osp	-3025
cir	-3026
rait	-3027
atten	-3028
zym	-3029
▁still	-3030
hör	-3031
▁behand	-3032
rot	-3033
▁EU	-3034
▁zosta	-3035
ymi	-3036
roll	-3037
ements	-3038
▁sil	-3039
▁cri	-3040
edes	-3041
pan	-3042
ING	-3043
▁fakt	-3044
▁gio	-3045
▁Sh	-3046
pla	-3047
vec	-3048
▁tor	-3049
▁każ	-3050
uts	-3051
enten	-3052
▁tab	-3053
▁Kr	-3054
▁Cl	-3055
IA	-3056
asi	-3057
▁asp	-3058
▁heel	-3059
ieden	-3060
▁data	-3061
In	-3062
vik	-3063
▁który	-3064
▁last	-3065
inal	-3066
śmy	-3067
▁Bes	-3068
▁Ent	-3069
▁pat	-3070
▁objet	-3071
ppo	-3072
▁top	-3073
▁tiempo	-3074
▁barn	-3075
▁Person	-3076
▁garant	-3077
II	-3078
aj	-3079
▁mij	-3080
öm	-3081
arr	-3082
▁pan	-3083
beit	-3084
▁Ger	-3085
ward	-3086
ggi	-3087
mon	-3088
ium	-3089
iała	-3090
▁hus	-3091
▁deter	-3092
aggio	-3093
oma	-3094
▁years	-3095
zenie	-3096
▁cin	-3097
ruct	-3098
▁estar	-3099
arios	-3100
emente	-3101
wiet	-3102
▁detta	-3103
nan	-3104
▁peri	-3105
EM	-3106
▁inde	-3107
ös	-3108
▁ay	-3109
chts	-3110
kken	-3111
▁stato	-3112
▁intern	-3113
änn	-3114
▁comment	-3115
skab	-3116
▁succ	-3117
.)	-3118
▁www	-3119
▁vel	-3120
▁kort	-3121
▁moi	-3122
▁arb	-3123
▁blij	-3124
elijke	-3125
▁doch	-3126
▁rapp	-3127
eme	-3128
▁así	-3129
▁raz	-3130
hav	-3131
wia	-3132
▁ogni	-3133
ah	-3134
▁direct	-3135
▁great	-3136
stell	-3137
ates	-3138
vern	-3139
▁Wie	-3140
lej	-3141
▁verb	-3142
▁proces	-3143
arch	-3144
▁Nederland	-3145
▁algo	-3146
▁Gra	-3147
gest	-3148
▁deve	-3149
▁decis	-3150
▁Maar	-3151
giv	-3152
adre	-3153
ucht	-3154
borg	-3155
▁prev	-3156
▁Cont	-3157
way	-3158
▁projekt	-3159
▁got	-3160
▁many	-3161
▁lige	-3162
atura	-3163
ends	-3164
▁km	-3165
▁weiter	-3166
ńst	-3167
▁mand	-3168
▁Nach	-3169
ake	-3170
▁ped	-3171
▁bol	-3172
▁fest	-3173
▁ingen	-3174
▁li	-3175
▁bag	-3176
▁lidt	-3177
▁poco	-3178
zien	-3179
▁occ	-3180
unde	-3181
skr	-3182
esser	-3183
▁deres	-3184
fa	-3185
▁because	-3186
stå	-3187
▁fel	-3188
▁after	-3189
▁Land	-3190
ikel	-3191
▁colle	-3192
▁open	-3193
rei	-3194
▁tien	-3195
▁atra	-3196
öt	-3197
▁antes	-3198
unic	-3199
sel	-3200
▁bal	-3201
omo	-3202
▁czę	-3203
▁Internet	-3204
ety	-3205
acja	-3206
zeit	-3207
▁sł	-3208
usz	-3209
▁encore	-3210
▁Ce	-3211
▁main	-3212
▁Ol	-3213
▁Univers	-3214
des	-3215
▁sar	-3216
mento	-3217
▁Las	-3218
▁fall	-3219
▁conten	-3220
▁rom	-3221
▁Lu	-3222
embre	-3223
bild	-3224
▁vom	-3225
reich	-3226
▁cosa	-3227
▁%	-3228
▁App	-3229
ités	-3230
▁hasta	-3231
▁every	-3232
arbej	-3233
▁thro	-3234
urch	-3235
▁personal	-3236
vés	-3237
▁apro	-3238
lik	-3239
▁Sal	-3240
▁Inform	-3241
▁donc	-3242
indo	-3243
ume	-3244
iges	-3245
▁ak	-3246
acz	-3247
▁méd	-3248
▁point	-3249
opt	-3250
aram	-3251
▁imm	-3252
▁facil	-3253
▁hjem	-3254
ube	-3255
ición	-3256
▁keine	-3257
▁cha	-3258
bru	-3259
▁profession	-3260
bes	-3261
▁något	-3262
mit	-3263
innen	-3264
▁notre	-3265
ION	-3266
▁göra	-3267
nież	-3268
▁supp	-3269
owane	-3270
▁Fil	-3271
rod	-3272
ąd	-3273
▁kunt	-3274
▁add	-3275
▁día	-3276
▁Hier	-3277
wet	-3278
▁Wat	-3279
wię	-3280
ionen	-3281
ious	-3282
oca	-3283
▁partir	-3284
ffen	-3285
▁eks	-3286
oten	-3287
▁termin	-3288
iskt	-3289
tu	-3290
▁cm	-3291
▁ged	-3292
▁Sto	-3293
aty	-3294
oni	-3295
▁dieser	-3296
ating	-3297
crit	-3298
atti	-3299
▁Wer	-3300
▁indic	-3301
▁estud	-3302
▁give	-3303
▁rés	-3304
round	-3305
ånd	-3306
▁Mal	-3307
▁lin	-3308
▁pel	-3309
▁take	-3310
aro	-3311
▁Col	-3312
▁læ	-3313
▁yo	-3314
▁somet	-3315
▁bli	-3316
▁day	-3317
arse	-3318
god	-3319
▁econom	-3320
▁osob	-3321
rouw	-3322
▁univers	-3323
uv	-3324
icamente	-3325
AC	-3326
▁[...]	-3327
▁mee	-3328
▁list	-3329
vs	-3330
isp	-3331
▁fri	-3332
▁suo	-3333
pad	-3334
osi	-3335
▁TV	-3336
▁bland	-3337
uso	-3338
▁personas	-3339
bed	-3340
ibu	-3341
konom	-3342
▁muss	-3343
▁lugar	-3344
▁lag	-3345
inn	-3346
▁where	-3347
▁Ele	-3348
▁stad	-3349
anger	-3350
▁mest	-3351
olen	-3352
▁Hv	-3353
▁beau	-3354
cas	-3355
ardo	-3356
▁zam	-3357
abr	-3358
soci	-3359
▁många	-3360
▁does	-3361
▁fors	-3362
oper	-3363
has	-3364
▁mai	-3365
▁Gu	-3366
▁rep	-3367
ensk	-3368
▁appro	-3369
▁recom	-3370
ota	-3371
▁także	-3372
▁sammen	-3373
▁ment	-3374
▁anderen	-3375
▁)	-3376
▁€	-3377
owo	-3378
stat	-3379
▁terr	-3380
▁elekt	-3381
▁komment	-3382
ty	-3383
▁rela	-3384
▁Alle	-3385
dem	-3386
▁capac	-3387
▁going	-3388
inge	-3389
▁control	-3390
▁län	-3391
keting	-3392
▁aga	-3393
▁mål	-3394
aft	-3395
▁Hand	-3396
▁sort	-3397
atu	-3398
vend	-3399
▁krij	-3400
▁verk	-3401
▁Och	-3402
organ	-3403
iker	-3404
ape	-3405
▁nieuwe	-3406
▁experien	-3407
▁nombre	-3408
▁fois	-3409
gens	-3410
▁element	-3411
▁fond	-3412
▁sav	-3413
▁My	-3414
uno	-3415
▁ofer	-3416
▁right	-3417
▁Aut	-3418
ichtig	-3419
▁dess	-3420
weg	-3421
▁video	-3422
▁Google	-3423
iek	-3424
ism	-3425
isen	-3426
▁consum	-3427
▁sulla	-3428
wiąz	-3429
▁einfach	-3430
far	-3431
wiad	-3432
▁class	-3433
▁dette	-3434
▁sog	-3435
▁gerne	-3436
yer	-3437
▁esto	-3438
ál	-3439
▁$	-3440
▁enk	-3441
▁restaur	-3442
▁nye	-3443
▁produkt	-3444
▁desc	-3445
crip	-3446
fall	-3447
▁él	-3448
▁term	-3449
▁util	-3450
ienie	-3451
▁Part	-3452
ordan	-3453
fil	-3454
ches	-3455
▁również	-3456
ail	-3457
▁design	-3458
▁senza	-3459
▁local	-3460
cios	-3461
▁ambi	-3462
▁aos	-3463
▁déc	-3464
▁dall	-3465
▁anc	-3466
øde	-3467
veis	-3468
▁pubbl	-3469
hlen	-3470
▁zwe	-3471
▁vend	-3472
▁toch	-3473
▁någon	-3474
etter	-3475
▁Gl	-3476
▁uden	-3477
ics	-3478
▁trava	-3479
ników	-3480
▁Facebook	-3481
▁jako	-3482
▁alleen	-3483
▁Web	-3484
▁Sen	-3485
▁diffic	-3486
▁Produ	-3487
ellem	-3488
eszcze	-3489
jemy	-3490
holm	-3491
inc	-3492
▁gang	-3493
▁Wenn	-3494
▁ganz	-3495
▁echt	-3496
iteit	-3497
stru	-3498
▁made	-3499
nte	-3500
▁cro	-3501
▁podr	-3502
▁process	-3503
▁kar	-3504
ities	-3505
▁fic	-3506
voir	-3507
anos	-3508
▁simple	-3509
issen	-3510
oda	-3511
etr	-3512
inas	-3513
▁before	-3514
zelf	-3515
▁ded	-3516
eling	-3517
ables	-3518
▁http	-3519
teur	-3520
▁besl	-3521
▁year	-3522
▁Una	-3523
vant	-3524
▁espa	-3525
▁ah	-3526
orden	-3527
tober	-3528
üt	-3529
▁hol	-3530
orie	-3531
inho	-3532
erst	-3533
▁too	-3534
▁bad	-3535
ña	-3536
▁algum	-3537
anne	-3538
▁fler	-3539
▁amb	-3540
▁Voor	-3541
mand	-3542
▁fact	-3543
▁faut	-3544
▁website	-3545
▁empresa	-3546
▁New	-3547
lam	-3548
▁Dr	-3549
▁disse	-3550
▁poz	-3551
▁projet	-3552
▁mult	-3553
▁pessoas	-3554
aker	-3555
▁persona	-3556
mier	-3557
halten	-3558
EC	-3559
ksom	-3560
czas	-3561
▁weg	-3562
▁relig	-3563
▁prakt	-3564
▁such	-3565
▁Att	-3566
▁hy	-3567
etag	-3568
▁Kar	-3569
▁svar	-3570
▁conhe	-3571
waż	-3572
▁bom	-3573
etta	-3574
xim	-3575
åt	-3576
▁industr	-3577
▁sor	-3578
▁cert	-3579
▁wym	-3580
ffe	-3581
aka	-3582
-)	-3583
▁Ben	-3584
▁Pod	-3585
▁bit	-3586
mm	-3587
▁being	-3588
over	-3589
atal	-3590
▁vita	-3591
▁nei	-3592
▁absol	-3593
▁etwas	-3594
▁flere	-3595
▁werd	-3596
ptember	-3597
▁those	-3598
▁wszystk	-3599
▁Mil	-3600
▁high	-3601
▁hela	-3602
ump	-3603
▁eens	-3604
▁mnie	-3605
▁prest	-3606
ciones	-3607
iven	-3608
▁Ag	-3609
zyst	-3610
▁cook	-3611
▁nav	-3612
ival	-3613
▁Amer	-3614
▁constru	-3615
üss	-3616
łe	-3617
▁difer	-3618
▁avant	-3619
▁melhor	-3620
▁cab	-3621
▁sei	-3622
dział	-3623
ammen	-3624
▁Menschen	-3625
kc	-3626
▁prepar	-3627
ef	-3628
▁Como	-3629
▁opl	-3630
▁ul	-3631
▁prob	-3632
▁hotel	-3633
▁cult	-3634
▁sido	-3635
▁Port	-3636
ús	-3637
▁vai	-3638
urr	-3639
ifter	-3640
▁rätt	-3641
uti	-3642
▁ned	-3643
▁høj	-3644
▁suc	-3645
terior	-3646
▁fatto	-3647
▁spel	-3648
▁store	-3649
▁två	-3650
chaft	-3651
▁Vol	-3652
▁Ü	-3653
werk	-3654
ieg	-3655
puis	-3656
▁znaj	-3657
UN	-3658
▁moder	-3659
icher	-3660
▁sj	-3661
IV	-3662
ittle	-3663
▁moins	-3664
aron	-3665
▁premi	-3666
▁question	-3667
▁problema	-3668
▁ly	-3669
▁mogelijk	-3670
ág	-3671
▁altern	-3672
IG	-3673
▁vac	-3674
▁perché	-3675
andid	-3676
ness	-3677
ält	-3678
skiego	-3679
▁tend	-3680
▁Pe	-3681
▁Fe	-3682
ksam	-3683
▁complet	-3684
går	-3685
▁sym	-3686
▁try	-3687
itions	-3688
íst	-3689
▁Kont	-3690
iros	-3691
umento	-3692
▁finde	-3693
nic	-3694
utz	-3695
ilo	-3696
ką	-3697
nov	-3698
▁fue	-3699
▁volta	-3700
fra	-3701
▁jego	-3702
før	-3703
▁blive	-3704
mitt	-3705
▁quand	-3706
▁kos	-3707
▁read	-3708
▁uso	-3709
pond	-3710
▁jou	-3711
nar	-3712
▁sobie	-3713
▁through	-3714
▁laat	-3715
lägg	-3716
▁contact	-3717
oden	-3718
▁själv	-3719
▁apar	-3720
▁staat	-3721
▁eng	-3722
▁organis	-3723
▁rich	-3724
eret	-3725
ctor	-3726
arsi	-3727
agens	-3728
try	-3729
ouden	-3730
▁own	-3731
▁contro	-3732
▁beste	-3733
▁feb	-3734
--	-3735
▁dy	-3736
▁Brasil	-3737
▁quello	-3738
ologia	-3739
▁God	-3740
ummer	-3741
liwo	-3742
▁distr	-3743
▁tej	-3744
▁nya	-3745
▁conv	-3746
▁Mus	-3747
▁praw	-3748
▁wür	-3749
▁ham	-3750
▁Ass	-3751
▁corre	-3752
owym	-3753
ieve	-3754
▁Af	-3755
drig	-3756
äst	-3757
sh	-3758
▁været	-3759
łat	-3760
hne	-3761
▁fantast	-3762
▁wit	-3763
▁cela	-3764
mel	-3765
aire	-3766
▁Can	-3767
▁vän	-3768
▁recon	-3769
▁actu	-3770
▁Gesch	-3771
▁Ur	-3772
ecer	-3773
bel	-3774
▁zeg	-3775
▁Cas	-3776
▁måste	-3777
▁était	-3778
other	-3779
▁jednak	-3780
▁@	-3781
▁wid	-3782
▁proced	-3783
▁næ	-3784
ić	-3785
▁tener	-3786
rea	-3787
▁zit	-3788
▁rég	-3789
▁wen	-3790
endes	-3791
▁integr	-3792
▁call	-3793
acyj	-3794
igu	-3795
▁trop	-3796
▁Pra	-3797
▁San	-3798
fatt	-3799
vest	-3800
▁bare	-3801
alement	-3802
▁ri	-3803
iempre	-3804
▁There	-3805
▁Christ	-3806
rez	-3807
▁Stud	-3808
mål	-3809
▁polít	-3810
▁jeszcze	-3811
▁wykon	-3812
▁nr	-3813
śl	-3814
▁Seg	-3815
▁hin	-3816
▁año	-3817
▁avoir	-3818
ße	-3819
▁donde	-3820
ères	-3821
▁stan	-3822
ança	-3823
▁dentro	-3824
▁telefon	-3825
ples	-3826
iele	-3827
▁corr	-3828
www	-3829
▁pew	-3830
▁touj	-3831
▁zm	-3832
▁toujours	-3833
idi	-3834
▁jul	-3835
▁où	-3836
▁samen	-3837
▁Ac	-3838
esp	-3839
hi	-3840
▁Not	-3841
▁dagen	-3842
▁exem	-3843
eng	-3844
▁ef	-3845
▁komen	-3846
▁sag	-3847
▁Di	-3848
▁denna	-3849
▁kro	-3850
śnie	-3851
ordo	-3852
▁così	-3853
▁love	-3854
▁rele	-3855
▁Don	-3856
acter	-3857
ęd	-3858
▁bok	-3859
▁typ	-3860
▁fick	-3861
put	-3862
▁hans	-3863
▁Til	-3864
▁life	-3865
▁sera	-3866
ória	-3867
▁cent	-3868
▁presente	-3869
meld	-3870
izio	-3871
▁show	-3872
▁camp	-3873
▁Tag	-3874
▁auto	-3875
▁rif	-3876
▁Sel	-3877
▁mucho	-3878
▁mismo	-3879
▁prac	-3880
▁Kan	-3881
nit	-3882
rou	-3883
▁nar	-3884
▁behö	-3885
▁vet	-3886
▁Sin	-3887
amil	-3888
▁Ih	-3889
▁kö	-3890
▁zaw	-3891
▁klar	-3892
ículo	-3893
▁ancora	-3894
zed	-3895
ationer	-3896
ément	-3897
▁kam	-3898
▁dav	-3899
oon	-3900
esa	-3901
▁Vous	-3902
ban	-3903
▁selbst	-3904
cyj	-3905
▁dopo	-3906
ham	-3907
▁binnen	-3908
▁proprio	-3909
aller	-3910
▁Que	-3911
▁róż	-3912
▁siden	-3913
▁nogle	-3914
▁kap	-3915
eken	-3916
▁media	-3917
▁tru	-3918
▁punto	-3919
▁onde	-3920
▁gente	-3921
▁erg	-3922
▁føl	-3923
▁Bet	-3924
▁vrij	-3925
▁vert	-3926
▁wa	-3927
▁há	-3928
▁gennem	-3929
angen	-3930
▁profess	-3931
cimento	-3932
tek	-3933
ynd	-3934
ya	-3935
▁Vers	-3936
▁Não	-3937
ável	-3938
kol	-3939
adt	-3940
▁nell	-3941
▁aqui	-3942
atto	-3943
▁Ci	-3944
unda	-3945
▁hatte	-3946
coup	-3947
▁attra	-3948
æld	-3949
▁jam	-3950
führ	-3951
▁esse	-3952
▁Jes	-3953
asy	-3954
▁water	-3955
▁ie	-3956
▁possibil	-3957
▁side	-3958
uros	-3959
▁def	-3960
▁jetzt	-3961
▁sing	-3962
vä	-3963
▁spos	-3964
▁soit	-3965
▁same	-3966
▁Aber	-3967
▁ano	-3968
imiento	-3969
▁escol	-3970
raz	-3971
▁pic	-3972
▁là	-3973
▁eerste	-3974
iveau	-3975
▁§	-3976
▁inne	-3977
lec	-3978
▁fine	-3979
▁team	-3980
▁business	-3981
ühr	-3982
▁São	-3983
▁Deze	-3984
cle	-3985
▁say	-3986
▁aug	-3987
▁enf	-3988
▁sci	-3989
skap	-3990
▁ligger	-3991
ziej	-3992
▁link	-3993
iks	-3994
▁things	-3995
band	-3996
schaft	-3997
▁rz	-3998
▁geht	-3999
jących	-4000
▁lø	-4001
upp	-4002
▁cambi	-4003
▁temper	-4004
ivit	-4005
▁arg	-4006
plica	-4007
▁Ph	-4008
▁eso	-4009
fte	-4010
▁poi	-4011
cimi	-4012
utto	-4013
▁Kommun	-4014
ellan	-4015
▁funcion	-4016
▁suas	-4017
▁erst	-4018
▁zł	-4019
cel	-4020
ature	-4021
▁Kinder	-4022
▁às	-4023
▁Europa	-4024
▁forts	-4025
acion	-4026
grama	-4027
US	-4028
▁było	-4029
▁ble	-4030
kiem	-4031
▁verw	-4032
▁Ś	-4033
▁document	-4034
▁tour	-4035
nah	-4036
▁dział	-4037
▁cop	-4038
▁był	-4039
▁hace	-4040
AG	-4041
inar	-4042
CH	-4043
▁memb	-4044
si	-4045
▁plac	-4046
▁hard	-4047
ños	-4048
,"	-4049
écn	-4050
▁aldrig	-4051
▁special	-4052
erar	-4053
▁conse	-4054
▁Ty	-4055
▁gas	-4056
læg	-4057
▁What	-4058
akter	-4059
▁diesem	-4060
mod	-4061
tar	-4062
EG	-4063
yld	-4064
indi	-4065
▁gdy	-4066
▁ka	-4067
▁full	-4068
▁Sverige	-4069
▁rim	-4070
▁olika	-4071
▁persone	-4072
▁zien	-4073
▁little	-4074
rada	-4075
▁wł	-4076
▁Rad	-4077
▁spo	-4078
▁altri	-4079
ways	-4080
jour	-4081
ços	-4082
▁Cor	-4083
▁szcz	-4084
ything	-4085
▁book	-4086
owany	-4087
▁dost	-4088
▁refer	-4089
▁kø	-4090
asser	-4091
erde	-4092
▁Zo	-4093
äre	-4094
▁aby	-4095
inte	-4096
▁pun	-4097
▁valor	-4098
▁visit	-4099
▁offer	-4100
hout	-4101
▁Esp	-4102
úmer	-4103
rukt	-4104
ov	-4105
▁Este	-4106
▁nær	-4107
▁Ed	-4108
▁Bel	-4109
▁iets	-4110
▁Czy	-4111
▁machen	-4112
▁ster	-4113
▁sea	-4114
▁Hol	-4115
▁mov	-4116
alth	-4117
▁altijd	-4118
▁compet	-4119
▁mayor	-4120
▁intr	-4121
▁home	-4122
▁Best	-4123
▁Gro	-4124
quier	-4125
jort	-4126
bt	-4127
▁Serv	-4128
▁>	-4129
apa	-4130
▁inom	-4131
▁saber	-4132
lagen	-4133
heten	-4134
▁dog	-4135
pois	-4136
▁inden	-4137
erc	-4138
asta	-4139
▁lavoro	-4140
▁Sta	-4141
▁deix	-4142
▁Ud	-4143
▁concer	-4144
▁monde	-4145
▁Cr	-4146
▁something	-4147
penas	-4148
gress	-4149
▁hjäl	-4150
ives	-4151
▁mia	-4152
▁essa	-4153
zoek	-4154
▁Deutsch	-4155
▁tel	-4156
uff	-4157
▁determin	-4158
▁tudo	-4159
▁acqu	-4160
iat	-4161
arn	-4162
▁Apr	-4163
mat	-4164
sker	-4165
▁sy	-4166
dende	-4167
mid	-4168
abel	-4169
▁profes	-4170
zcz	-4171
▁avait	-4172
▁nap	-4173
▁ult	-4174
▁wła	-4175
▁cla	-4176
▁gegen	-4177
gre	-4178
▁sais	-4179
▁första	-4180
entlich	-4181
ività	-4182
abl	-4183
▁otro	-4184
OT	-4185
iny	-4186
▁hver	-4187
▁sac	-4188
▁slut	-4189
▁zro	-4190
▁Just	-4191
▁plaats	-4192
▁mio	-4193
▁zar	-4194
abei	-4195
kring	-4196
igheder	-4197
▁sw	-4198
▁eines	-4199
staw	-4200
▁Nous	-4201
iff	-4202
▁dessa	-4203
▁første	-4204
bro	-4205
egn	-4206
sze	-4207
▁applic	-4208
kra	-4209
▁pie	-4210
skiej	-4211
wać	-4212
▁usu	-4213
▁prat	-4214
▁school	-4215
ope	-4216
▁medlem	-4217
ête	-4218
arm	-4219
▁zoals	-4220
▁mellem	-4221
▁woll	-4222
ason	-4223
▁dere	-4224
atro	-4225
iar	-4226
▁vå	-4227
▁Super	-4228
igtig	-4229
nehmen	-4230
▁komt	-4231
▁kost	-4232
sst	-4233
▁trabajo	-4234
▁siempre	-4235
▁lek	-4236
cos	-4237
▁ucz	-4238
ises	-4239
▁Pres	-4240
▁några	-4241
▁beaucoup	-4242
▁They	-4243
ila	-4244
▁hjæl	-4245
▁appar	-4246
▁Hvis	-4247
▁gør	-4248
▁Che	-4249
▁terug	-4250
fekt	-4251
▁past	-4252
▁lleg	-4253
wort	-4254
▁certa	-4255
iero	-4256
IM	-4257
▁possible	-4258
▁toute	-4259
ike	-4260
post	-4261
▁obser	-4262
ową	-4263
icial	-4264
▁Sec	-4265
▁verg	-4266
▁spec	-4267
heter	-4268
son	-4269
▁desen	-4270
▁dove	-4271
ualmente	-4272
▁voir	-4273
ían	-4274
acje	-4275
▁moeten	-4276
▁fon	-4277
▁alors	-4278
▁tema	-4279
ierung	-4280
▁Val	-4281
rado	-4282
▁ner	-4283
▁🙂	-4284
iktigt	-4285
tid	-4286
▁toe	-4287
agement	-4288
onom	-4289
amentos	-4290
▁encontr	-4291
▁quelques	-4292
encia	-4293
ursos	-4294
cción	-4295
▁jur	-4296
jän	-4297
▁paar	-4298
ität	-4299
iß	-4300
insi	-4301
▁Efter	-4302
zent	-4303
elses	-4304
cent	-4305
▁cuenta	-4306
▁support	-4307
wier	-4308
▁lic	-4309
▁kn	-4310
atore	-4311
zyć	-4312
▁foll	-4313
▁mitt	-4314
spro	-4315
▁itali	-4316
icia	-4317
▁komp	-4318
▁migli	-4319
▁wr	-4320
UR	-4321
▁outros	-4322
igos	-4323
▁kv	-4324
▁san	-4325
▁popul	-4326
grund	-4327
▁kind	-4328
▁effect	-4329
▁Daar	-4330
▁geme	-4331
porte	-4332
▁rien	-4333
eno	-4334
▁II	-4335
isme	-4336
▁encont	-4337
usammen	-4338
▁civ	-4339
ips	-4340
▁Van	-4341
▁après	-4342
jal	-4343
ocz	-4344
cript	-4345
▁varit	-4346
▁verl	-4347
▁små	-4348
▁områ	-4349
▁mess	-4350
▁damit	-4351
▁åt	-4352
▁meu	-4353
eral	-4354
rer	-4355
▁instal	-4356
arte	-4357
vas	-4358
▁medic	-4359
▁idea	-4360
▁Hotel	-4361
▁Var	-4362
▁dim	-4363
mö	-4364
ivel	-4365
▁lors	-4366
klar	-4367
sam	-4368
▁fas	-4369
endt	-4370
amin	-4371
▁lud	-4372
▁mein	-4373
▁never	-4374
▁sla	-4375
iding	-4376
▁Sm	-4377
▁model	-4378
▁apenas	-4379
▁säger	-4380
▁Danmark	-4381
▁sle	-4382
▁rap	-4383
ogra	-4384
▁world	-4385
▁tror	-4386
▁general	-4387
▁wal	-4388
▁stron	-4389
▁sure	-4390
cią	-4391
▁trä	-4392
UT	-4393
▁cie	-4394
▁blo	-4395
heder	-4396
▁twee	-4397
▁·	-4398
nor	-4399
▁aud	-4400
▁stør	-4401
bert	-4402
fik	-4403
▁desar	-4404
▁rapport	-4405
▁qué	-4406
▁cum	-4407
▁mos	-4408
aling	-4409
▁maior	-4410
▁USA	-4411
otos	-4412
▁rum	-4413
biamo	-4414
▁dois	-4415
enen	-4416
ministra	-4417
▁står	-4418
▁perd	-4419
nel	-4420
▁ask	-4421
,”	-4422
▁jej	-4423
▁viol	-4424
▁few	-4425
▁jeden	-4426
▁gebruik	-4427
▁sous	-4428
▁rit	-4429
plats	-4430
bind	-4431
icios	-4432
▁kinder	-4433
ring	-4434
▁ayud	-4435
▁Leg	-4436
cin	-4437
):	-4438
▁assim	-4439
▁Sol	-4440
▁Rec	-4441
▁ela	-4442
▁Proble	-4443
usta	-4444
▁histor	-4445
▁direkt	-4446
dzy	-4447
▁När	-4448
ologie	-4449
▁dif	-4450
świet	-4451
▁won	-4452
▁folk	-4453
▁ún	-4454
▁cant	-4455
ork	-4456
ibles	-4457
▁Dec	-4458
atos	-4459
▁dol	-4460
endant	-4461
▁già	-4462
hor	-4463
▁tän	-4464
ców	-4465
odig	-4466
▁Grund	-4467
▁recht	-4468
▁Mich	-4469
▁ihre	-4470
orgen	-4471
▁pati	-4472
▁material	-4473
hop	-4474
▁lån	-4475
▁citt	-4476
reas	-4477
▁Jahren	-4478
était	-4479
antal	-4480
isi	-4481
▁vari	-4482
▁natuur	-4483
erna	-4484
▁otros	-4485
▁quem	-4486
embro	-4487
▁Europe	-4488
▁depuis	-4489
ót	-4490
▁Pal	-4491
rebbe	-4492
pas	-4493
ftware	-4494
dą	-4495
▁infl	-4496
nung	-4497
▁están	-4498
uras	-4499
▁próx	-4500
▁Tak	-4501
▁rip	-4502
▁redu	-4503
istem	-4504
ellige	-4505
▁must	-4506
▁reci	-4507
▁serie	-4508
▁Tod	-4509
IE	-4510
jà	-4511
▁EN	-4512
äft	-4513
bia	-4514
▁differ	-4515
empel	-4516
ots	-4517
▁administr	-4518
▁Ital	-4519
adem	-4520
▁nome	-4521
abile	-4522
▁around	-4523
ância	-4524
bare	-4525
▁lle	-4526
aties	-4527
▁Dire	-4528
▁Cam	-4529
▁información	-4530
▁natural	-4531
▁nelle	-4532
▁nor	-4533
uel	-4534
▁famili	-4535
▁conos	-4536
▁ej	-4537
iale	-4538
▁emp	-4539
entos	-4540
halt	-4541
sche	-4542
▁Bij	-4543
▁pracy	-4544
äck	-4545
▁mellan	-4546
got	-4547
▁vand	-4548
emás	-4549
inde	-4550
▁ST	-4551
▁repr	-4552
▁bev	-4553
▁aliment	-4554
forme	-4555
▁achter	-4556
gå	-4557
▁horas	-4558
▁nawet	-4559
cret	-4560
zych	-4561
▁zie	-4562
▁mindre	-4563
▁dov	-4564
irm	-4565
▁Del	-4566
▁använd	-4567
▁minha	-4568
beeld	-4569
▁comer	-4570
▁adv	-4571
øger	-4572
iam	-4573
jlig	-4574
iędzy	-4575
▁pueden	-4576
ięki	-4577
▁sted	-4578
▁Tu	-4579
▁centro	-4580
▁amer	-4581
▁sic	-4582
▁Nord	-4583
▁important	-4584
▁estão	-4585
▁=	-4586
▁viene	-4587
ijken	-4588
▁That	-4589
▁glob	-4590
▁mondo	-4591
▁tant	-4592
▁rob	-4593
▁ils	-4594
▁sigui	-4595
▁ust	-4596
uls	-4597
▁War	-4598
▁Mi	-4599
▁She	-4600
▁Form	-4601
olare	-4602
day	-4603
▁exist	-4604
entar	-4605
▁lå	-4606
wsze	-4607
▁prot	-4608
▁bak	-4609
▁conna	-4610
▁sikker	-4611
prowad	-4612
▁normal	-4613
ichten	-4614
ieten	-4615
▁kontakt	-4616
▁númer	-4617
▁rund	-4618
▁gén	-4619
▁Fol	-4620
▁nut	-4621
laub	-4622
▁Une	-4623
▁contre	-4624
▁beho	-4625
▁semana	-4626
etten	-4627
▁dont	-4628
eks	-4629
▁miesz	-4630
▁sina	-4631
▁dic	-4632
▁szy	-4633
esten	-4634
▁zag	-4635
ąt	-4636
▁rej	-4637
comp	-4638
▁grote	-4639
▁denn	-4640
▁intens	-4641
rodu	-4642
izar	-4643
itik	-4644
ivamente	-4645
▁trabalho	-4646
▁anders	-4647
▁więc	-4648
▁hår	-4649
▁destin	-4650
yll	-4651
redit	-4652
▁estr	-4653
iedy	-4654
view	-4655
een	-4656
produ	-4657
dagen	-4658
volv	-4659
▁estado	-4660
▁viele	-4661
▁Witam	-4662
ining	-4663
lat	-4664
▁fotograf	-4665
nymi	-4666
▁kur	-4667
▁Ju	-4668
▁técn	-4669
▁opp	-4670
▁Gre	-4671
▁firm	-4672
kach	-4673
▁mail	-4674
ære	-4675
▁sätt	-4676
▁tun	-4677
▁trov	-4678
▁manif	-4679
▁zij	-4680
▁parl	-4681
äch	-4682
enz	-4683
▁Bil	-4684
▁meine	-4685
▁janu	-4686
ichte	-4687
▁déjà	-4688
rijf	-4689
▁brug	-4690
▁która	-4691
▁dre	-4692
komst	-4693
ać	-4694
▁regul	-4695
▁vier	-4696
▁arriv	-4697
stra	-4698
ingar	-4699
óm	-4700
▁tus	-4701
gas	-4702
▁Stock	-4703
▁Bon	-4704
▁pia	-4705
unicip	-4706
aby	-4707
▁strateg	-4708
uelle	-4709
▁bast	-4710
ison	-4711
woord	-4712
▁spot	-4713
▁solu	-4714
woon	-4715
▁always	-4716
▁associ	-4717
▁posi	-4718
▁Geb	-4719
▁dias	-4720
crib	-4721
▁hit	-4722
▁toutes	-4723
▁oblig	-4724
▁stop	-4725
ioner	-4726
ästa	-4727
imenti	-4728
ited	-4729
▁belang	-4730
iendo	-4731
reib	-4732
gør	-4733
ielle	-4734
äller	-4735
▁männ	-4736
▁stör	-4737
▁follow	-4738
▁Ook	-4739
ordin	-4740
maal	-4741
▁tilb	-4742
unci	-4743
▁inclu	-4744
▁hvil	-4745
íd	-4746
▁rag	-4747
ullen	-4748
▁Gru	-4749
ationale	-4750
▁potrze	-4751
ależy	-4752
nię	-4753
ätta	-4754
ómo	-4755
▁AL	-4756
jos	-4757
verno	-4758
gru	-4759
igkeit	-4760
▁lav	-4761
▁Mod	-4762
▁Prof	-4763
▁Tur	-4764
klich	-4765
▁hold	-4766
artic	-4767
ingu	-4768
cja	-4769
▁grandes	-4770
jące	-4771
▁big	-4772
üssen	-4773
▁annat	-4774
pub	-4775
teil	-4776
▁vista	-4777
íf	-4778
digt	-4779
▁inspir	-4780
abor	-4781
▁AB	-4782
veckl	-4783
▁fuer	-4784
jö	-4785
▁powin	-4786
▁Social	-4787
▁siger	-4788
▁By	-4789
arg	-4790
▁Mag	-4791
▁Elle	-4792
gior	-4793
▁LA	-4794
▁consegu	-4795
▁hvordan	-4796
aniu	-4797
▁forum	-4798
ciu	-4799
▁lí	-4800
▁kval	-4801
weise	-4802
▁gol	-4803
▁cré	-4804
dam	-4805
?"	-4806
.....	-4807
oit	-4808
▁więcej	-4809
▁install	-4810
▁candid	-4811
▁pomoc	-4812
▁face	-4813
▁donn	-4814
äv	-4815
ancia	-4816
▁andet	-4817
▁Ten	-4818
▁pros	-4819
orso	-4820
▁cookies	-4821
▁Wind	-4822
▁commer	-4823
▁autres	-4824
ządz	-4825
▁dobr	-4826
ijs	-4827
▁ohne	-4828
uses	-4829
An	-4830
▁Sc	-4831
anter	-4832
▁might	-4833
▁Ko	-4834
▁Eu	-4835
ury	-4836
▁tutte	-4837
▁better	-4838
ecut	-4839
▁geh	-4840
▁øn	-4841
▁apo	-4842
▁embar	-4843
▁arbet	-4844
▁tussen	-4845
▁ext	-4846
▁signific	-4847
yste	-4848
▁aver	-4849
aken	-4850
ölj	-4851
▁coun	-4852
isz	-4853
▁Ut	-4854
▁rid	-4855
bere	-4856
▁Lie	-4857
▁impr	-4858
▁cał	-4859
▁styr	-4860
▁hora	-4861
▁lev	-4862
▁registr	-4863
rog	-4864
sm	-4865
▁würde	-4866
▁lado	-4867
▁geg	-4868
▁while	-4869
▁uur	-4870
imes	-4871
▁fik	-4872
▁line	-4873
▁omdat	-4874
iques	-4875
▁quella	-4876
ktor	-4877
atta	-4878
vous	-4879
▁preg	-4880
lingen	-4881
vej	-4882
▁leurs	-4883
▁dine	-4884
unta	-4885
▁dzieci	-4886
▁Spe	-4887
but	-4888
▁ese	-4889
emble	-4890
▁used	-4891
▁gøre	-4892
▁ave	-4893
▁cle	-4894
▁ví	-4895
▁ach	-4896
▁transport	-4897
æll	-4898
▁cualquier	-4899
▁UN	-4900
▁stre	-4901
ujemy	-4902
pués	-4903
quip	-4904
▁egen	-4905
▁zn	-4906
▁quindi	-4907
▁seine	-4908
▁programa	-4909
▁tex	-4910
▁Ra	-4911
▁kons	-4912
▁Teil	-4913
▁abr	-4914
▁territ	-4915
ectos	-4916
ateur	-4917
▁ainsi	-4918
▁Pero	-4919
ather	-4920
aura	-4921
bum	-4922
iqu	-4923
▁press	-4924
▁vig	-4925
ards	-4926
▁seem	-4927
▁weil	-4928
gew	-4929
Un	-4930
▁Mart	-4931
▁possono	-4932
▁servi	-4933
ought	-4934
▁run	-4935
▁bedste	-4936
▁días	-4937
▁foram	-4938
▁Dom	-4939
stre	-4940
▁trze	-4941
ands	-4942
jm	-4943
ensen	-4944
ked	-4945
imer	-4946
halb	-4947
▁kommentar	-4948
The	-4949
udad	-4950
lijke	-4951
kende	-4952
▁Ihre	-4953
tså	-4954
omas	-4955
▁konk	-4956
.-	-4957
▁Kø	-4958
▁ajud	-4959
benhav	-4960
still	-4961
gend	-4962
▁laten	-4963
osse	-4964
▁nunca	-4965
▁ég	-4966
oby	-4967
▁Här	-4968
▁idag	-4969
ily	-4970
▁lon	-4971
▁DI	-4972
▁Gar	-4973
estra	-4974
ière	-4975
ledning	-4976
êm	-4977
▁Bra	-4978
▁lange	-4979
▁jamais	-4980
aggi	-4981
▁financi	-4982
izioni	-4983
▁fö	-4984
ża	-4985
▁bruger	-4986
▁äl	-4987
▁vej	-4988
velop	-4989
▁bew	-4990
ulta	-4991
▁Dz	-4992
kaz	-4993
otti	-4994
▁empresas	-4995
▁huis	-4996
▁snel	-4997
▁Dis	-4998
cont	-4999
▁tech	-5000
AP	-5001
▁samme	-5002
ppa	-5003
kning	-5004
▁again	-5005
▁tran	-5006
▁care	-5007
▁ade	-5008
ytu	-5009
▁Ke	-5010
kriv	-5011
▁visto	-5012
cimiento	-5013
▁jog	-5014
rá	-5015
▁Cu	-5016
ffer	-5017
inform	-5018
ował	-5019
OD	-5020
asso	-5021
▁Till	-5022
▁educ	-5023
▁Ihnen	-5024
▁alm	-5025
▁kla	-5026
▁Sim	-5027
▁categ	-5028
▁services	-5029
skie	-5030
▁rev	-5031
▁segur	-5032
▁Son	-5033
▁Av	-5034
▁dés	-5035
▁bur	-5036
▁hurt	-5037
ikan	-5038
tte	-5039
▁Mu	-5040
▁Dans	-5041
▁cen	-5042
etting	-5043
▁Under	-5044
▁cat	-5045
▁autre	-5046
▁seja	-5047
▁kli	-5048
▁dor	-5049
▁cultur	-5050
▁kultur	-5051
▁nok	-5052
▁pł	-5053
▁estos	-5054
▁mercado	-5055
komen	-5056
gesch	-5057
▁tiden	-5058
▁dedic	-5059
▁groot	-5060
▁vraiment	-5061
ças	-5062
▁kre	-5063
▁cy	-5064
▁nostro	-5065
▁arm	-5066
zz	-5067
lique	-5068
anych	-5069
▁Of	-5070
▁chose	-5071
▁found	-5072
▁puis	-5073
ativas	-5074
▁kunna	-5075
▁each	-5076
ąc	-5077
▁leven	-5078
▁działa	-5079
▁svens	-5080
▁ditt	-5081
ågor	-5082
iso	-5083
▁pocz	-5084
▁aplic	-5085
▁rend	-5086
poc	-5087
▁sty	-5088
rent	-5089
ago	-5090
su	-5091
▁læn	-5092
▁chang	-5093
▁udvik	-5094
▁interest	-5095
▁minim	-5096
jący	-5097
wic	-5098
iras	-5099
▁diferentes	-5100
tera	-5101
▁gef	-5102
zna	-5103
▁Welt	-5104
ständ	-5105
▁conoc	-5106
▁play	-5107
▁giver	-5108
uchen	-5109
UL	-5110
zin	-5111
▁sollte	-5112
▁altid	-5113
▁ener	-5114
▁mob	-5115
▁Trans	-5116
▁stort	-5117
gifter	-5118
igare	-5119
▁petit	-5120
kk	-5121
▁cres	-5122
ienza	-5123
▁mois	-5124
urer	-5125
▁riv	-5126
ierz	-5127
aben	-5128
erse	-5129
øm	-5130
▁SP	-5131
▁respect	-5132
itud	-5133
▁keep	-5134
▁Cal	-5135
pert	-5136
▁risp	-5137
▁dai	-5138
▁kommen	-5139
nio	-5140
▁sitt	-5141
▁Plan	-5142
▁Bru	-5143
▁Fall	-5144
utos	-5145
▁müssen	-5146
ørgs	-5147
▁mad	-5148
▁bras	-5149
▁thing	-5150
êt	-5151
▁kolej	-5152
erca	-5153
▁lille	-5154
istro	-5155
itz	-5156
▁anden	-5157
feira	-5158
▁beso	-5159
▁Sem	-5160
▁decir	-5161
amenti	-5162
entemente	-5163
dann	-5164
▁Kra	-5165
▁sociale	-5166
▁kanske	-5167
apt	-5168
▁mm	-5169
▁sum	-5170
▁quant	-5171
▁sang	-5172
wel	-5173
▁zach	-5174
▁ill	-5175
▁Hij	-5176
lick	-5177
▁SE	-5178
▁fais	-5179
▁sondern	-5180
▁guer	-5181
▁gdzie	-5182
▁Vis	-5183
▁Joh	-5184
▁sarà	-5185
ingt	-5186
▁resol	-5187
▁dese	-5188
▁rodz	-5189
▁juni	-5190
▁text	-5191
▁diverse	-5192
▁celeb	-5193
illes	-5194
▁différ	-5195
▁encu	-5196
▁represent	-5197
▁Stockholm	-5198
▁materia	-5199
▁personnes	-5200
ária	-5201
usto	-5202
▁hebt	-5203
agne	-5204
wik	-5205
▁cust	-5206
AND	-5207
▁put	-5208
▁niveau	-5209
▁Ca	-5210
▁má	-5211
▁four	-5212
▁interes	-5213
▁primer	-5214
czenia	-5215
venir	-5216
▁wysok	-5217
usa	-5218
▁moo	-5219
▁Tw	-5220
▁gema	-5221
▁certain	-5222
▁vent	-5223
▁extre	-5224
▁nuestro	-5225
▁Sz	-5226
▁ks	-5227
▁gjort	-5228
▁report	-5229
ré	-5230
▁goede	-5231
iente	-5232
▁Vad	-5233
orts	-5234
igung	-5235
▁Famil	-5236
ática	-5237
▁Wij	-5238
▁feel	-5239
▁Nov	-5240
▁fino	-5241
▁fá	-5242
▁diss	-5243
...)	-5244
▁sour	-5245
▁réal	-5246
▁grupo	-5247
ända	-5248
▁passer	-5249
▁success	-5250
▁comunic	-5251
eby	-5252
▁wyst	-5253
▁våra	-5254
slag	-5255
▁cit	-5256
ention	-5257
▁qualquer	-5258
▁ry	-5259
orto	-5260
▁discuss	-5261
▁later	-5262
▁AN	-5263
▁niż	-5264
▁expl	-5265
▁podem	-5266
▁kal	-5267
▁Ta	-5268
ências	-5269
▁manera	-5270
▁meses	-5271
▁nouv	-5272
▁cham	-5273
▁manten	-5274
▁Organ	-5275
burg	-5276
▁agr	-5277
gn	-5278
▁ideal	-5279
▁giorno	-5280
skich	-5281
▁Qual	-5282
łoż	-5283
mä	-5284
▁second	-5285
▁keer	-5286
▁marketing	-5287
▁dw	-5288
▁investig	-5289
zionale	-5290
▁pak	-5291
ecie	-5292
ote	-5293
ifs	-5294
eczy	-5295
▁rol	-5296
▁mennes	-5297
▁Ba	-5298
▁byg	-5299
▁conta	-5300
▁oktober	-5301
▁Post	-5302
▁mét	-5303
▁nouve	-5304
estr	-5305
▁arbets	-5306
▁świ	-5307
▁Dem	-5308
ments	-5309
▁warto	-5310
▁travail	-5311
▁Tem	-5312
oles	-5313
▁verschill	-5314
▁Ess	-5315
▁Daten	-5316
emy	-5317
▁finden	-5318
!!!!	-5319
▁sap	-5320
owiedzi	-5321
▁december	-5322
▁Für	-5323
▁erh	-5324
▁företag	-5325
niki	-5326
▁kup	-5327
▁aconte	-5328
▁vinden	-5329
ätte	-5330
▁sagt	-5331
▁Ny	-5332
▁september	-5333
ortun	-5334
styr	-5335
ous	-5336
▁dok	-5337
▁definit	-5338
▁tills	-5339
▁month	-5340
bas	-5341
▁possibile	-5342
▁przypad	-5343
▁prior	-5344
▁torn	-5345
▁génér	-5346
▁tog	-5347
oney	-5348
▁beim	-5349
▁fix	-5350
▁problemas	-5351
▁questi	-5352
▁doit	-5353
▁forskellige	-5354
▁pois	-5355
▁mús	-5356
ged	-5357
▁swoje	-5358
▁Cre	-5359
▁zab	-5360
▁gewoon	-5361
▁tax	-5362
ärt	-5363
▁free	-5364
▁different	-5365
ross	-5366
▁dalle	-5367
IO	-5368
jorde	-5369
].	-5370
lep	-5371
▁wirklich	-5372
▁popular	-5373
cka	-5374
▁nieuw	-5375
cen	-5376
▁PR	-5377
rop	-5378
▁haft	-5379
▁Über	-5380
bero	-5381
▁consig	-5382
▁temat	-5383
dza	-5384
chio	-5385
okus	-5386
▁público	-5387
pekt	-5388
onden	-5389
▁consult	-5390
▁opin	-5391
▁artikel	-5392
▁maj	-5393
▁blevet	-5394
pret	-5395
iles	-5396
områ	-5397
chos	-5398
▁relativ	-5399
undes	-5400
▁jours	-5401
▁tol	-5402
▁cosas	-5403
▁¡	-5404
▁estas	-5405
zzo	-5406
▁medi	-5407
żyt	-5408
▁elec	-5409
cere	-5410
ställ	-5411
vero	-5412
▁steeds	-5413
log	-5414
rig	-5415
owied	-5416
▁pense	-5417
ivet	-5418
żej	-5419
tout	-5420
▁sådan	-5421
▁perman	-5422
▁tych	-5423
ério	-5424
▁Bei	-5425
▁pág	-5426
EST	-5427
bio	-5428
▁quale	-5429
▁coś	-5430
▁fung	-5431
▁corres	-5432
▁finans	-5433
▁labor	-5434
▁conte	-5435
▁jij	-5436
▁uży	-5437
▁ress	-5438
▁case	-5439
getto	-5440
▁Esta	-5441
rom	-5442
St	-5443
▁Ve	-5444
für	-5445
bbe	-5446
▁número	-5447
orre	-5448
ash	-5449
esi	-5450
▁debe	-5451
▁primo	-5452
▁Estado	-5453
pass	-5454
orer	-5455
wszy	-5456
▁zwei	-5457
▁inici	-5458
▁type	-5459
dar	-5460
▁Log	-5461
▁bib	-5462
▁voy	-5463
▁numer	-5464
▁mobil	-5465
riend	-5466
▁había	-5467
▁nego	-5468
▁eleg	-5469
▁Program	-5470
anas	-5471
▁zonder	-5472
▁mem	-5473
Al	-5474
▁CON	-5475
ække	-5476
ensa	-5477
▁fru	-5478
ürlich	-5479
ening	-5480
▁staan	-5481
▁virksom	-5482
▁Pub	-5483
ørgsmål	-5484
ację	-5485
▁vak	-5486
▁viss	-5487
heds	-5488
▁wi	-5489
▁passe	-5490
▁stesso	-5491
▁next	-5492
▁tilbage	-5493
▁Jahre	-5494
ower	-5495
UE	-5496
hlt	-5497
▁ov	-5498
▁nast	-5499
▁Ø	-5500
▁though	-5501
▁Bus	-5502
▁Over	-5503
aires	-5504
ięk	-5505
▁ore	-5506
▁Deutschland	-5507
▁unge	-5508
ligere	-5509
▁suiv	-5510
▁io	-5511
jas	-5512
▁guard	-5513
▁Beg	-5514
▁anno	-5515
ienst	-5516
peł	-5517
wal	-5518
ension	-5519
▁plats	-5520
▁människ	-5521
▁nodig	-5522
▁komme	-5523
▁otra	-5524
?”	-5525
▁Int	-5526
▁regel	-5527
▁zona	-5528
▁volgende	-5529
▁bort	-5530
▁prost	-5531
▁kleine	-5532
▁processo	-5533
öp	-5534
▁koń	-5535
▁osób	-5536
▁lista	-5537
▁Fir	-5538
▁cart	-5539
▁sposób	-5540
▁hac	-5541
hum	-5542
elling	-5543
▁decid	-5544
▁informatie	-5545
▁lij	-5546
kaar	-5547
▁bran	-5548
kre	-5549
▁slag	-5550
▁dieses	-5551
▁particular	-5552
▁verder	-5553
oner	-5554
łod	-5555
▁kto	-5556
cional	-5557
▁Mö	-5558
▁november	-5559
redi	-5560
sson	-5561
onto	-5562
ilig	-5563
▁coment	-5564
▁Red	-5565
▁allen	-5566
yen	-5567
▁vale	-5568
▁hitt	-5569
De	-5570
ício	-5571
▁seit	-5572
irl	-5573
▁giorni	-5574
▁børn	-5575
aniem	-5576
▁gleich	-5577
▁zeker	-5578
håll	-5579
▁hecho	-5580
▁april	-5581
▁Zu	-5582
▁gode	-5583
▁gev	-5584
duca	-5585
anneer	-5586
zas	-5587
hip	-5588
▁Cap	-5589
▁związ	-5590
▁gemaakt	-5591
▁więks	-5592
▁hål	-5593
▁individu	-5594
▁tienen	-5595
▁zad	-5596
▁råd	-5597
▁innan	-5598
zig	-5599
▁tuo	-5600
▁hör	-5601
amt	-5602
▁heute	-5603
▁dina	-5604
iembre	-5605
nl	-5606
mission	-5607
▁another	-5608
▁stata	-5609
▁nuestra	-5610
count	-5611
▁arch	-5612
▁proy	-5613
kes	-5614
unst	-5615
▁vit	-5616
▁terra	-5617
▁utilizz	-5618
▁email	-5619
▁Hans	-5620
▁ries	-5621
▁Bed	-5622
ológ	-5623
▁duż	-5624
▁Ale	-5625
été	-5626
verk	-5627
▁without	-5628
▁Hoe	-5629
iciones	-5630
▁procent	-5631
▁sob	-5632
▁ung	-5633
▁fonction	-5634
▁dnia	-5635
▁Auch	-5636
▁pays	-5637
pping	-5638
▁begin	-5639
rä	-5640
ieurs	-5641
▁verz	-5642
▁geld	-5643
▁aten	-5644
arts	-5645
▁esa	-5646
▁crit	-5647
▁band	-5648
▁omkring	-5649
▁soc	-5650
▁date	-5651
öst	-5652
▁unsere	-5653
▁lassen	-5654
▁års	-5655
▁estable	-5656
alle	-5657
▁nichts	-5658
▁includ	-5659
▁einmal	-5660
▁assist	-5661
▁zac	-5662
▁situation	-5663
bior	-5664
▁compte	-5665
ience	-5666
prise	-5667
▁Ang	-5668
▁tips	-5669
▁convers	-5670
isce	-5671
▁fär	-5672
▁Quando	-5673
can	-5674
▁Dir	-5675
entlig	-5676
▁będą	-5677
▁prowad	-5678
▁stora	-5679
▁możliwo	-5680
▁möglich	-5681
▁vas	-5682
▁depois	-5683
▁cet	-5684
▁zeer	-5685
▁foc	-5686
nad	-5687
▁actual	-5688
uds	-5689
▁why	-5690
▁weit	-5691
▁samma	-5692
▁When	-5693
immer	-5694
LE	-5695
urso	-5696
▁træ	-5697
oty	-5698
▁France	-5699
▁dejt	-5700
▁lung	-5701
▁didn	-5702
▁Eine	-5703
richt	-5704
▁mujer	-5705
arlo	-5706
▁Jan	-5707
ionale	-5708
via	-5709
bin	-5710
▁Bre	-5711
▁deber	-5712
cke	-5713
▁fordi	-5714
▁åter	-5715
éta	-5716
▁skol	-5717
íp	-5718
▁sólo	-5719
▁kinderen	-5720
▁Københav	-5721
▁Come	-5722
rik	-5723
▁jun	-5724
▁Tom	-5725
▁dazu	-5726
▁cidade	-5727
front	-5728
▁ahora	-5729
▁tycker	-5730
▁presidente	-5731
nacional	-5732
áp	-5733
▁willen	-5734
▁Spiel	-5735
▁amor	-5736
arb	-5737
▁hoog	-5738
▁Sil	-5739
ints	-5740
▁info	-5741
▁nic	-5742
▁state	-5743
▁vog	-5744
▁dabei	-5745
▁également	-5746
▁tent	-5747
ał	-5748
SP	-5749
enso	-5750
▁dni	-5751
▁acom	-5752
▁noi	-5753
orge	-5754
gono	-5755
▁corpo	-5756
▁först	-5757
czenie	-5758
ming	-5759
▁punt	-5760
føl	-5761
idor	-5762
▁dokument	-5763
jan	-5764
entra	-5765
▁bamb	-5766
▁sowie	-5767
keiten	-5768
▁pren	-5769
elde	-5770
▁Natur	-5771
▁Ap	-5772
kort	-5773
orth	-5774
▁;)	-5775
▁prefer	-5776
erw	-5777
▁wyb	-5778
▁Ah	-5779
opp	-5780
▁wszystko	-5781
▁Arbeit	-5782
mie	-5783
▁letz	-5784
▁disp	-5785
▁mine	-5786
▁weet	-5787
▁kommt	-5788
▁casi	-5789
ället	-5790
▁Abs	-5791
▁rond	-5792
clar	-5793
▁Przy	-5794
ując	-5795
▁secondo	-5796
iza	-5797
▁Blog	-5798
▁änd	-5799
▁encontrar	-5800
▁premier	-5801
▁digit	-5802
▁sito	-5803
ides	-5804
▁tale	-5805
▁sat	-5806
▁sotto	-5807
▁causa	-5808
ättre	-5809
▁Maria	-5810
dziel	-5811
▁iedere	-5812
▁article	-5813
▁eing	-5814
uper	-5815
SE	-5816
▁iss	-5817
▁pur	-5818
trz	-5819
otte	-5820
▁takie	-5821
▁stem	-5822
phone	-5823
eniu	-5824
▁Hvad	-5825
▁Wor	-5826
▁kein	-5827
annt	-5828
ellement	-5829
▁permet	-5830
świad	-5831
aient	-5832
▁Char	-5833
aine	-5834
▁behöver	-5835
▁tua	-5836
▁bry	-5837
▁motiv	-5838
▁personer	-5839
▁minder	-5840
▁schn	-5841
▁ihn	-5842
▁wiele	-5843
ection	-5844
▁quien	-5845
▁nich	-5846
▁ciudad	-5847
▁probl	-5848
▁Fer	-5849
▁Lin	-5850
▁ers	-5851
presenta	-5852
cken	-5853
▁conven	-5854
inos	-5855
łości	-5856
ições	-5857
AB	-5858
▁course	-5859
▁Ved	-5860
Qu	-5861
▁mają	-5862
▁Nat	-5863
▁bety	-5864
ivas	-5865
▁ram	-5866
spr	-5867
▁vilket	-5868
▁szyb	-5869
▁old	-5870
deren	-5871
imy	-5872
▁gjorde	-5873
▁bent	-5874
▁habit	-5875
▁bank	-5876
▁historia	-5877
omer	-5878
bers	-5879
▁Jul	-5880
▁kunde	-5881
▁record	-5882
▁dice	-5883
▁donne	-5884
▁realizar	-5885
▁própr	-5886
skar	-5887
▁alltid	-5888
▁ansvar	-5889
▁niez	-5890
fre	-5891
best	-5892
▁één	-5893
dę	-5894
ckt	-5895
▁Ide	-5896
▁medio	-5897
▁sendo	-5898
▁neue	-5899
æng	-5900
▁kosten	-5901
▁parece	-5902
ród	-5903
▁gust	-5904
▁smart	-5905
ned	-5906
▁sidste	-5907
▁fan	-5908
▁condu	-5909
ierno	-5910
▁ante	-5911
ects	-5912
dre	-5913
▁sí	-5914
▁geven	-5915
▁marca	-5916
▁ostat	-5917
rage	-5918
▁page	-5919
IP	-5920
qui	-5921
▁graag	-5922
illeurs	-5923
▁Nacional	-5924
▁responsabil	-5925
▁nag	-5926
▁ken	-5927
▁bereits	-5928
ensch	-5929
▁away	-5930
▁okaz	-5931
▁lys	-5932
▁psych	-5933
▁live	-5934
dren	-5935
arly	-5936
▁Will	-5937
ärna	-5938
▁bästa	-5939
▁august	-5940
meno	-5941
▁days	-5942
▁ł	-5943
.[	-5944
lega	-5945
▁vest	-5946
itut	-5947
▁mac	-5948
dig	-5949
omi	-5950
ton	-5951
ęt	-5952
▁aument	-5953
▁direc	-5954
TE	-5955
unes	-5956
▁imag	-5957
▁ellos	-5958
vang	-5959
▁bonne	-5960
▁permett	-5961
imp	-5962
owever	-5963
▁tilf	-5964
zone	-5965
▁danske	-5966
▁questions	-5967
▁moc	-5968
achten	-5969
▁entr	-5970
autres	-5971
ząd	-5972
orna	-5973
ween	-5974
La	-5975
▁derfor	-5976
▁able	-5977
ark	-5978
▁contrib	-5979
volu	-5980
edo	-5981
▁poten	-5982
▁Paulo	-5983
▁avere	-5984
▁motor	-5985
teurs	-5986
Ar	-5987
▁Hur	-5988
▁group	-5989
▁través	-5990
▁vast	-5991
OC	-5992
kert	-5993
▁dello	-5994
▁liter	-5995
▁tage	-5996
▁writ	-5997
▁qualche	-5998
uerdo	-5999
▁buen	-6000
▁verschillende	-6001
▁prendre	-6002
ega	-6003
wend	-6004
wania	-6005
▁both	-6006
zel	-6007
▁deel	-6008
▁optim	-6009
▁segundo	-6010
▁glad	-6011
spre	-6012
▁europe	-6013
▁alguns	-6014
▁develop	-6015
esen	-6016
ën	-6017
▁tw	-6018
▁mud	-6019
▁chil	-6020
▁eig	-6021
▁scr	-6022
».	-6023
wis	-6024
▁leer	-6025
▁Vil	-6026
ysninger	-6027
yczne	-6028
▁Leben	-6029
▁Minister	-6030
lad	-6031
kcji	-6032
▁obra	-6033
ederal	-6034
▁stos	-6035
▁econ	-6036
▁Ros	-6037
orter	-6038
▁arbejde	-6039
▁oportun	-6040
▁Jeśli	-6041
less	-6042
▁elkaar	-6043
▁effe	-6044
▁Lib	-6045
sted	-6046
▁macht	-6047
veel	-6048
ettet	-6049
▁perform	-6050
▁área	-6051
▁exam	-6052
▁ek	-6053
▁hund	-6054
▁dob	-6055
▁seguir	-6056
▁cours	-6057
▁outras	-6058
▁health	-6059
labor	-6060
▁dati	-6061
utom	-6062
▁Zw	-6063
▁Uhr	-6064
▁zurück	-6065
▁chez	-6066
▁One	-6067
ric	-6068
edy	-6069
▁check	-6070
▁suff	-6071
▁personne	-6072
▁pob	-6073
▁Ett	-6074
▁otras	-6075
ierte	-6076
here	-6077
▁eles	-6078
▁enkelt	-6079
▁jakie	-6080
▁libro	-6081
▁dansk	-6082
▁zwischen	-6083
▁chaque	-6084
▁aunque	-6085
▁ersten	-6086
▁version	-6087
▁standard	-6088
▁głów	-6089
▁funktion	-6090
▁sue	-6091
▁bättre	-6092
imon	-6093
▁kurs	-6094
isl	-6095
▁savoir	-6096
▁mieux	-6097
bart	-6098
▁emot	-6099
▁profiss	-6100
▁May	-6101
▁peł	-6102
unds	-6103
▁alta	-6104
▁después	-6105
ieron	-6106
onen	-6107
▁oltre	-6108
orio	-6109
▁avez	-6110
▁peso	-6111
▁demand	-6112
▁pil	-6113
owanych	-6114
bu	-6115
▁Mot	-6116
odu	-6117
▁innov	-6118
▁hast	-6119
▁buiten	-6120
▁läng	-6121
▁hoje	-6122
▁nostra	-6123
stellen	-6124
imas	-6125
hui	-6126
▁nivel	-6127
▁parce	-6128
▁meno	-6129
▁sagen	-6130
▁fácil	-6131
▁vrouw	-6132
▁nuevo	-6133
▁blogg	-6134
▁oggi	-6135
▁qualc	-6136
anças	-6137
cipl	-6138
▁coloc	-6139
▁govern	-6140
unter	-6141
▁drug	-6142
▁satis	-6143
▁których	-6144
bez	-6145
▁campo	-6146
▁skall	-6147
ører	-6148
ullie	-6149
▁ging	-6150
▁dzi	-6151
▁How	-6152
▁conseg	-6153
itori	-6154
▁Bu	-6155
ąda	-6156
minister	-6157
▁nuovo	-6158
▁meio	-6159
▁color	-6160
▁Fest	-6161
▁happ	-6162
▁mort	-6163
▁Wel	-6164
oms	-6165
▁miał	-6166
iedad	-6167
▁Tre	-6168
izia	-6169
egevens	-6170
▁period	-6171
▁Dav	-6172
odat	-6173
▁obten	-6174
▁access	-6175
▁limit	-6176
▁futuro	-6177
adora	-6178
▁lit	-6179
chien	-6180
▁publ	-6181
aupt	-6182
yo	-6183
▁cru	-6184
▁relacion	-6185
▁forn	-6186
▁gång	-6187
▁wäre	-6188
▁Hen	-6189
▁Pla	-6190
ommen	-6191
▁Eng	-6192
▁dich	-6193
ags	-6194
leps	-6195
▁spra	-6196
unch	-6197
▁patr	-6198
▁tir	-6199
inner	-6200
not	-6201
▁odpowied	-6202
▁aantal	-6203
▁pad	-6204
itution	-6205
▁nosso	-6206
▁novo	-6207
cono	-6208
▁innych	-6209
▁oft	-6210
antie	-6211
▁znac	-6212
▁Windows	-6213
eur	-6214
ieni	-6215
▁existe	-6216
▁mettre	-6217
iciel	-6218
łon	-6219
ften	-6220
▁diesen	-6221
SS	-6222
hy	-6223
▁zast	-6224
▁origin	-6225
vre	-6226
hmen	-6227
▁agli	-6228
colo	-6229
▁fred	-6230
▁geno	-6231
uale	-6232
▁wurden	-6233
▁włas	-6234
▁pouco	-6235
kend	-6236
fang	-6237
▁compar	-6238
ney	-6239
zicht	-6240
▁solic	-6241
▁mé	-6242
▁nim	-6243
▁brand	-6244
úde	-6245
▁order	-6246
▁John	-6247
ired	-6248
▁change	-6249
▁partie	-6250
▁betre	-6251
▁Odp	-6252
acy	-6253
▁dating	-6254
anci	-6255
▁aktiv	-6256
▁Mitt	-6257
▁kier	-6258
▁wol	-6259
isas	-6260
oko	-6261
▁tas	-6262
ieke	-6263
itto	-6264
▁consid	-6265
edia	-6266
amię	-6267
▁febru	-6268
▁cher	-6269
lever	-6270
▁Pi	-6271
rift	-6272
▁bastante	-6273
mach	-6274
▁--	-6275
aal	-6276
orno	-6277
▁Dur	-6278
▁Mam	-6279
▁belle	-6280
▁ruim	-6281
▁Wars	-6282
icación	-6283
gua	-6284
hm	-6285
▁Centr	-6286
ulp	-6287
hets	-6288
▁looking	-6289
▁coup	-6290
▁cerca	-6291
▁kiedy	-6292
ibili	-6293
self	-6294
edi	-6295
▁Energ	-6296
atique	-6297
▁lá	-6298
▁evento	-6299
▁PRO	-6300
▁quali	-6301
▁abbiamo	-6302
owana	-6303
rollo	-6304
▁Act	-6305
▁usar	-6306
jus	-6307
▁fotos	-6308
eff	-6309
▁objetivo	-6310
▁verh	-6311
▁Voc	-6312
owią	-6313
quoi	-6314
kry	-6315
rade	-6316
▁family	-6317
▁série	-6318
▁programma	-6319
air	-6320
▁tres	-6321
▁preoc	-6322
estem	-6323
▁présent	-6324
egól	-6325
▁Off	-6326
▁vais	-6327
nat	-6328
▁Diese	-6329
▁enkel	-6330
En	-6331
recht	-6332
zek	-6333
▁veg	-6334
anks	-6335
ização	-6336
▁unos	-6337
ably	-6338
▁Bas	-6339
qué	-6340
▁Tor	-6341
▁ofre	-6342
▁podczas	-6343
▁vou	-6344
▁mic	-6345
▁besta	-6346
▁jaki	-6347
▁leuk	-6348
▁Når	-6349
dis	-6350
▁realizz	-6351
emaal	-6352
▁between	-6353
▁weten	-6354
Pr	-6355
eck	-6356
▁three	-6357
▁arbejds	-6358
▁thought	-6359
▁Hon	-6360
rijven	-6361
▁Out	-6362
▁bruge	-6363
lu	-6364
▁IT	-6365
▁since	-6366
▁wereld	-6367
▁PC	-6368
▁tempor	-6369
▁card	-6370
▁Rio	-6371
▁klass	-6372
árias	-6373
ilar	-6374
▁nogen	-6375
▁minutes	-6376
lings	-6377
cies	-6378
ules	-6379
▁Jesus	-6380
elige	-6381
▁mano	-6382
▁Italia	-6383
▁mogą	-6384
▁detal	-6385
orde	-6386
▁primeiro	-6387
udi	-6388
ragen	-6389
akta	-6390
▁absolut	-6391
pportun	-6392
ofd	-6393
isir	-6394
▁Ok	-6395
ew	-6396
zem	-6397
jaz	-6398
top	-6399
▁Sur	-6400
ielen	-6401
ificar	-6402
inta	-6403
▁jusqu	-6404
▁clientes	-6405
▁done	-6406
vention	-6407
ley	-6408
rà	-6409
▁opr	-6410
imat	-6411
kten	-6412
▁ici	-6413
▁agora	-6414
▁sino	-6415
▁zrobi	-6416
mb	-6417
▁varje	-6418
▁posta	-6419
▁cod	-6420
▁separ	-6421
▁bygg	-6422
▁datos	-6423
cido	-6424
idar	-6425
pect	-6426
▁annan	-6427
ião	-6428
▁tæn	-6429
▁gäller	-6430
▁mooie	-6431
▁chance	-6432
▁beslut	-6433
ciais	-6434
▁quar	-6435
ifi	-6436
▁jug	-6437
▁jeśli	-6438
▁richt	-6439
etje	-6440
akte	-6441
leń	-6442
mais	-6443
▁genau	-6444
änt	-6445
zes	-6446
▁project	-6447
icion	-6448
▁head	-6449
▁tijdens	-6450
omm	-6451
▁Gew	-6452
▁dług	-6453
▁expect	-6454
▁mów	-6455
IK	-6456
▁↑	-6457
▁mel	-6458
▁nyt	-6459
▁samtid	-6460
▁conn	-6461
cznie	-6462
▁Pas	-6463
▁kop	-6464
▁Inte	-6465
verso	-6466
▁diferen	-6467
mee	-6468
▁ofert	-6469
▁wszystkich	-6470
IR	-6471
▁bedre	-6472
▁suite	-6473
emen	-6474
▁läm	-6475
▁Projekt	-6476
▁Bere	-6477
ließ	-6478
szych	-6479
▁stress	-6480
▁apart	-6481
▁game	-6482
▁altro	-6483
▁Alla	-6484
▁uitge	-6485
▁Bild	-6486
élé	-6487
andet	-6488
▁plusieurs	-6489
▁nacional	-6490
▁flera	-6491
▁fått	-6492
▁peque	-6493
▁além	-6494
▁orden	-6495
▁acab	-6496
▁Miss	-6497
quent	-6498
oo	-6499
dt	-6500
▁Aug	-6501
▁krijgen	-6502
▁Pu	-6503
▁mina	-6504
.:	-6505
▁quelle	-6506
▁Nr	-6507
▁ceux	-6508
ijf	-6509
▁alto	-6510
▁iP	-6511
▁mej	-6512
▁ráp	-6513
▁décou	-6514
czyć	-6515
kret	-6516
▁Sveriges	-6517
▁:-)	-6518
▁fabr	-6519
▁współ	-6520
zeń	-6521
▁spre	-6522
iczne	-6523
▁York	-6524
▁racc	-6525
▁vaak	-6526
▁Arbe	-6527
opo	-6528
▁skriver	-6529
ÃO	-6530
▁Net	-6531
▁reger	-6532
▁tell	-6533
▁Än	-6534
▁jaren	-6535
▁software	-6536
▁Hel	-6537
Le	-6538
oses	-6539
▁toi	-6540
lung	-6541
__	-6542
▁werken	-6543
▁utveckl	-6544
▁capital	-6545
▁avons	-6546
▁attività	-6547
êtes	-6548
▁Rom	-6549
zlich	-6550
▁human	-6551
istor	-6552
▁mainten	-6553
▁sehen	-6554
ãeste	-6555
▁przygot	-6556
▁kry	-6557
▁væl	-6558
▁less	-6559
nitt	-6560
▁Tele	-6561
▁Two	-6562
▁konst	-6563
forder	-6564
▁stabil	-6565
▁commen	-6566
oga	-6567
▁propor	-6568
łos	-6569
▁demande	-6570
▁jullie	-6571
▁jud	-6572
jęcia	-6573
▁lov	-6574
uden	-6575
▁https	-6576
aug	-6577
vår	-6578
acto	-6579
▁sicher	-6580
▁Leb	-6581
!"	-6582
▁Ir	-6583
bard	-6584
íveis	-6585
▁fran	-6586
▁ting	-6587
ennes	-6588
▁́	-6589
posta	-6590
▁principal	-6591
▁plant	-6592
▁explic	-6593
▁ella	-6594
zar	-6595
▁zb	-6596
wał	-6597
PS	-6598
ellig	-6599
okr	-6600
▁risult	-6601
▁quoi	-6602
lø	-6603
▁zmi	-6604
▁mark	-6605
skim	-6606
▁beter	-6607
util	-6608
otros	-6609
▁Isra	-6610
▁Mac	-6611
▁bord	-6612
onde	-6613
oração	-6614
▁boek	-6615
uth	-6616
▁hög	-6617
▁inneh	-6618
▁noss	-6619
tschaft	-6620
▁unserer	-6621
▁Buch	-6622
ätter	-6623
▁väldigt	-6624
▁money	-6625
▁natuurlijk	-6626
▁Europ	-6627
No	-6628
egd	-6629
nienia	-6630
▁hog	-6631
▁dise	-6632
▁ange	-6633
serv	-6634
▁inizi	-6635
▁pozw	-6636
▁emplo	-6637
▁technolog	-6638
▁januari	-6639
▁souha	-6640
▁permit	-6641
rs	-6642
tter	-6643
quen	-6644
▁altre	-6645
▁kilka	-6646
▁pare	-6647
▁front	-6648
▁ambiente	-6649
▁estava	-6650
▁subst	-6651
▁cause	-6652
zn	-6653
▁tratt	-6654
▁enough	-6655
▁ning	-6656
▁auc	-6657
▁derni	-6658
▁cier	-6659
▁Läs	-6660
▁mec	-6661
▁mooi	-6662
▁provid	-6663
alo	-6664
▁pouvoir	-6665
▁orient	-6666
▁obs	-6667
▁Sport	-6668
▁ihm	-6669
ateurs	-6670
▁fokus	-6671
▁understand	-6672
▁ejer	-6673
▁weekend	-6674
▁sche	-6675
▁eventu	-6676
alizz	-6677
▁fís	-6678
▁nossa	-6679
▁bisog	-6680
▁bid	-6681
▁stellen	-6682
▁vic	-6683
▁víde	-6684
urance	-6685
▁vezes	-6686
noc	-6687
▁Tro	-6688
aps	-6689
▁air	-6690
▁cliente	-6691
▁Jed	-6692
fahren	-6693
▁gån	-6694
▁én	-6695
▁casos	-6696
ieme	-6697
▁inlägg	-6698
▁Pan	-6699
▁constitu	-6700
▁afin	-6701
fär	-6702
▁disk	-6703
▁riktigt	-6704
▁fi	-6705
allo	-6706
æv	-6707
▁suoi	-6708
▁spørgsmål	-6709
endet	-6710
▁Kir	-6711
▁primera	-6712
pot	-6713
▁aquí	-6714
▁reste	-6715
▁Comp	-6716
▁caracter	-6717
▁frente	-6718
▁name	-6719
ames	-6720
çon	-6721
▁fundament	-6722
ufen	-6723
▁individual	-6724
öj	-6725
▁peuvent	-6726
ępu	-6727
▁algu	-6728
▁Læs	-6729
▁rigtig	-6730
▁kna	-6731
▁euch	-6732
rif	-6733
▁....	-6734
▁rent	-6735
▁exclus	-6736
wert	-6737
▁club	-6738
izo	-6739
▁segunda	-6740
▁dodat	-6741
▁regard	-6742
▁jeder	-6743
▁svenska	-6744
▁jouw	-6745
▁hosp	-6746
▁sjuk	-6747
olt	-6748
arias	-6749
øv	-6750
▁number	-6751
▁doing	-6752
▁manifest	-6753
▁livre	-6754
▁atr	-6755
fi	-6756
▁meet	-6757
▁mostr	-6758
obierno	-6759
eding	-6760
▁unders	-6761
▁envir	-6762
emat	-6763
▁elektron	-6764
▁Film	-6765
istes	-6766
▁ekonom	-6767
umer	-6768
ulla	-6769
ums	-6770
▁paz	-6771
▁mach	-6772
tres	-6773
itude	-6774
chod	-6775
▁Wil	-6776
▁svil	-6777
▁NO	-6778
ństwa	-6779
▁artículo	-6780
▁dele	-6781
▁informações	-6782
▁ros	-6783
▁cra	-6784
anal	-6785
▁perfect	-6786
▁Intern	-6787
ball	-6788
visning	-6789
▁maakt	-6790
▁resultados	-6791
fel	-6792
ove	-6793
▁apresent	-6794
łów	-6795
▁desta	-6796
uder	-6797
▁vragen	-6798
isis	-6799
▁wp	-6800
▁igual	-6801
zeich	-6802
drag	-6803
▁radio	-6804
▁należy	-6805
▁Online	-6806
▁falta	-6807
ório	-6808
presa	-6809
aixo	-6810
▁institu	-6811
▁Ins	-6812
▁usług	-6813
utter	-6814
▁podemos	-6815
▁komma	-6816
▁forte	-6817
▁enligt	-6818
mande	-6819
ætt	-6820
▁skre	-6821
unk	-6822
estre	-6823
.“	-6824
LA	-6825
odar	-6826
▁COM	-6827
ależ	-6828
▁Paris	-6829
igheden	-6830
NING	-6831
ijden	-6832
ikke	-6833
▁samoch	-6834
▁steht	-6835
zyma	-6836
iąż	-6837
ossen	-6838
▁Stadt	-6839
▁żeby	-6840
▁dirig	-6841
▁mulher	-6842
▁mies	-6843
▁CD	-6844
▁automat	-6845
▁anterior	-6846
▁retur	-6847
▁Jest	-6848
▁went	-6849
▁bild	-6850
ativos	-6851
▁którym	-6852
▁ü	-6853
▁font	-6854
come	-6855
▁Mont	-6856
▁Nel	-6857
OP	-6858
▁usta	-6859
punkt	-6860
▁bardziej	-6861
▁power	-6862
▁veces	-6863
▁morgen	-6864
valu	-6865
▁ejem	-6866
itare	-6867
▁prodotti	-6868
▁Uma	-6869
▁primeira	-6870
▁sopr	-6871
▁helemaal	-6872
waar	-6873
lage	-6874
▁Ban	-6875
▁recher	-6876
▁frågor	-6877
);	-6878
▁popr	-6879
▁Spr	-6880
▁pien	-6881
▁através	-6882
rup	-6883
▁bedrijf	-6884
▁juste	-6885
▁hoy	-6886
west	-6887
vole	-6888
▁fisc	-6889
▁idé	-6890
▁mys	-6891
▁outro	-6892
yba	-6893
▁wykor	-6894
▁modern	-6895
▁persoon	-6896
▁circa	-6897
gro	-6898
das	-6899
▁enfants	-6900
▁times	-6901
▁perc	-6902
inig	-6903
▁verdad	-6904
▁porta	-6905
▁kenn	-6906
▁gärna	-6907
▁måde	-6908
▁città	-6909
▁muchas	-6910
▁dével	-6911
roid	-6912
▁wygl	-6913
▁czasu	-6914
spra	-6915
ßer	-6916
▁aang	-6917
▁sui	-6918
ætte	-6919
wir	-6920
▁zusammen	-6921
ischer	-6922
▁kompl	-6923
nier	-6924
icka	-6925
▁alcuni	-6926
▁spé	-6927
▁muchos	-6928
▁strony	-6929
▁dobrze	-6930
▁Cette	-6931
▁digital	-6932
ograph	-6933
arbeit	-6934
▁pay	-6935
▁realmente	-6936
▁sær	-6937
▁partner	-6938
▁comprom	-6939
▁Upp	-6940
▁Você	-6941
ispiel	-6942
▁Detta	-6943
▁première	-6944
iedade	-6945
▁Lond	-6946
▁impro	-6947
▁original	-6948
olf	-6949
▁arbe	-6950
▁vero	-6951
▁bou	-6952
▁potrzeb	-6953
▁droit	-6954
kelijk	-6955
action	-6956
eligt	-6957
▁secon	-6958
ighet	-6959
▁fis	-6960
ode	-6961
▁dostęp	-6962
volution	-6963
▁bog	-6964
▁bilder	-6965
▁Ni	-6966
▁pis	-6967
▁centrum	-6968
▁pul	-6969
▁libert	-6970
▁wiem	-6971
▁besk	-6972
▁né	-6973
SK	-6974
▁benef	-6975
▁znajdu	-6976
▁tradition	-6977
ception	-6978
obiet	-6979
▁^	-6980
▁pouvez	-6981
▁gick	-6982
▁interna	-6983
▁communic	-6984
▁Bundes	-6985
▁wyda	-6986
iler	-6987
▁ervar	-6988
ås	-6989
żeli	-6990
baka	-6991
▁numero	-6992
▁confer	-6993
ília	-6994
▁forhold	-6995
load	-6996
issance	-6997
isé	-6998
▁użyt	-6999
▁electr	-7000
▁Sl	-7001
▁instr	-7002
▁PS	-7003
▁seiner	-7004
èg	-7005
▁experience	-7006
▁começ	-7007
latego	-7008
▁ora	-7009
▁scel	-7010
essi	-7011
▁juli	-7012
▁laatste	-7013
azz	-7014
▁Peter	-7015
▁journal	-7016
geving	-7017
▁Jac	-7018
▁legal	-7019
▁allem	-7020
▁deta	-7021
illo	-7022
▁näch	-7023
▁works	-7024
▁cabe	-7025
▁señ	-7026
▁brasile	-7027
▁rac	-7028
▁begr	-7029
▁natürlich	-7030
▁virkel	-7031
▁expos	-7032
aven	-7033
▁combin	-7034
▁gratu	-7035
pression	-7036
hers	-7037
▁DEL	-7038
“,	-7039
▁sistem	-7040
▁Dank	-7041
itel	-7042
yes	-7043
▁podob	-7044
back	-7045
usch	-7046
kań	-7047
ifier	-7048
▁trzeba	-7049
▁least	-7050
▁having	-7051
▁vost	-7052
▁była	-7053
▁cerc	-7054
mu	-7055
▁cią	-7056
▁invece	-7057
hem	-7058
▁Stre	-7059
▁cultura	-7060
▁którzy	-7061
▁każde	-7062
empio	-7063
älla	-7064
▁wonder	-7065
▁major	-7066
▁Naj	-7067
▁np	-7068
tał	-7069
▁collect	-7070
▁dafür	-7071
ært	-7072
!)	-7073
▁dato	-7074
program	-7075
▁København	-7076
▁pierwszy	-7077
▁simples	-7078
äg	-7079
ÖR	-7080
kab	-7081
▁ativ	-7082
ppet	-7083
heim	-7084
▁pendant	-7085
ican	-7086
▁paci	-7087
▁Dette	-7088
▁nød	-7089
vano	-7090
IF	-7091
▁cono	-7092
arbe	-7093
▁dort	-7094
ôn	-7095
itte	-7096
▁människor	-7097
▁powie	-7098
▁Pet	-7099
hat	-7100
▁disposit	-7101
▁nature	-7102
▁hoved	-7103
▁Now	-7104
▁tão	-7105
▁nooit	-7106
indre	-7107
▁kul	-7108
▁food	-7109
▁świe	-7110
▁compos	-7111
ziom	-7112
▁wind	-7113
▁wohl	-7114
IST	-7115
bs	-7116
▁musik	-7117
ären	-7118
aring	-7119
undet	-7120
▁rispetto	-7121
▁lokal	-7122
▁wollen	-7123
▁europ	-7124
▁build	-7125
fé	-7126
▁vem	-7127
chtig	-7128
▁..	-7129
▁formul	-7130
▁Är	-7131
▁pract	-7132
▁recursos	-7133
▁servicios	-7134
▁aplica	-7135
talet	-7136
▁specif	-7137
ruk	-7138
▁happen	-7139
▁redan	-7140
ential	-7141
orme	-7142
▁llam	-7143
▁ler	-7144
dos	-7145
▁getting	-7146
ners	-7147
▁tutta	-7148
▁Bol	-7149
▁lö	-7150
▁È	-7151
avoir	-7152
▁intér	-7153
▁caratter	-7154
imentos	-7155
▁czyli	-7156
▁Bill	-7157
▁posible	-7158
▁AR	-7159
▁køb	-7160
▁minutos	-7161
liote	-7162
▁lätt	-7163
hin	-7164
▁actually	-7165
ruck	-7166
▁making	-7167
ield	-7168
▁klub	-7169
▁note	-7170
▁Pos	-7171
▁utr	-7172
▁doesn	-7173
▁basis	-7174
▁tranqu	-7175
▁Stra	-7176
▁Mad	-7177
ände	-7178
▁cose	-7179
iving	-7180
ee	-7181
DF	-7182
née	-7183
unicipal	-7184
▁pied	-7185
centr	-7186
▁pelos	-7187
▁países	-7188
▁mean	-7189
üh	-7190
▁temu	-7191
▁tidigare	-7192
▁stuk	-7193
teri	-7194
▁cómo	-7195
▁wed	-7196
issimo	-7197
entów	-7198
▁using	-7199
▁snab	-7200
▁proj	-7201
▁compart	-7202
▁Sex	-7203
▁Ende	-7204
▁toen	-7205
ząc	-7206
▁provin	-7207
▁during	-7208
rank	-7209
▁chw	-7210
▁Hö	-7211
▁ép	-7212
▁algumas	-7213
▁coll	-7214
itie	-7215
cita	-7216
icie	-7217
łuż	-7218
work	-7219
onne	-7220
▁volte	-7221
▁fatt	-7222
▁fase	-7223
▁neuen	-7224
rum	-7225
lei	-7226
ährend	-7227
▁scen	-7228
▁pubblic	-7229
▁néc	-7230
▁Gi	-7231
▁Mat	-7232
▁Estados	-7233
▁sites	-7234
▁Wik	-7235
ggiung	-7236
folg	-7237
▁zullen	-7238
▁budget	-7239
▁maggior	-7240
▁Hvor	-7241
▁contem	-7242
ió	-7243
▁sujet	-7244
▁DO	-7245
imenta	-7246
▁Wyświet	-7247
▁PAR	-7248
▁bot	-7249
▁interv	-7250
ically	-7251
▁interesse	-7252
icação	-7253
stan	-7254
▁nemen	-7255
omme	-7256
▁zg	-7257
voorbeeld	-7258
▁Oh	-7259
▁posto	-7260
▁System	-7261
éis	-7262
urre	-7263
zysta	-7264
▁disco	-7265
▁vikt	-7266
▁sost	-7267
▁Odpowiedzi	-7268
culo	-7269
▁aange	-7270
▁przypadku	-7271
▁duas	-7272
tobre	-7273
yse	-7274
aan	-7275
▁ontwik	-7276
▁tekst	-7277
pel	-7278
hes	-7279
▁kolor	-7280
▁porte	-7281
ktionen	-7282
▁Mill	-7283
età	-7284
▁qued	-7285
▁gracias	-7286
▁trib	-7287
▁möchte	-7288
▁Restaur	-7289
eras	-7290
▁spir	-7291
ospodar	-7292
iets	-7293
ancer	-7294
▁Möglich	-7295
off	-7296
zk	-7297
▁sö	-7298
ætter	-7299
▁punkt	-7300
▁Mic	-7301
zia	-7302
▁embargo	-7303
gene	-7304
avais	-7305
▁position	-7306
DE	-7307
delen	-7308
▁Park	-7309
sez	-7310
▁nytt	-7311
ready	-7312
lek	-7313
▁eftersom	-7314
▁legge	-7315
▁elev	-7316
▁mars	-7317
▁West	-7318
acqu	-7319
▁besoin	-7320
▁Stand	-7321
▁nord	-7322
▁wszystkie	-7323
ror	-7324
ental	-7325
ära	-7326
▁allemaal	-7327
stellung	-7328
▁måske	-7329
ændr	-7330
quel	-7331
▁livro	-7332
▁informazioni	-7333
érica	-7334
▁today	-7335
▁Dar	-7336
▁dzięki	-7337
fal	-7338
ällen	-7339
prasz	-7340
▁però	-7341
attutto	-7342
▁Deus	-7343
▁benefici	-7344
▁amigos	-7345
iação	-7346
▁hånd	-7347
▁quasi	-7348
▁small	-7349
▁após	-7350
▁deras	-7351
▁ihrer	-7352
▁algunos	-7353
▁anti	-7354
▁endnu	-7355
▁między	-7356
spunkt	-7357
iemand	-7358
dater	-7359
▁jer	-7360
stag	-7361
▁enjo	-7362
▁house	-7363
▁chem	-7364
▁conj	-7365
ideo	-7366
▁partecip	-7367
▁Frage	-7368
▁came	-7369
isser	-7370
▁meglio	-7371
▁prog	-7372
owaniu	-7373
▁curso	-7374
▁Santa	-7375
▁sulle	-7376
ammans	-7377
▁conclus	-7378
znac	-7379
óri	-7380
▁Fo	-7381
▁rig	-7382
set	-7383
▁hjälp	-7384
▁ønsker	-7385
▁IS	-7386
orten	-7387
▁houden	-7388
edor	-7389
▁ciò	-7390
▁pagina	-7391
▁svår	-7392
egeven	-7393
▁sant	-7394
ipp	-7395
the	-7396
▁produkter	-7397
▁massage	-7398
aban	-7399
▁página	-7400
▁celui	-7401
TA	-7402
▁anything	-7403
▁Kunden	-7404
atar	-7405
▁przew	-7406
room	-7407
egl	-7408
▁prett	-7409
▁Muse	-7410
ave	-7411
▁maand	-7412
▁stim	-7413
äder	-7414
▁Also	-7415
▁meter	-7416
▁salud	-7417
▁Alt	-7418
iglia	-7419
▁children	-7420
▁Paul	-7421
▁central	-7422
▁Jap	-7423
olle	-7424
▁Problem	-7425
▁dock	-7426
bat	-7427
▁kall	-7428
▁Tam	-7429
▁gab	-7430
UM	-7431
▁certo	-7432
▁stadig	-7433
▁plast	-7434
▁zawsze	-7435
▁welke	-7436
▁propri	-7437
zelfde	-7438
æm	-7439
▁tarde	-7440
luss	-7441
▁kvinder	-7442
dings	-7443
▁Merci	-7444
▁möjlig	-7445
▁använda	-7446
▁idee	-7447
▁voul	-7448
▁último	-7449
eil	-7450
HE	-7451
hren	-7452
▁Informationen	-7453
ael	-7454
acie	-7455
▁pyt	-7456
illet	-7457
erder	-7458
ienne	-7459
▁piano	-7460
▁Wyświetleń	-7461
▁miejsce	-7462
lands	-7463
▁comport	-7464
TER	-7465
▁recuper	-7466
▁Anders	-7467
idence	-7468
▁części	-7469
▁tengo	-7470
nahme	-7471
▁storia	-7472
▁computer	-7473
▁gemacht	-7474
aneiro	-7475
ír	-7476
▁fit	-7477
▁vraag	-7478
licher	-7479
▁grado	-7480
▁euros	-7481
▁história	-7482
OW	-7483
▁conditions	-7484
▁então	-7485
**	-7486
obil	-7487
▁inclus	-7488
▁escr	-7489
▁sare	-7490
igr	-7491
▁sabe	-7492
chan	-7493
ización	-7494
▁lead	-7495
▁correspond	-7496
onnement	-7497
▁Hum	-7498
▁acuerdo	-7499
▁trouve	-7500
▁trouver	-7501
ättning	-7502
erlijk	-7503
▁ring	-7504
▁proceso	-7505
▁night	-7506
▁bestem	-7507
▁Fahr	-7508
▁livet	-7509
▁rigu	-7510
ppas	-7511
▁content	-7512
▁avail	-7513
▁betyder	-7514
win	-7515
▁ness	-7516
anst	-7517
▁working	-7518
▁sik	-7519
wiście	-7520
▁plat	-7521
äh	-7522
▁wielu	-7523
igheter	-7524
▁lieu	-7525
▁phys	-7526
▁Radio	-7527
▁opportun	-7528
ctions	-7529
▁gehen	-7530
▁lär	-7531
handling	-7532
▁verksam	-7533
▁Haus	-7534
▁argument	-7535
▁mulighed	-7536
▁gerade	-7537
▁nouveau	-7538
kost	-7539
▁verkligen	-7540
▁already	-7541
ynku	-7542
▁energi	-7543
▁rä	-7544
falls	-7545
cup	-7546
ettes	-7547
▁estaba	-7548
▁mist	-7549
▁grazie	-7550
aca	-7551
racht	-7552
▁dop	-7553
▁leu	-7554
▁estamos	-7555
volg	-7556
▁verdade	-7557
▁artik	-7558
▁Ped	-7559
▁quot	-7560
▁eben	-7561
▁tard	-7562
▁ello	-7563
gem	-7564
▁siamo	-7565
▁pasado	-7566
▁lei	-7567
▁oczy	-7568
ibr	-7569
anse	-7570
▁Seite	-7571
▁halv	-7572
orta	-7573
creto	-7574
▁inkl	-7575
▁pont	-7576
▁heller	-7577
▁miejsc	-7578
▁domu	-7579
▁nät	-7580
▁company	-7581
▁<	-7582
▁familie	-7583
▁Yo	-7584
▁środ	-7585
eau	-7586
wach	-7587
pak	-7588
▁jedoch	-7589
åk	-7590
▁queste	-7591
▁sentido	-7592
ultat	-7593
▁Dig	-7594
▁näm	-7595
▁nuestros	-7596
▁rappres	-7597
▁dura	-7598
ask	-7599
▁Let	-7600
▁attraverso	-7601
▁Denne	-7602
▁periodo	-7603
▁Ps	-7604
▁difí	-7605
▁produtos	-7606
▁klein	-7607
▁keu	-7608
▁Thema	-7609
eração	-7610
▁’	-7611
▁mennesker	-7612
▁Ents	-7613
agram	-7614
▁perí	-7615
rac	-7616
▁revis	-7617
▁possível	-7618
ançais	-7619
▁Kle	-7620
ækker	-7621
▁fået	-7622
▁😉	-7623
▁właśnie	-7624
nisse	-7625
▁fire	-7626
unft	-7627
▁regular	-7628
ights	-7629
cheid	-7630
▁Mein	-7631
umen	-7632
▁until	-7633
▁syst	-7634
▁Bib	-7635
▁servizio	-7636
▁pret	-7637
▁half	-7638
stad	-7639
aco	-7640
▁kontrol	-7641
▁stå	-7642
▁carr	-7643
▁object	-7644
▁agosto	-7645
▁beb	-7646
▁además	-7647
autre	-7648
We	-7649
▁kart	-7650
icznych	-7651
▁verso	-7652
just	-7653
▁français	-7654
▁oplev	-7655
▁lid	-7656
zing	-7657
▁dien	-7658
▁rzeczy	-7659
▁najleps	-7660
▁claro	-7661
▁sentir	-7662
▁General	-7663
ply	-7664
▁resultado	-7665
aw	-7666
▁poja	-7667
▁tram	-7668
erte	-7669
▁försö	-7670
▁manier	-7671
▁sak	-7672
▁kunst	-7673
▁führ	-7674
anej	-7675
▁skill	-7676
▁win	-7677
▁personen	-7678
nam	-7679
▁Geld	-7680
▁demon	-7681
▁kwal	-7682
amment	-7683
▁hope	-7684
▁accord	-7685
pat	-7686
iko	-7687
▁weiß	-7688
ęż	-7689
▁Espa	-7690
▁Prze	-7691
äns	-7692
izen	-7693
▁Weg	-7694
▁kamp	-7695
▁Kultur	-7696
ently	-7697
char	-7698
▁millones	-7699
ished	-7700
▁económ	-7701
▁learn	-7702
▁ub	-7703
urar	-7704
▁Lebens	-7705
▁frå	-7706
▁resto	-7707
odz	-7708
nios	-7709
▁FOR	-7710
▁ihren	-7711
fs	-7712
▁tager	-7713
kowo	-7714
▁napraw	-7715
▁entend	-7716
▁runt	-7717
rados	-7718
zet	-7719
issement	-7720
▁esempio	-7721
anze	-7722
änk	-7723
▁Thanks	-7724
cier	-7725
▁beaut	-7726
▁Questo	-7727
slut	-7728
▁boven	-7729
fér	-7730
▁nostri	-7731
ification	-7732
▁erb	-7733
▁alum	-7734
iteiten	-7735
feito	-7736
▁firmy	-7737
▁Mor	-7738
alne	-7739
▁éta	-7740
▁peux	-7741
▁puedes	-7742
fois	-7743
▁Kap	-7744
▁bef	-7745
▁parti	-7746
▁stati	-7747
▁fosse	-7748
▁meest	-7749
▁nau	-7750
▁differen	-7751
▁coraz	-7752
öff	-7753
hou	-7754
▁desenvolv	-7755
▁Portug	-7756
▁rese	-7757
▁profesional	-7758
▁webb	-7759
▁implement	-7760
bei	-7761
apar	-7762
▁Ven	-7763
erer	-7764
▁lekker	-7765
▁Gel	-7766
▁zakres	-7767
▁rust	-7768
▁contribu	-7769
oltre	-7770
▁schnell	-7771
▁Nos	-7772
▁meiner	-7773
ijks	-7774
igtigt	-7775
rais	-7776
chè	-7777
▁nen	-7778
▁surtout	-7779
wickl	-7780
ykke	-7781
▁häl	-7782
▁mente	-7783
▁someone	-7784
▁grat	-7785
▁pozy	-7786
▁três	-7787
▁room	-7788
ítulo	-7789
▁skład	-7790
▁pena	-7791
▁fuld	-7792
olar	-7793
▁Tal	-7794
▁appe	-7795
▁sugg	-7796
▁Svens	-7797
▁Á	-7798
▁Waar	-7799
▁syg	-7800
▁national	-7801
▁Home	-7802
jourd	-7803
▁gast	-7804
▁respon	-7805
utr	-7806
ôle	-7807
▁Twitter	-7808
▁Ł	-7809
▁ec	-7810
▁Mann	-7811
▁nova	-7812
▁superior	-7813
▁betal	-7814
km	-7815
▁resultat	-7816
▁account	-7817
▁vanaf	-7818
irá	-7819
▁dage	-7820
▁collabor	-7821
ingo	-7822
▁once	-7823
kami	-7824
fond	-7825
▁soprattutto	-7826
▁desarrollo	-7827
▁vamos	-7828
▁forme	-7829
▁Your	-7830
▁exempel	-7831
▁lave	-7832
ending	-7833
vos	-7834
cić	-7835
▁fen	-7836
▁kvar	-7837
łych	-7838
▁années	-7839
▁sorte	-7840
▁qualidade	-7841
▁lad	-7842
▁mediante	-7843
bok	-7844
oco	-7845
iode	-7846
bygg	-7847
▁geben	-7848
▁grö	-7849
PR	-7850
derne	-7851
▁terror	-7852
▁Jos	-7853
▁gebruiken	-7854
▁snart	-7855
▁lég	-7856
MA	-7857
▁circ	-7858
anche	-7859
wić	-7860
ãos	-7861
elho	-7862
▁próximo	-7863
▁particolare	-7864
........	-7865
ionais	-7866
▁drie	-7867
▁vielen	-7868
▁iedereen	-7869
áct	-7870
hab	-7871
▁dub	-7872
▁cad	-7873
jø	-7874
nością	-7875
▁nærheden	-7876
▁blandt	-7877
stüt	-7878
mann	-7879
kla	-7880
▁servicio	-7881
▁liegt	-7882
▁Camp	-7883
▁Ż	-7884
▁serait	-7885
âm	-7886
aría	-7887
▁sempl	-7888
andra	-7889
ists	-7890
▁satisf	-7891
MS	-7892
▁doet	-7893
▁Pass	-7894
▁EL	-7895
▁música	-7896
▁Nav	-7897
TO	-7898
▁servizi	-7899
▁discipl	-7900
▁transform	-7901
▁kraft	-7902
▁Warsza	-7903
▁ama	-7904
▁souvent	-7905
▁vooral	-7906
ramente	-7907
▁Vert	-7908
▁domin	-7909
▁teraz	-7910
▁niets	-7911
ieri	-7912
▁especi	-7913
▁prix	-7914
▁soir	-7915
▁visual	-7916
▁music	-7917
▁governo	-7918
▁photos	-7919
▁large	-7920
▁gele	-7921
▁Stat	-7922
▁Frank	-7923
▁analys	-7924
▁Unternehmen	-7925
▁mise	-7926
▁behov	-7927
oft	-7928
zaam	-7929
mär	-7930
▁Sono	-7931
zego	-7932
▁teg	-7933
iba	-7934
▁mond	-7935
▁zelfs	-7936
heiro	-7937
▁lett	-7938
▁divert	-7939
hel	-7940
▁bezpie	-7941
holder	-7942
▁effett	-7943
▁év	-7944
▁quelque	-7945
▁mentre	-7946
▁productos	-7947
ienen	-7948
▁taki	-7949
▁kateg	-7950
onnen	-7951
▁specjal	-7952
ams	-7953
ificación	-7954
CE	-7955
pris	-7956
ibe	-7957
▁tomar	-7958
▁believe	-7959
▁kg	-7960
▁sø	-7961
emo	-7962
▁train	-7963
▁tes	-7964
▁Inf	-7965
roc	-7966
▁świat	-7967
arbejde	-7968
▁passar	-7969
▁wenig	-7970
▁enqu	-7971
▁gens	-7972
▁links	-7973
▁petite	-7974
para	-7975
▁przeci	-7976
▁tenho	-7977
▁envi	-7978
▁sû	-7979
▁ecc	-7980
▁uds	-7981
▁fø	-7982
▁Fa	-7983
▁eind	-7984
▁schön	-7985
▁corso	-7986
▁honom	-7987
▁której	-7988
▁mane	-7989
▁welche	-7990
▁ricerca	-7991
▁grav	-7992
ologi	-7993
▁Word	-7994
▁hjemmes	-7995
áb	-7996
▁agua	-7997
▁stil	-7998
▁dijo	-7999
▁drog	-8000
bland	-8001
▁nouvelle	-8002
▁política	-8003
▁rekl	-8004
ísticas	-8005
ycznych	-8006
hu	-8007
aking	-8008
uste	-8009
ledes	-8010
▁comprar	-8011
▁Plus	-8012
æd	-8013
▁zoek	-8014
▁papel	-8015
▁Entre	-8016
▁gewe	-8017
łowie	-8018
▁invol	-8019
▁misma	-8020
▁máx	-8021
person	-8022
omin	-8023
▁hai	-8024
▁lanç	-8025
▁AT	-8026
▁ejemplo	-8027
izzazione	-8028
▁davon	-8029
▁compan	-8030
Se	-8031
▁says	-8032
▁året	-8033
uma	-8034
▁denken	-8035
sza	-8036
▁wszystkim	-8037
▁area	-8038
▁Bek	-8039
iging	-8040
eri	-8041
zeda	-8042
▁spaz	-8043
▁gebruikt	-8044
▁available	-8045
▁Fun	-8046
▁könnte	-8047
’.	-8048
▁trabaj	-8049
▁Grande	-8050
▁tek	-8051
▁lief	-8052
▁pac	-8053
jego	-8054
▁firma	-8055
▁materi	-8056
▁left	-8057
▁mur	-8058
zyn	-8059
cje	-8060
eración	-8061
pri	-8062
▁Well	-8063
▁aper	-8064
▁hacia	-8065
▁funkc	-8066
▁letzten	-8067
▁posiada	-8068
▁effet	-8069
▁assez	-8070
▁amo	-8071
fri	-8072
▁gewor	-8073
vil	-8074
cole	-8075
▁ott	-8076
▁calidad	-8077
▁mant	-8078
▁Vill	-8079
▁följ	-8080
▁toget	-8081
▁denen	-8082
▁difícil	-8083
zzi	-8084
▁Vir	-8085
utions	-8086
ikation	-8087
▁oplysninger	-8088
py	-8089
älle	-8090
▁zakup	-8091
rieben	-8092
▁Wa	-8093
▁Pot	-8094
pli	-8095
▁batter	-8096
▁télé	-8097
▁Pers	-8098
clu	-8099
▁ign	-8100
▁ras	-8101
kund	-8102
wart	-8103
▁konnte	-8104
▁minist	-8105
▁albo	-8106
▁Produkt	-8107
▁roll	-8108
▁szt	-8109
▁Centro	-8110
▁Spa	-8111
▁logo	-8112
gos	-8113
ielt	-8114
▁sud	-8115
ût	-8116
▁qualità	-8117
▁hotell	-8118
▁darauf	-8119
ærk	-8120
adamente	-8121
abili	-8122
▁personale	-8123
ération	-8124
▁niños	-8125
▁besser	-8126
▁Nas	-8127
czne	-8128
▁Foto	-8129
▁drei	-8130
▁elimin	-8131
▁sint	-8132
▁Real	-8133
füg	-8134
▁!!	-8135
▁Test	-8136
▁initi	-8137
▁occas	-8138
▁chodzi	-8139
▁inser	-8140
▁ændr	-8141
▁gehör	-8142
▁annon	-8143
▁trata	-8144
▁según	-8145
sterdam	-8146
▁cover	-8147
date	-8148
iki	-8149
▁Dam	-8150
▁Sant	-8151
▁buurt	-8152
▁reason	-8153
▁vér	-8154
▁poziom	-8155
onym	-8156
▁seinen	-8157
▁mots	-8158
▁junto	-8159
undial	-8160
pes	-8161
▁maat	-8162
uche	-8163
▁jäm	-8164
▁verschieden	-8165
itti	-8166
▁øj	-8167
ither	-8168
▁Wochen	-8169
ocr	-8170
▁choses	-8171
▁enfer	-8172
▁tinha	-8173
▁sej	-8174
▁synes	-8175
plant	-8176
▁elke	-8177
ünd	-8178
▁konie	-8179
ío	-8180
▁Mitgl	-8181
▁répond	-8182
▁ragaz	-8183
écur	-8184
▁maxim	-8185
ældre	-8186
erta	-8187
onos	-8188
▁huv	-8189
▁ją	-8190
▁match	-8191
▁zorg	-8192
▁buena	-8193
▁permite	-8194
gent	-8195
ranno	-8196
▁evitar	-8197
▁sau	-8198
upe	-8199
▁Uni	-8200
▁Star	-8201
▁temperatur	-8202
▁prova	-8203
▁czasie	-8204
article	-8205
nea	-8206
▁tjän	-8207
puesta	-8208
▁ekst	-8209
▁interpret	-8210
▁regler	-8211
▁cieka	-8212
▁capit	-8213
▁Tout	-8214
▁techni	-8215
▁points	-8216
▁hoofd	-8217
blog	-8218
CI	-8219
illar	-8220
▁cic	-8221
jach	-8222
▁significa	-8223
▁dep	-8224
oń	-8225
rätt	-8226
idores	-8227
▁wet	-8228
ituto	-8229
fun	-8230
aterial	-8231
▁novembre	-8232
mil	-8233
▁introdu	-8234
▁sär	-8235
ird	-8236
▁code	-8237
ître	-8238
ycznie	-8239
▁Ot	-8240
▁lasci	-8241
▁boa	-8242
▁Hun	-8243
▁Artikel	-8244
▁vag	-8245
▁åb	-8246
▁Austr	-8247
▁Cuando	-8248
▁toeg	-8249
▁sess	-8250
▁denk	-8251
chę	-8252
▁Conse	-8253
ierten	-8254
erva	-8255
▁Besch	-8256
▁trois	-8257
▁cheg	-8258
andaag	-8259
▁geeft	-8260
▁against	-8261
iber	-8262
estas	-8263
▁presso	-8264
▁difficult	-8265
▁inten	-8266
▁Air	-8267
▁others	-8268
▁rapid	-8269
▁były	-8270
uß	-8271
▁PER	-8272
▁nosotros	-8273
iers	-8274
alde	-8275
▁rę	-8276
vänd	-8277
▁Kontakt	-8278
ações	-8279
▁blijven	-8280
▁placer	-8281
UD	-8282
VD	-8283
▁engel	-8284
près	-8285
edaan	-8286
istik	-8287
▁sector	-8288
▁following	-8289
▁wichtig	-8290
▁secret	-8291
▁motivo	-8292
▁rice	-8293
▁adr	-8294
▁waż	-8295
ecu	-8296
▁tillbaka	-8297
trä	-8298
▁peg	-8299
▁cambio	-8300
ciendo	-8301
igd	-8302
,...	-8303
▁forbind	-8304
▁adapt	-8305
▁doświad	-8306
haus	-8307
▁parents	-8308
▁organizz	-8309
▁zob	-8310
antwort	-8311
zeug	-8312
män	-8313
łecz	-8314
?!	-8315
arde	-8316
▁före	-8317
▁comput	-8318
▁Unidos	-8319
▁facile	-8320
▁Conf	-8321
▁EST	-8322
houd	-8323
▁ktoś	-8324
bres	-8325
▁iemand	-8326
▁bzw	-8327
ouv	-8328
engen	-8329
uft	-8330
▁Vere	-8331
▁deste	-8332
▁muitas	-8333
jur	-8334
▁nuova	-8335
arbet	-8336
▁chyba	-8337
cola	-8338
▁interessante	-8339
▁personn	-8340
%.	-8341
▁produits	-8342
▁dela	-8343
▁doll	-8344
lim	-8345
▁retour	-8346
▁ago	-8347
▁Ist	-8348
▁eget	-8349
-,	-8350
▁haber	-8351
▁means	-8352
▁quelli	-8353
vangen	-8354
▁Bro	-8355
▁bele	-8356
▁zitten	-8357
▁fim	-8358
▁vont	-8359
▁Alex	-8360
NA	-8361
gte	-8362
▁adult	-8363
▁klart	-8364
▁fys	-8365
itation	-8366
▁incre	-8367
▁szko	-8368
▁napis	-8369
gång	-8370
cre	-8371
entras	-8372
▁ingl	-8373
▁wyp	-8374
▁precisa	-8375
▁gost	-8376
▁Acc	-8377
▁Pols	-8378
śc	-8379
▁billeder	-8380
▁Apple	-8381
hone	-8382
auen	-8383
▁finder	-8384
kont	-8385
▁difficile	-8386
beg	-8387
▁obec	-8388
former	-8389
▁together	-8390
iez	-8391
▁wykorzyst	-8392
▁rub	-8393
Re	-8394
áveis	-8395
älj	-8396
▁dial	-8397
▁enter	-8398
▁Here	-8399
book	-8400
aks	-8401
▁sull	-8402
▁betyd	-8403
olu	-8404
▁!!!	-8405
▁infatti	-8406
▁trav	-8407
▁bijvoorbeeld	-8408
▁touch	-8409
▁body	-8410
▁histori	-8411
▁settim	-8412
▁Mass	-8413
iony	-8414
▁tillsammans	-8415
▁fab	-8416
▁diz	-8417
▁organisation	-8418
żyć	-8419
▁zeggen	-8420
▁Start	-8421
▁preocup	-8422
▁max	-8423
box	-8424
▁Ak	-8425
gger	-8426
▁modal	-8427
▁daß	-8428
▁saker	-8429
ciale	-8430
▁AD	-8431
gave	-8432
icional	-8433
arda	-8434
▁Ru	-8435
▁»,	-8436
▁micro	-8437
▁duid	-8438
▁coisa	-8439
han	-8440
▁Bank	-8441
▁televis	-8442
estety	-8443
▁wait	-8444
▁studio	-8445
▁gange	-8446
▁ponad	-8447
▁wanneer	-8448
ódigo	-8449
▁yet	-8450
ml	-8451
zug	-8452
eler	-8453
▁dwa	-8454
▁exerc	-8455
▁jan	-8456
▁avs	-8457
▁effic	-8458
▁story	-8459
▁geval	-8460
▁strutt	-8461
alla	-8462
æft	-8463
óź	-8464
ardoor	-8465
▁ändå	-8466
▁créd	-8467
▁espec	-8468
▁wt	-8469
▁spesso	-8470
▁zes	-8471
▁monitor	-8472
▁squ	-8473
▁friends	-8474
▁concern	-8475
▁possa	-8476
▁dorm	-8477
▁celle	-8478
▁emoc	-8479
▁estou	-8480
▁molti	-8481
▁conserv	-8482
▁Berlin	-8483
iona	-8484
▁table	-8485
mus	-8486
▁selec	-8487
érieur	-8488
▁mniej	-8489
▁lika	-8490
ging	-8491
▁modelo	-8492
ído	-8493
▁muse	-8494
▁loi	-8495
▁often	-8496
El	-8497
ultura	-8498
euw	-8499
▁geworden	-8500
▁siebie	-8501
▁verden	-8502
agna	-8503
▁chor	-8504
▁influen	-8505
ettamente	-8506
äter	-8507
▁vriend	-8508
▁vårt	-8509
▁gamm	-8510
▁AM	-8511
▁Rob	-8512
▁ziem	-8513
gie	-8514
▁pog	-8515
▁kat	-8516
▁gik	-8517
året	-8518
icip	-8519
änger	-8520
▁szk	-8521
▁behandling	-8522
geme	-8523
hod	-8524
leicht	-8525
aus	-8526
mis	-8527
ología	-8528
▁twor	-8529
▁Sw	-8530
▁cumpl	-8531
ativi	-8532
▁III	-8533
erk	-8534
ático	-8535
▁kör	-8536
▁gav	-8537
▁internacional	-8538
▁acordo	-8539
▁stehen	-8540
uge	-8541
vio	-8542
▁seks	-8543
ött	-8544
▁koszt	-8545
nę	-8546
ioso	-8547
▁muligt	-8548
▁scu	-8549
oute	-8550
▁ponie	-8551
▁förv	-8552
▁else	-8553
▁within	-8554
rede	-8555
▁stöd	-8556
raag	-8557
▁Anal	-8558
▁robi	-8559
▁easy	-8560
ène	-8561
lden	-8562
▁Tel	-8563
▁importantes	-8564
▁sommes	-8565
irma	-8566
▁prem	-8567
▁Gli	-8568
▁män	-8569
▁gent	-8570
▁ficar	-8571
▁certific	-8572
▁déf	-8573
▁pues	-8574
▁uwag	-8575
wijs	-8576
▁côt	-8577
▁seguridad	-8578
▁muitos	-8579
Pro	-8580
sek	-8581
▁Moż	-8582
vrir	-8583
etas	-8584
▁compon	-8585
▁książ	-8586
light	-8587
astro	-8588
▁grow	-8589
▁præ	-8590
▁udział	-8591
▁continue	-8592
▁album	-8593
ambi	-8594
▁suggest	-8595
plac	-8596
▁promo	-8597
▁RE	-8598
▁säga	-8599
▁Akt	-8600
sning	-8601
▁danych	-8602
▁estim	-8603
▁Fort	-8604
ęzy	-8605
▁håll	-8606
▁cinco	-8607
▁enkele	-8608
▁Arbeits	-8609
▁Ziel	-8610
▁conseguir	-8611
cm	-8612
▁Deb	-8613
▁empre	-8614
cks	-8615
▁einige	-8616
▁actividades	-8617
utar	-8618
▁CO	-8619
ilde	-8620
rijk	-8621
▁prend	-8622
łość	-8623
érer	-8624
▁cul	-8625
!”	-8626
▁Bud	-8627
▁young	-8628
▁global	-8629
▁libre	-8630
ein	-8631
▁sociales	-8632
ículos	-8633
▁visita	-8634
▁hvilket	-8635
aczy	-8636
onders	-8637
▁sod	-8638
▁jobb	-8639
▁maison	-8640
▁nation	-8641
æde	-8642
▁Sy	-8643
▁held	-8644
’,	-8645
ämt	-8646
▁private	-8647
▁tilby	-8648
▁aujourd	-8649
▁accomp	-8650
▁Amsterdam	-8651
zew	-8652
bon	-8653
ícia	-8654
▁coisas	-8655
▁siguiente	-8656
gia	-8657
▁vindt	-8658
engt	-8659
▁Service	-8660
▁llevar	-8661
▁wzgl	-8662
änner	-8663
▁metod	-8664
ibilidad	-8665
▁última	-8666
▁acces	-8667
onych	-8668
▁davvero	-8669
▁sed	-8670
▁börj	-8671
▁National	-8672
▁internation	-8673
▁aprend	-8674
izado	-8675
▁hjælp	-8676
▁pesqu	-8677
▁livello	-8678
▁exemplo	-8679
▁samh	-8680
▁använder	-8681
▁inner	-8682
▁Ren	-8683
▁Sul	-8684
▁».	-8685
ím	-8686
▁szer	-8687
▁erf	-8688
förs	-8689
▁pozosta	-8690
ieniu	-8691
▁único	-8692
▁everything	-8693
▁kijken	-8694
▁cell	-8695
▁tje	-8696
oste	-8697
ossa	-8698
▁sever	-8699
altro	-8700
skol	-8701
▁sosten	-8702
ukk	-8703
▁Priv	-8704
▁girl	-8705
▁gere	-8706
▁certains	-8707
▁zawod	-8708
▁exact	-8709
▁uro	-8710
▁otten	-8711
▁rin	-8712
▁doub	-8713
isko	-8714
▁redes	-8715
▁sker	-8716
▁→	-8717
ansen	-8718
▁układ	-8719
▁luz	-8720
▁projeto	-8721
▁Wi	-8722
▁trud	-8723
mac	-8724
▁Top	-8725
usse	-8726
▁irgend	-8727
erve	-8728
pero	-8729
▁beschik	-8730
OG	-8731
▁Din	-8732
▁Polsce	-8733
ulas	-8734
▁nå	-8735
nienie	-8736
▁instrument	-8737
▁zwar	-8738
▁fica	-8739
▁vl	-8740
itura	-8741
lor	-8742
▁värld	-8743
ases	-8744
uler	-8745
▁varia	-8746
▁allo	-8747
▁Roma	-8748
inación	-8749
▁entrepr	-8750
▁shall	-8751
▁comercial	-8752
▁veloc	-8753
▁territorio	-8754
▁życia	-8755
▁eerst	-8756
▁succes	-8757
▁adres	-8758
▁À	-8759
chtige	-8760
▁vere	-8761
▁onge	-8762
▁dagar	-8763
onces	-8764
▁Tut	-8765
▁bout	-8766
jär	-8767
enskap	-8768
▁serviços	-8769
▁cuer	-8770
▁Cla	-8771
▁vidare	-8772
▁dyr	-8773
ziale	-8774
▁februari	-8775
▁country	-8776
▁Auto	-8777
łada	-8778
▁bepa	-8779
▁został	-8780
▁alguna	-8781
eraus	-8782
bardziej	-8783
▁gehe	-8784
▁pamię	-8785
onie	-8786
eni	-8787
▁ordin	-8788
raż	-8789
▁façon	-8790
▁negli	-8791
▁Pier	-8792
▁beetje	-8793
▁dever	-8794
aa	-8795
pozy	-8796
▁distribu	-8797
▁With	-8798
itets	-8799
schied	-8800
▁diagn	-8801
▁naszej	-8802
▁spar	-8803
▁guerra	-8804
lut	-8805
▁dados	-8806
▁fres	-8807
▁krav	-8808
yki	-8809
▁makes	-8810
▁aveva	-8811
▁vídeo	-8812
▁August	-8813
▁équip	-8814
▁Vid	-8815
▁odby	-8816
▁zapew	-8817
▁accept	-8818
▁prø	-8819
▁ful	-8820
liv	-8821
róż	-8822
▁ontwikkel	-8823
rai	-8824
▁vist	-8825
▁environ	-8826
▁short	-8827
▁professional	-8828
bit	-8829
▁fint	-8830
▁nueva	-8831
▁Tour	-8832
reven	-8833
ureau	-8834
▁HD	-8835
▁período	-8836
▁dimens	-8837
▁complex	-8838
▁fur	-8839
▁Fund	-8840
▁problème	-8841
▁tidligere	-8842
pped	-8843
▁sytu	-8844
▁consci	-8845
▁Kind	-8846
▁pessoa	-8847
oix	-8848
▁rifer	-8849
▁mín	-8850
▁ligne	-8851
▁profil	-8852
bär	-8853
▁statt	-8854
▁cara	-8855
▁Além	-8856
▁palab	-8857
▁krijgt	-8858
▁Door	-8859
▁possibilità	-8860
zial	-8861
ols	-8862
▁qualité	-8863
yrelsen	-8864
▁config	-8865
▁Feb	-8866
▁rot	-8867
▁Ama	-8868
▁infer	-8869
erm	-8870
▁Trump	-8871
wick	-8872
▁Geme	-8873
▁Federal	-8874
▁exemple	-8875
▁Ils	-8876
fund	-8877
ående	-8878
▁disso	-8879
▁vrai	-8880
▁geboren	-8881
▁provide	-8882
ánd	-8883
▁hende	-8884
ływ	-8885
blad	-8886
nicy	-8887
aget	-8888
▁nothing	-8889
▁últimos	-8890
terne	-8891
▁zat	-8892
▁liten	-8893
▁enjoy	-8894
▁told	-8895
▁September	-8896
▁seul	-8897
bara	-8898
▁godz	-8899
▁parec	-8900
▁elever	-8901
▁seguito	-8902
▁watch	-8903
pet	-8904
czej	-8905
▁Ans	-8906
śniej	-8907
▁webbplats	-8908
ość	-8909
vist	-8910
ulos	-8911
▁groe	-8912
éné	-8913
zij	-8914
zahl	-8915
▁sige	-8916
mens	-8917
▁friend	-8918
▁Gott	-8919
▁chcia	-8920
▁depend	-8921
IB	-8922
umenta	-8923
añ	-8924
inkel	-8925
▁voit	-8926
▁progetto	-8927
▁mientras	-8928
oman	-8929
▁risk	-8930
▁przes	-8931
▁maintenant	-8932
NE	-8933
▁react	-8934
▁experi	-8935
▁Durch	-8936
gelig	-8937
▁scient	-8938
ięks	-8939
▁meille	-8940
ev	-8941
▁zodat	-8942
▁including	-8943
▁bambini	-8944
▁City	-8945
▁Janu	-8946
oph	-8947
▁took	-8948
▁agg	-8949
▁vielleicht	-8950
▁cort	-8951
▁richtig	-8952
▁hätte	-8953
ást	-8954
▁gram	-8955
lighet	-8956
ueb	-8957
▁excel	-8958
▁dejar	-8959
▁fé	-8960
▁recomend	-8961
▁resid	-8962
▁Kommune	-8963
▁seria	-8964
▁rozwiąz	-8965
Es	-8966
igens	-8967
dags	-8968
▁future	-8969
læ	-8970
▁market	-8971
▁princi	-8972
èrement	-8973
▁klas	-8974
▁kne	-8975
▁prodotto	-8976
▁takich	-8977
▁matr	-8978
▁gilt	-8979
altung	-8980
GB	-8981
▁krit	-8982
ichts	-8983
nade	-8984
▁gæl	-8985
ôm	-8986
▁Thank	-8987
▁Id	-8988
▁specific	-8989
very	-8990
▁seen	-8991
▁erhalten	-8992
▁donner	-8993
zd	-8994
:)	-8995
▁bero	-8996
▁avis	-8997
▁stam	-8998
▁ligt	-8999
raft	-9000
mentar	-9001
▁April	-9002
▁niew	-9003
▁Gener	-9004
▁World	-9005
▁magn	-9006
essant	-9007
▁nós	-9008
▁sf	-9009
mend	-9010
▁current	-9011
▁ofta	-9012
▁minister	-9013
▁relación	-9014
▁instru	-9015
▁propria	-9016
▁hemos	-9017
▁vedere	-9018
enne	-9019
▁aktu	-9020
▁Ul	-9021
▁Gest	-9022
ruktur	-9023
▁clic	-9024
łę	-9025
▁whole	-9026
▁delt	-9027
▁proyecto	-9028
vier	-9029
▁Además	-9030
▁quite	-9031
▁verm	-9032
▁landet	-9033
▁Job	-9034
▁trying	-9035
▁pourquoi	-9036
▁texto	-9037
vé	-9038
▁serve	-9039
pers	-9040
▁privat	-9041
▁batt	-9042
▁świad	-9043
▁sécur	-9044
▁Ann	-9045
▁penge	-9046
▁DA	-9047
▁SU	-9048
▁saúde	-9049
▁morte	-9050
▁remo	-9051
▁Ga	-9052
▁Secret	-9053
lect	-9054
▁meinen	-9055
esti	-9056
▁Minist	-9057
▁fortæl	-9058
▁fær	-9059
tron	-9060
reiben	-9061
▁gal	-9062
▁svol	-9063
information	-9064
aliśmy	-9065
▁eigentlich	-9066
▁rundt	-9067
▁langt	-9068
cé	-9069
hic	-9070
▁David	-9071
▁Heb	-9072
▁sine	-9073
▁marzo	-9074
▁Frau	-9075
▁jem	-9076
▁massa	-9077
▁sand	-9078
▁Ou	-9079
ieu	-9080
▁needs	-9081
▁comfort	-9082
lan	-9083
▁neste	-9084
▁début	-9085
kehr	-9086
▁parole	-9087
nd	-9088
▁ley	-9089
▁lect	-9090
▁łat	-9091
▁Tot	-9092
yra	-9093
▁aprove	-9094
▁forbindelse	-9095
▁choix	-9096
▁reden	-9097
issens	-9098
cję	-9099
▁Fern	-9100
▁kvinnor	-9101
▁China	-9102
▁perfekt	-9103
▁occup	-9104
umul	-9105
▁pięk	-9106
ällt	-9107
▁pretty	-9108
▁dernier	-9109
untos	-9110
▁Hil	-9111
usion	-9112
▁accep	-9113
▁Mr	-9114
▁tête	-9115
▁posso	-9116
▁richi	-9117
▁berätt	-9118
▁amerikan	-9119
▁light	-9120
▁nesta	-9121
ellschaft	-9122
ynam	-9123
VER	-9124
▁ense	-9125
▁lyck	-9126
umin	-9127
▁Wohn	-9128
▁väx	-9129
reichen	-9130
▁kennen	-9131
▁kvalitet	-9132
ibilità	-9133
▁conform	-9134
wards	-9135
▁pengar	-9136
▁czym	-9137
▁tienes	-9138
▁wilt	-9139
▁choc	-9140
ichen	-9141
▁restaurant	-9142
haal	-9143
▁competen	-9144
▁helst	-9145
▁cast	-9146
▁szczegól	-9147
edeut	-9148
▁règ	-9149
▁Fragen	-9150
▁jon	-9151
▁água	-9152
▁pross	-9153
▁utilis	-9154
▁kommentarer	-9155
▁stessa	-9156
oe	-9157
sprech	-9158
▁zon	-9159
▁extrem	-9160
▁sco	-9161
ficiente	-9162
huis	-9163
▁dale	-9164
▁først	-9165
▁sede	-9166
KT	-9167
▁mention	-9168
▁nummer	-9169
▁jogo	-9170
▁November	-9171
▁żad	-9172
wicklung	-9173
▁IP	-9174
zum	-9175
▁zrobić	-9176
ush	-9177
▁LE	-9178
urezza	-9179
▁Pom	-9180
▁Pop	-9181
▁języ	-9182
▁bla	-9183
▁women	-9184
▁siguientes	-9185
▁werde	-9186
▁Já	-9187
▁outra	-9188
▁rodza	-9189
ilen	-9190
▁säker	-9191
▁prijs	-9192
▁Ple	-9193
▁sund	-9194
▁familia	-9195
▁child	-9196
▁voll	-9197
ether	-9198
brug	-9199
▁grad	-9200
▁emb	-9201
▁Dansk	-9202
▁relations	-9203
▁become	-9204
▁okres	-9205
▁incluso	-9206
æss	-9207
▁months	-9208
▁divul	-9209
ństwo	-9210
▁Michael	-9211
will	-9212
▁sole	-9213
uję	-9214
▁Mc	-9215
▁Team	-9216
eningen	-9217
ław	-9218
ardi	-9219
▁począt	-9220
▁please	-9221
nehmer	-9222
▁compañ	-9223
▁gedaan	-9224
iben	-9225
▁kamer	-9226
▁preced	-9227
▁tred	-9228
▁gute	-9229
▁box	-9230
dzić	-9231
ública	-9232
▁mieć	-9233
▁comunque	-9234
▁uddann	-9235
rière	-9236
ysł	-9237
▁Russ	-9238
▁jestem	-9239
▁développ	-9240
▁recept	-9241
▁Sicher	-9242
czę	-9243
itación	-9244
▁Max	-9245
▁reserv	-9246
ural	-9247
bank	-9248
▁desem	-9249
care	-9250
▁Far	-9251
▁Bi	-9252
icano	-9253
▁hitta	-9254
▁eten	-9255
▁parler	-9256
▁läsa	-9257
nummer	-9258
schen	-9259
▁flex	-9260
▁polic	-9261
▁proper	-9262
▁EM	-9263
▁sembra	-9264
taget	-9265
▁stay	-9266
▁AC	-9267
leur	-9268
iction	-9269
▁têm	-9270
▁probably	-9271
,-	-9272
▁wissen	-9273
▁förb	-9274
hang	-9275
▁Då	-9276
▁während	-9277
▁sexual	-9278
▁realt	-9279
▁happy	-9280
ms	-9281
▁lijkt	-9282
▁aans	-9283
▁dobre	-9284
▁veget	-9285
▁perder	-9286
jonal	-9287
▁Cop	-9288
▁militar	-9289
▁fantastisk	-9290
▁desig	-9291
▁situación	-9292
▁Bor	-9293
▁sala	-9294
▁sele	-9295
rob	-9296
bles	-9297
▁emple	-9298
▁wod	-9299
cą	-9300
esehen	-9301
▁pensar	-9302
xico	-9303
jt	-9304
▁giorn	-9305
▁banc	-9306
▁educa	-9307
ceu	-9308
uz	-9309
▁offr	-9310
▁integra	-9311
▁derecho	-9312
▁allow	-9313
▁principalmente	-9314
puesto	-9315
hões	-9316
▁mini	-9317
▁completamente	-9318
▁hemma	-9319
▁llev	-9320
ford	-9321
▁equipo	-9322
▁jeu	-9323
▁warun	-9324
▁selon	-9325
ined	-9326
▁smak	-9327
▁sommer	-9328
▁inget	-9329
▁celu	-9330
▁adqu	-9331
▁Dann	-9332
▁kron	-9333
▁längre	-9334
▁veux	-9335
▁persön	-9336
erade	-9337
▁arbete	-9338
▁agen	-9339
▁allerede	-9340
▁Desde	-9341
ikat	-9342
▁experiencia	-9343
▁desarroll	-9344
taj	-9345
▁Oper	-9346
▁entrada	-9347
▁Alors	-9348
▁seguro	-9349
As	-9350
unal	-9351
praw	-9352
js	-9353
▁modific	-9354
▁práct	-9355
▁År	-9356
▁stronie	-9357
▁atmos	-9358
▁inför	-9359
▁nécessa	-9360
▁række	-9361
▁ideas	-9362
elas	-9363
▁IV	-9364
zeni	-9365
▁fand	-9366
atan	-9367
▁llegar	-9368
▁server	-9369
jed	-9370
må	-9371
▁sust	-9372
ppar	-9373
▁administra	-9374
dering	-9375
▁rius	-9376
cima	-9377
▁vuel	-9378
▁bred	-9379
▁morg	-9380
▁miglior	-9381
▁gaz	-9382
▁Bad	-9383
▁Wikip	-9384
▁Eg	-9385
wanie	-9386
▁geweest	-9387
▁million	-9388
▁ampl	-9389
▁plut	-9390
▁percent	-9391
▁Link	-9392
kowe	-9393
▁diversi	-9394
▁automatis	-9395
interno	-9396
inet	-9397
PP	-9398
▁dejtings	-9399
egt	-9400
▁Bal	-9401
▁glas	-9402
står	-9403
▁mesi	-9404
aime	-9405
▁SK	-9406
▁Meer	-9407
itez	-9408
▁uzy	-9409
▁famille	-9410
▁større	-9411
bym	-9412
atief	-9413
sias	-9414
▁finanzi	-9415
▁costru	-9416
▁incon	-9417
▁matter	-9418
▁consumo	-9419
▁Contin	-9420
▁sogar	-9421
▁wygląda	-9422
▁lær	-9423
'.	-9424
▁completo	-9425
zeker	-9426
▁Todos	-9427
▁distrib	-9428
▁qualcosa	-9429
kam	-9430
▁Kop	-9431
▁prezent	-9432
▁Rel	-9433
nąć	-9434
▁sollten	-9435
coli	-9436
▁dific	-9437
wers	-9438
▁volled	-9439
▁insieme	-9440
kening	-9441
▁licz	-9442
▁age	-9443
▁matér	-9444
oret	-9445
▁along	-9446
▁acompan	-9447
into	-9448
▁tenemos	-9449
pens	-9450
▁Zusammen	-9451
▁gott	-9452
▁share	-9453
▁Pap	-9454
▁subs	-9455
emt	-9456
▁reun	-9457
▁vatten	-9458
▁raison	-9459
▁Kat	-9460
▁asked	-9461
▁ofte	-9462
▁oko	-9463
▁zegt	-9464
empl	-9465
▁cię	-9466
▁cob	-9467
▁XX	-9468
▁okre	-9469
▁everyone	-9470
▁känner	-9471
nr	-9472
▁masz	-9473
gga	-9474
▁Hus	-9475
▁blivit	-9476
▁estoy	-9477
▁suk	-9478
▁detto	-9479
▁Liv	-9480
▁gamle	-9481
öte	-9482
terna	-9483
▁faktiskt	-9484
ih	-9485
avam	-9486
▁zdję	-9487
▁druk	-9488
▁mó	-9489
▁année	-9490
▁Anna	-9491
▁Durante	-9492
▁często	-9493
▁graf	-9494
▁papier	-9495
owiedz	-9496
uns	-9497
▁Herr	-9498
▁sarebbe	-9499
kamer	-9500
▁creo	-9501
▁hours	-9502
▁region	-9503
▁imposs	-9504
▁eigenen	-9505
▁sprzeda	-9506
▁videre	-9507
▁mode	-9508
estro	-9509
▁single	-9510
▁Rück	-9511
▁conto	-9512
ometer	-9513
▁relev	-9514
▁Trib	-9515
eth	-9516
▁findes	-9517
▁fjer	-9518
éra	-9519
igli	-9520
▁Esto	-9521
▁cot	-9522
▁cred	-9523
vait	-9524
▁länge	-9525
elden	-9526
iono	-9527
▁conocer	-9528
▁entrar	-9529
▁jakości	-9530
ieb	-9531
etro	-9532
▁empe	-9533
gangen	-9534
yp	-9535
▁café	-9536
▁retrou	-9537
▁oui	-9538
▁jord	-9539
Ad	-9540
▁erkl	-9541
▁Club	-9542
▁Sub	-9543
▁â	-9544
▁mut	-9545
▁Nor	-9546
▁eigenlijk	-9547
▁quick	-9548
siasi	-9549
▁hadden	-9550
▁Dus	-9551
ieli	-9552
▁fuera	-9553
▁After	-9554
tagon	-9555
▁każdy	-9556
▁werkt	-9557
▁research	-9558
▁moje	-9559
▁schö	-9560
marks	-9561
▁recib	-9562
ENS	-9563
▁breve	-9564
aber	-9565
lang	-9566
▁efekt	-9567
▁Wal	-9568
atorio	-9569
▁baby	-9570
▁dare	-9571
▁beiden	-9572
istenza	-9573
▁photo	-9574
▁Schw	-9575
▁requis	-9576
▁largo	-9577
▁större	-9578
▁blijft	-9579
▁aún	-9580
▁verste	-9581
▁warm	-9582
▁kwam	-9583
▁MA	-9584
▁famos	-9585
▁geweld	-9586
▁Comun	-9587
▁GR	-9588
▁progress	-9589
▁Mark	-9590
▁Ham	-9591
▁förstå	-9592
iosa	-9593
deling	-9594
ète	-9595
▁prevent	-9596
▁afs	-9597
▁Nap	-9598
▁atual	-9599
▁fina	-9600
▁client	-9601
edere	-9602
▁atención	-9603
▁Casa	-9604
års	-9605
lös	-9606
▁epis	-9607
▁civil	-9608
vand	-9609
critto	-9610
reto	-9611
▁busca	-9612
▁einz	-9613
izza	-9614
▁cool	-9615
▁given	-9616
ondere	-9617
hver	-9618
▁gevo	-9619
▁sommar	-9620
dress	-9621
dert	-9622
łow	-9623
▁senaste	-9624
▁öff	-9625
▁dotycz	-9626
kohol	-9627
rab	-9628
▁Us	-9629
▁Mijn	-9630
óry	-9631
ption	-9632
▁Dia	-9633
▁offre	-9634
auer	-9635
èmes	-9636
utsche	-9637
▁nossos	-9638
irt	-9639
immt	-9640
▁fag	-9641
▁struct	-9642
▁entra	-9643
ytt	-9644
▁recherche	-9645
yfik	-9646
oster	-9647
oder	-9648
▁Francis	-9649
nelle	-9650
▁keinen	-9651
It	-9652
▁rede	-9653
▁Schul	-9654
▁offent	-9655
▁fles	-9656
▁représ	-9657
▁informacji	-9658
omości	-9659
▁huvud	-9660
▁trovare	-9661
▁taget	-9662
▁næste	-9663
dzieć	-9664
▁dosta	-9665
▁hart	-9666
▁attention	-9667
▁leuke	-9668
▁najbardziej	-9669
industr	-9670
▁rat	-9671
▁message	-9672
▁chef	-9673
▁comes	-9674
▁données	-9675
▁vorm	-9676
▁wzglę	-9677
mers	-9678
umenti	-9679
▁Kn	-9680
▁inds	-9681
▁grave	-9682
imonio	-9683
ätten	-9684
▁troppo	-9685
▁gospodar	-9686
▁couple	-9687
oración	-9688
▁Ley	-9689
▁almeno	-9690
▁Dist	-9691
▁bring	-9692
▁Beispiel	-9693
▁langs	-9694
▁jorn	-9695
▁presenta	-9696
ówno	-9697
ORT	-9698
ietà	-9699
hot	-9700
▁charge	-9701
æder	-9702
▁Consult	-9703
▁Pen	-9704
▁atend	-9705
▁mede	-9706
▁mim	-9707
▁väg	-9708
▁utbild	-9709
▁lap	-9710
▁isn	-9711
igtige	-9712
▁stanie	-9713
▁voks	-9714
tach	-9715
▁arte	-9716
▁camera	-9717
▁świet	-9718
▁onderzoek	-9719
ijen	-9720
▁enige	-9721
▁community	-9722
▁relação	-9723
▁virkelig	-9724
nek	-9725
▁hub	-9726
▁divent	-9727
▁osoby	-9728
fly	-9729
▁extr	-9730
▁consent	-9731
▁aw	-9732
▁merci	-9733
▁Const	-9734
▁classe	-9735
▁godzin	-9736
▁mujeres	-9737
▁temp	-9738
▁Sund	-9739
▁unseren	-9740
stelling	-9741
erver	-9742
rapport	-9743
▁hurtigt	-9744
▁pagamento	-9745
▁kant	-9746
▁nenhum	-9747
▁Ingen	-9748
▁gegevens	-9749
rosoft	-9750
▁Där	-9751
pons	-9752
izer	-9753
▁ske	-9754
▁sper	-9755
▁letter	-9756
▁semaine	-9757
▁dingen	-9758
aching	-9759
▁action	-9760
▁localiz	-9761
atalog	-9762
▁Doc	-9763
rekt	-9764
▁moderne	-9765
▁QUE	-9766
▁flu	-9767
▁sikkert	-9768
▁verde	-9769
▁Lä	-9770
▁cuc	-9771
hnt	-9772
vende	-9773
▁estilo	-9774
▁sopra	-9775
▁wsz	-9776
▁længere	-9777
olesc	-9778
▁procha	-9779
▁adgang	-9780
▁pron	-9781
▁plaisir	-9782
▁vue	-9783
▁zaba	-9784
▁pert	-9785
▁started	-9786
▁training	-9787
▁piel	-9788
plik	-9789
▁ball	-9790
▁haven	-9791
▁luft	-9792
▁êtes	-9793
zyna	-9794
erat	-9795
▁immag	-9796
▁visar	-9797
▁expert	-9798
▁tekn	-9799
▁hittar	-9800
',	-9801
▁sale	-9802
▁Elekt	-9803
▁kannst	-9804
▁medida	-9805
▁Roz	-9806
▁seconda	-9807
▁clients	-9808
iful	-9809
▁disfr	-9810
nst	-9811
▁côté	-9812
▁czerw	-9813
▁Hal	-9814
▁fug	-9815
usement	-9816
▁abb	-9817
▁cub	-9818
cześniej	-9819
non	-9820
ieder	-9821
achen	-9822
▁host	-9823
▁antal	-9824
inie	-9825
▁zgod	-9826
tering	-9827
▁sott	-9828
▁AV	-9829
geh	-9830
▁naam	-9831
rir	-9832
áf	-9833
▁arqu	-9834
ipul	-9835
▁informations	-9836
▁kobiet	-9837
yss	-9838
▁fæll	-9839
▁respe	-9840
▁realtà	-9841
▁wanted	-9842
AV	-9843
szego	-9844
???	-9845
▁erste	-9846
szym	-9847
irement	-9848
▁viser	-9849
ligare	-9850
▁Fors	-9851
▁Martin	-9852
fac	-9853
ñas	-9854
konto	-9855
▁Autor	-9856
▁którego	-9857
warz	-9858
▁qualsiasi	-9859
▁bás	-9860
▁tł	-9861
▁conqu	-9862
huset	-9863
▁provoc	-9864
▁dużo	-9865
licht	-9866
vision	-9867
opol	-9868
▁grandi	-9869
▁styl	-9870
▁delen	-9871
▁Doch	-9872
▁henne	-9873
▁czego	-9874
▁wybor	-9875
▁hendes	-9876
nieuw	-9877
▁taken	-9878
viamente	-9879
▁energia	-9880
ële	-9881
śred	-9882
ünst	-9883
▁interior	-9884
▁algunas	-9885
iteter	-9886
même	-9887
▁mesma	-9888
cem	-9889
▁These	-9890
▁bedo	-9891
▁znale	-9892
▁contar	-9893
▁przeciw	-9894
▁passa	-9895
iemy	-9896
▁studi	-9897
▁möj	-9898
▁società	-9899
jesz	-9900
▁nota	-9901
▁bekend	-9902
▁bekommen	-9903
▁diferente	-9904
estos	-9905
▁compra	-9906
▁kunder	-9907
▁weitere	-9908
ogn	-9909
bur	-9910
▁hombre	-9911
▁necesario	-9912
▁zost	-9913
▁madre	-9914
▁rå	-9915
zung	-9916
asto	-9917
anim	-9918
▁psic	-9919
▁express	-9920
fest	-9921
▁uczest	-9922
▁Dzięki	-9923
altra	-9924
▁hatten	-9925
zul	-9926
face	-9927
inhos	-9928
wijl	-9929
fle	-9930
▁godk	-9931
▁aumento	-9932
site	-9933
▁mamy	-9934
▁feliz	-9935
▁razem	-9936
▁ep	-9937
arie	-9938
▁região	-9939
▁correct	-9940
▁deutsch	-9941
vient	-9942
nten	-9943
▁börjar	-9944
▁TR	-9945
spel	-9946
▁perce	-9947
▁sprzę	-9948
▁Erfahr	-9949
side	-9950
▁certe	-9951
lub	-9952
▁pec	-9953
▁utilizar	-9954
▁distint	-9955
▁rör	-9956
niku	-9957
▁dow	-9958
▁Après	-9959
atives	-9960
▁tap	-9961
▁Israel	-9962
▁carte	-9963
▁vant	-9964
▁grupp	-9965
▁naturale	-9966
▁tratta	-9967
▁volont	-9968
urity	-9969
▁holde	-9970
omat	-9971
door	-9972
heure	-9973
▁Ris	-9974
gör	-9975
ciar	-9976
▁bijna	-9977
▁interven	-9978
osof	-9979
▁Public	-9980
▁vengono	-9981
▁quart	-9982
▁específ	-9983
▁destac	-9984
▁potrebbe	-9985
▁recl	-9986
feld	-9987
▁cuerpo	-9988
▁système	-9989
ogl	-9990
▁male	-9991
▁usando	-9992
▁Lou	-9993
▁minimum	-9994
▁nehmen	-9995
▁Afr	-9996
▁seems	-9997
▁trochę	-9998
▁ziet	-9999
▁senso	-10000
idd	-10001
▁Comment	-10002
▁natura	-10003
▁cittad	-10004
▁existen	-10005
▁Repub	-10006
zać	-10007
istiche	-10008
▁alter	-10009
odów	-10010
radas	-10011
cription	-10012
▁ricord	-10013
▁pół	-10014
▁etwa	-10015
▁called	-10016
ivt	-10017
▁Nun	-10018
▁tj	-10019
▁quad	-10020
▁Alg	-10021
▁volgens	-10022
▁groß	-10023
▁org	-10024
ramos	-10025
owel	-10026
▁áreas	-10027
▁Situ	-10028
▁minst	-10029
farande	-10030
user	-10031
▁plutôt	-10032
▁rok	-10033
▁deal	-10034
▁eux	-10035
▁voldo	-10036
▁vois	-10037
▁houd	-10038
▁Wszyst	-10039
på	-10040
uo	-10041
▁transfer	-10042
▁complic	-10043
▁gelo	-10044
▁meinem	-10045
agit	-10046
▁menu	-10047
unge	-10048
▁Mai	-10049
▁pisc	-10050
▁santé	-10051
▁Ces	-10052
▁vitam	-10053
ificação	-10054
▁yourself	-10055
▁Kre	-10056
assa	-10057
fordr	-10058
ilh	-10059
▁answer	-10060
▁heures	-10061
▁Ord	-10062
itch	-10063
▁ści	-10064
▁ow	-10065
edsię	-10066
Qué	-10067
▁rais	-10068
▁perchè	-10069
IZ	-10070
▁completa	-10071
▁mener	-10072
▁independ	-10073
üs	-10074
▁misschien	-10075
nent	-10076
▁coc	-10077
▁melhores	-10078
▁ocup	-10079
▁Black	-10080
▁haya	-10081
▁gros	-10082
▁urządz	-10083
cert	-10084
łoś	-10085
▁såd	-10086
▁wers	-10087
▁dez	-10088
▁fuori	-10089
▁enorme	-10090
▁répon	-10091
niu	-10092
▁Prin	-10093
▁duidelijk	-10094
▁økonom	-10095
▁ännu	-10096
▁totalmente	-10097
emu	-10098
uda	-10099
▁anál	-10100
▁pública	-10101
▁mental	-10102
ems	-10103
▁Denn	-10104
▁reading	-10105
▁Stor	-10106
ivent	-10107
pom	-10108
▁anbe	-10109
▁luego	-10110
nić	-10111
▁diret	-10112
▁nice	-10113
▁Presidente	-10114
▁Rechts	-10115
▁gé	-10116
▁bac	-10117
ikken	-10118
▁filme	-10119
▁heart	-10120
▁ludzi	-10121
▁ihnen	-10122
▁desp	-10123
▁medidas	-10124
▁bist	-10125
▁Fel	-10126
tro	-10127
ris	-10128
▁Bur	-10129
▁condiciones	-10130
▁dipl	-10131
fit	-10132
▁ład	-10133
▁echter	-10134
▁mare	-10135
▁Hotels	-10136
▁Civ	-10137
jl	-10138
valg	-10139
▁carta	-10140
▁altså	-10141
yment	-10142
▁observ	-10143
▁FÖR	-10144
▁moyen	-10145
▁leider	-10146
▁Lars	-10147
▁bos	-10148
▁thuis	-10149
enze	-10150
▁termine	-10151
▁dieta	-10152
▁konstru	-10153
▁stø	-10154
▁aseg	-10155
▁Patr	-10156
unos	-10157
▁Center	-10158
▁pubblico	-10159
▁Hist	-10160
lies	-10161
ysteem	-10162
▁cade	-10163
▁woj	-10164
année	-10165
▁doel	-10166
▁looks	-10167
▁liste	-10168
▁apresenta	-10169
▁decy	-10170
▁uda	-10171
▁José	-10172
▁AF	-10173
temps	-10174
nement	-10175
íamos	-10176
aster	-10177
▁serwis	-10178
▁genre	-10179
▁genoeg	-10180
dek	-10181
ktioner	-10182
▁ön	-10183
mniej	-10184
▁rappresent	-10185
▁Tage	-10186
fig	-10187
▁mg	-10188
▁Gran	-10189
obby	-10190
▁siano	-10191
roeg	-10192
▁algún	-10193
koop	-10194
▁Beit	-10195
▁época	-10196
▁efect	-10197
▁Polit	-10198
▁aż	-10199
▁träff	-10200
▁föl	-10201
▁Fot	-10202
▁immed	-10203
omb	-10204
iels	-10205
istica	-10206
▁habil	-10207
▁mænd	-10208
ám	-10209
▁^^	-10210
nikiem	-10211
▁taking	-10212
▁España	-10213
▁handlar	-10214
▁família	-10215
▁adopt	-10216
zić	-10217
▁rende	-10218
nahmen	-10219
▁Nej	-10220
You	-10221
ez	-10222
▁särsk	-10223
▁preciso	-10224
▁coin	-10225
▁Bien	-10226
▁crois	-10227
▁experiment	-10228
▁identific	-10229
▁Oui	-10230
▁læse	-10231
▁Wasser	-10232
▁ekstra	-10233
▁lokale	-10234
ify	-10235
lers	-10236
df	-10237
▁convert	-10238
▁oud	-10239
leden	-10240
▁iPhone	-10241
▁nästan	-10242
▁vict	-10243
flicht	-10244
vista	-10245
▁liqu	-10246
▁możliwość	-10247
▁students	-10248
Det	-10249
▁low	-10250
▁aura	-10251
itable	-10252
▁bajo	-10253
▁stedet	-10254
werking	-10255
▁konkurs	-10256
skaz	-10257
icha	-10258
▁isol	-10259
geg	-10260
▁rikt	-10261
▁sir	-10262
▁charakter	-10263
geben	-10264
▁seulement	-10265
▁palav	-10266
▁Nic	-10267
▁Norm	-10268
▁neu	-10269
▁serão	-10270
▁Mom	-10271
▁mix	-10272
▁soon	-10273
stwa	-10274
play	-10275
▁forse	-10276
ientos	-10277
▁terre	-10278
hã	-10279
▁deg	-10280
▁valut	-10281
▁pud	-10282
organisation	-10283
▁Kur	-10284
▁journée	-10285
zonder	-10286
▁However	-10287
bord	-10288
▁ganska	-10289
frast	-10290
▁corpor	-10291
cę	-10292
arán	-10293
▁Uit	-10294
▁eas	-10295
▁passé	-10296
arning	-10297
▁Personen	-10298
▁crianças	-10299
DA	-10300
▁self	-10301
▁niej	-10302
▁femme	-10303
atures	-10304
▁sup	-10305
▁hip	-10306
▁niego	-10307
kanie	-10308
▁virt	-10309
▁OG	-10310
▁gebe	-10311
atif	-10312
▁mostra	-10313
▁diversos	-10314
▁PL	-10315
itarbe	-10316
chodzi	-10317
▁ace	-10318
▁Dag	-10319
ouvern	-10320
▁focus	-10321
ctie	-10322
▁Ell	-10323
▁ingredi	-10324
▁dür	-10325
ietet	-10326
▁cena	-10327
▁betro	-10328
haupt	-10329
▁obowią	-10330
▁obie	-10331
▁Berg	-10332
▁attend	-10333
▁BR	-10334
▁gift	-10335
CO	-10336
▁béné	-10337
iday	-10338
▁scre	-10339
▁diversas	-10340
ierzch	-10341
▁omgeving	-10342
▁Frauen	-10343
ließlich	-10344
▁Dé	-10345
zio	-10346
▁sicurezza	-10347
▁parc	-10348
▁Thomas	-10349
▁formation	-10350
ILL	-10351
tiden	-10352
yku	-10353
▁sidan	-10354
nią	-10355
▁tilbud	-10356
▁porno	-10357
igne	-10358
▁helpen	-10359
▁trots	-10360
▁faktisk	-10361
▁mask	-10362
▁hospital	-10363
unku	-10364
orf	-10365
▁Eller	-10366
▁jeune	-10367
▁padre	-10368
▁news	-10369
▁lång	-10370
tryk	-10371
▁dram	-10372
▁Kal	-10373
apia	-10374
▁Comme	-10375
▁hoch	-10376
▁stark	-10377
▁gave	-10378
▁government	-10379
▁similar	-10380
dracht	-10381
▁alcune	-10382
▁bericht	-10383
▁Ort	-10384
▁svårt	-10385
▁Microsoft	-10386
▁ost	-10387
▁Musik	-10388
▁możliwości	-10389
▁gestion	-10390
▁dank	-10391
▁entender	-10392
âce	-10393
▁ES	-10394
▁several	-10395
▁dlatego	-10396
▁equipe	-10397
▁pick	-10398
gabe	-10399
film	-10400
▁Hall	-10401
ener	-10402
▁wes	-10403
▁huid	-10404
▁bio	-10405
▁geleden	-10406
▁Nederlandse	-10407
eniem	-10408
▁effettu	-10409
iglio	-10410
▁plein	-10411
▁circul	-10412
▁Portugal	-10413
CA	-10414
▁costitu	-10415
kać	-10416
▁blod	-10417
▁grond	-10418
więks	-10419
▁manière	-10420
▁dimin	-10421
mot	-10422
blick	-10423
▁Fred	-10424
pal	-10425
▁waarin	-10426
ova	-10427
▁Ihrer	-10428
▁Fal	-10429
▁ople	-10430
anna	-10431
▁Cast	-10432
▁Industr	-10433
yczny	-10434
▁samman	-10435
▁därför	-10436
öv	-10437
▁anyone	-10438
omet	-10439
▁Hay	-10440
▁Wiel	-10441
▁única	-10442
ilos	-10443
ucha	-10444
▁große	-10445
▁performance	-10446
▁ute	-10447
zieh	-10448
▁ayuda	-10449
unicíp	-10450
▁continua	-10451
▁yeux	-10452
omst	-10453
▁dizer	-10454
otter	-10455
▁contrat	-10456
handel	-10457
▁pack	-10458
▁indlæg	-10459
zos	-10460
itarbeiter	-10461
▁Aqu	-10462
▁poter	-10463
śród	-10464
inden	-10465
▁protagon	-10466
▁parten	-10467
▁mär	-10468
▁solution	-10469
▁przysz	-10470
issent	-10471
▁Ao	-10472
▁pozwala	-10473
étr	-10474
▁envie	-10475
▁społecz	-10476
▁Sind	-10477
▁Arch	-10478
▁Anche	-10479
▁duur	-10480
wem	-10481
isión	-10482
▁salt	-10483
gelopen	-10484
▁seinem	-10485
agra	-10486
▁groupe	-10487
▁pict	-10488
▁findet	-10489
udio	-10490
▁ene	-10491
▁arrang	-10492
▁force	-10493
▁kræ	-10494
▁dzień	-10495
tant	-10496
▁noite	-10497
öteborg	-10498
lagt	-10499
iore	-10500
▁Mel	-10501
▁enorm	-10502
▁ml	-10503
▁Familie	-10504
▁Dienst	-10505
ared	-10506
wen	-10507
edet	-10508
▁atten	-10509
▁lavet	-10510
▁materiał	-10511
ized	-10512
▁notamment	-10513
wiam	-10514
▁fez	-10515
▁AG	-10516
nict	-10517
▁podstaw	-10518
▁Invest	-10519
delig	-10520
▁err	-10521
mær	-10522
▁borde	-10523
édia	-10524
▁turn	-10525
itan	-10526
nich	-10527
vida	-10528
gift	-10529
ilia	-10530
▁tutaj	-10531
▁frag	-10532
▁deben	-10533
▁mercato	-10534
uppo	-10535
▁afh	-10536
▁level	-10537
▁heure	-10538
▁resist	-10539
iviteter	-10540
▁håller	-10541
wnę	-10542
▁internationale	-10543
▁loin	-10544
ecten	-10545
gån	-10546
irs	-10547
▁partes	-10548
ística	-10549
▁Forum	-10550
▁plads	-10551
▁fabric	-10552
▁cav	-10553
▁vite	-10554
▁Kol	-10555
▁vinter	-10556
zeniu	-10557
aną	-10558
icken	-10559
iede	-10560
▁Schwe	-10561
▁miljö	-10562
▁Jer	-10563
▁esqu	-10564
▁dá	-10565
▁crimin	-10566
ESS	-10567
▁impact	-10568
▁energie	-10569
mor	-10570
▁mí	-10571
▁Karl	-10572
▁około	-10573
ulier	-10574
▁Niet	-10575
dire	-10576
▁Loc	-10577
lighed	-10578
▁aquell	-10579
ariamente	-10580
▁weinig	-10581
▁gusta	-10582
▁abril	-10583
▁espr	-10584
▁essay	-10585
▁vul	-10586
fors	-10587
▁aand	-10588
range	-10589
▁mogen	-10590
▁wahr	-10591
żli	-10592
▁søn	-10593
▁formas	-10594
▁saranno	-10595
øren	-10596
▁Techn	-10597
▁diritto	-10598
▁paso	-10599
kania	-10600
ämp	-10601
▁espaço	-10602
▁cadre	-10603
▁bott	-10604
▁dinero	-10605
lop	-10606
ellent	-10607
▁effektiv	-10608
▁descon	-10609
▁quier	-10610
▁alltså	-10611
▁aprender	-10612
praszamy	-10613
▁współpra	-10614
▁derechos	-10615
▁decl	-10616
ize	-10617
weis	-10618
▁semble	-10619
▁perg	-10620
iencia	-10621
▁pelas	-10622
▁großen	-10623
▁zde	-10624
▁Bau	-10625
▁voi	-10626
“.	-10627
öcker	-10628
▁kär	-10629
▁beide	-10630
▁fid	-10631
▁ó	-10632
▁Leist	-10633
▁example	-10634
esper	-10635
vem	-10636
▁leder	-10637
▁serviço	-10638
idan	-10639
kant	-10640
rowser	-10641
arti	-10642
▁typu	-10643
▁Rich	-10644
issima	-10645
▁valores	-10646
owała	-10647
mere	-10648
▁span	-10649
▁coming	-10650
▁quase	-10651
éch	-10652
▁fora	-10653
▁podría	-10654
▁atu	-10655
\\	-10656
▁lezen	-10657
▁clos	-10658
▁känns	-10659
▁fondo	-10660
lossen	-10661
▁seront	-10662
▁También	-10663
▁Así	-10664
▁Dzie	-10665
▁młod	-10666
▁passo	-10667
▁(...)	-10668
orial	-10669
▁bouw	-10670
▁precio	-10671
▁swe	-10672
▁hjælpe	-10673
▁ór	-10674
ábado	-10675
▁musi	-10676
▁city	-10677
uri	-10678
ources	-10679
utes	-10680
enste	-10681
cionar	-10682
activ	-10683
nemers	-10684
▁Ya	-10685
▁devant	-10686
▁obras	-10687
rz	-10688
lación	-10689
▁Design	-10690
▁vocês	-10691
▁participar	-10692
entie	-10693
iteten	-10694
▁Io	-10695
▁stod	-10696
▁Grand	-10697
▁soort	-10698
▁Hej	-10699
▁Dios	-10700
▁naszych	-10701
▁kok	-10702
ząt	-10703
▁aanv	-10704
bouw	-10705
▁przet	-10706
▁vários	-10707
▁mobile	-10708
▁elles	-10709
▁param	-10710
▁especialmente	-10711
interes	-10712
▁Mos	-10713
ured	-10714
▁milit	-10715
▁Nar	-10716
▁quais	-10717
▁guide	-10718
▁ungdom	-10719
▁gelegen	-10720
füll	-10721
▁dado	-10722
chs	-10723
lacz	-10724
▁segurança	-10725
werken	-10726
kich	-10727
▁nächsten	-10728
▁view	-10729
▁wegen	-10730
▁Derfor	-10731
▁Cook	-10732
▁momentos	-10733
▁feito	-10734
▁właści	-10735
▁nab	-10736
▁erano	-10737
▁CH	-10738
▁ll	-10739
▁Jug	-10740
▁Sus	-10741
▁Information	-10742
▁almost	-10743
▁Our	-10744
▁whether	-10745
pecial	-10746
itung	-10747
▁necessario	-10748
▁skøn	-10749
▁sécurité	-10750
pun	-10751
ague	-10752
▁Lees	-10753
mentos	-10754
▁besten	-10755
▁Geschichte	-10756
ziek	-10757
▁tys	-10758
▁biolog	-10759
▁More	-10760
rieb	-10761
▁mejores	-10762
▁Android	-10763
▁förslag	-10764
▁tweede	-10765
alizar	-10766
verd	-10767
▁muzy	-10768
▁następ	-10769
ifte	-10770
▁search	-10771
óch	-10772
▁incor	-10773
TR	-10774
PL	-10775
▁QU	-10776
▁writing	-10777
▁repar	-10778
▁Hor	-10779
▁Nad	-10780
▁visa	-10781
▁towar	-10782
▁pain	-10783
▁words	-10784
▁Region	-10785
▁venir	-10786
▁custom	-10787
▁ignor	-10788
aines	-10789
▁Recht	-10790
▁valt	-10791
▁problemi	-10792
▁człowie	-10793
▁économ	-10794
intes	-10795
▁doda	-10796
▁obrig	-10797
▁sieci	-10798
iett	-10799
▁gla	-10800
wczy	-10801
▁confront	-10802
▁krä	-10803
▁seule	-10804
▁cient	-10805
outh	-10806
▁namn	-10807
▁Ré	-10808
▁numa	-10809
▁talk	-10810
▁españ	-10811
▁naprawdę	-10812
▁Tab	-10813
▁ponieważ	-10814
▁ök	-10815
▁remember	-10816
ødt	-10817
▁trait	-10818
▁pais	-10819
utlich	-10820
önster	-10821
▁sieht	-10822
teren	-10823
▁giud	-10824
cal	-10825
cco	-10826
▁crist	-10827
▁elet	-10828
▁ril	-10829
▁swoją	-10830
▁område	-10831
affen	-10832
▁blot	-10833
▁semplice	-10834
▁mart	-10835
▁stag	-10836
▁préc	-10837
▁across	-10838
▁telef	-10839
▁zarówno	-10840
▁hå	-10841
▁slä	-10842
▁escrib	-10843
obile	-10844
▁opis	-10845
▁demás	-10846
zus	-10847
▁ramach	-10848
▁roman	-10849
▁Sand	-10850
itaire	-10851
▁unas	-10852
▁jeste	-10853
▁kred	-10854
ain	-10855
rebbero	-10856
▁næsten	-10857
▁produz	-10858
▁Rem	-10859
▁totale	-10860
▁Gud	-10861
▁file	-10862
▁öpp	-10863
▁cabo	-10864
▁Sci	-10865
▁liber	-10866
führt	-10867
regel	-10868
▁jap	-10869
culos	-10870
rån	-10871
ilà	-10872
▁alimenta	-10873
▁Regel	-10874
▁Jour	-10875
▁dokład	-10876
▁Instagram	-10877
▁wand	-10878
stånd	-10879
▁funzion	-10880
▁declar	-10881
ãe	-10882
ersi	-10883
▁Kam	-10884
udes	-10885
markt	-10886
▁pokaz	-10887
▁vakantie	-10888
▁mening	-10889
▁nies	-10890
ÇÃO	-10891
mag	-10892
éli	-10893
fas	-10894
▁Tar	-10895
▁darf	-10896
chia	-10897
▁Fast	-10898
▁Tack	-10899
▁regn	-10900
▁Kosten	-10901
▁Cie	-10902
▁Jon	-10903
▁decor	-10904
▁pourrait	-10905
▁rechts	-10906
▁issues	-10907
onia	-10908
▁póź	-10909
▁letto	-10910
▁uff	-10911
▁gym	-10912
spol	-10913
▁nak	-10914
▁Geschäft	-10915
▁controle	-10916
bau	-10917
▁vilken	-10918
▁priser	-10919
▁settore	-10920
▁Rah	-10921
▁concentr	-10922
▁members	-10923
▁Angel	-10924
istan	-10925
▁världen	-10926
bla	-10927
▁realidad	-10928
kast	-10929
▁allerdings	-10930
▁proven	-10931
▁gruppo	-10932
▁gamla	-10933
▁yder	-10934
full	-10935
▁fortfarande	-10936
erede	-10937
▁Bay	-10938
▁bied	-10939
ifts	-10940
▁actividad	-10941
▁Pat	-10942
egno	-10943
▁miejscu	-10944
▁blok	-10945
▁lire	-10946
leb	-10947
voud	-10948
▁subito	-10949
cado	-10950
▁besonders	-10951
▁gemeins	-10952
▁break	-10953
▁Telefon	-10954
▁mission	-10955
▁hvert	-10956
ecte	-10957
▁law	-10958
▁stock	-10959
▁poko	-10960
▁kill	-10961
▁famiglia	-10962
▁either	-10963
▁Verfüg	-10964
zyw	-10965
▁zug	-10966
▁above	-10967
esar	-10968
▁digitale	-10969
▁insurance	-10970
áticas	-10971
DS	-10972
▁Ric	-10973
▁alguma	-10974
▁Möglichkeit	-10975
▁bisogno	-10976
wand	-10977
▁ź	-10978
▁moral	-10979
▁Sob	-10980
▁jard	-10981
tat	-10982
arme	-10983
▁produto	-10984
▁ocas	-10985
QU	-10986
▁accom	-10987
atyw	-10988
cri	-10989
▁pregunt	-10990
rak	-10991
fern	-10992
▁alimentos	-10993
▁wyd	-10994
▁Kör	-10995
▁défin	-10996
▁respecto	-10997
erad	-10998
▁pred	-10999
▁fed	-11000
▁vele	-11001
▁AS	-11002
▁szybko	-11003
▁marav	-11004
▁włos	-11005
▁klin	-11006
▁zasil	-11007
Me	-11008
▁Lis	-11009
▁Buen	-11010
▁köpa	-11011
▁maanden	-11012
▁fald	-11013
▁sista	-11014
ił	-11015
▁temperatura	-11016
▁myself	-11017
▁High	-11018
▁wcześniej	-11019
▁aften	-11020
▁corps	-11021
ykle	-11022
▁kids	-11023
▁international	-11024
▁;-)	-11025
▁bitte	-11026
▁darüber	-11027
▁Some	-11028
wyż	-11029
▁emer	-11030
affe	-11031
▁mær	-11032
▁lungo	-11033
▁producten	-11034
▁buy	-11035
▁aband	-11036
hält	-11037
icato	-11038
▁aer	-11039
▁près	-11040
▁gek	-11041
▁Dok	-11042
heb	-11043
▁wollte	-11044
ícios	-11045
▁sûr	-11046
▁précis	-11047
▁visite	-11048
issant	-11049
▁chat	-11050
mittel	-11051
▁Mitarbeiter	-11052
▁evalu	-11053
▁wspól	-11054
osos	-11055
cito	-11056
▁resulta	-11057
uvre	-11058
▁cura	-11059
▁wtedy	-11060
▁Bü	-11061
OK	-11062
▁deine	-11063
▁menor	-11064
▁lider	-11065
äten	-11066
▁route	-11067
▁konkret	-11068
▁działal	-11069
ieter	-11070
▁vissa	-11071
Il	-11072
▁aucun	-11073
▁société	-11074
▁riconos	-11075
Euro	-11076
óst	-11077
▁muita	-11078
▁rock	-11079
▁bod	-11080
▁bat	-11081
▁expres	-11082
▁reag	-11083
▁Tid	-11084
▁rather	-11085
occas	-11086
▁Open	-11087
▁belangrij	-11088
▁direito	-11089
▁vilka	-11090
▁enfr	-11091
▁Span	-11092
ories	-11093
▁Daniel	-11094
▁mayoría	-11095
▁Aan	-11096
▁tipos	-11097
▁mik	-11098
▁spl	-11099
rakt	-11100
veer	-11101
▁zesta	-11102
erai	-11103
▁membres	-11104
yens	-11105
▁humor	-11106
apie	-11107
▁fij	-11108
▁vitt	-11109
▁documento	-11110
▁challen	-11111
▁ihop	-11112
▁invester	-11113
▁nerv	-11114
▁Få	-11115
▁leva	-11116
▁Marc	-11117
▁rynku	-11118
▁markn	-11119
▁falar	-11120
gehen	-11121
estens	-11122
▁vanuit	-11123
▁psyk	-11124
▁wymaga	-11125
éro	-11126
▁tare	-11127
▁Mari	-11128
▁Business	-11129
imientos	-11130
▁nationale	-11131
▁verhaal	-11132
▁zetten	-11133
▁szkol	-11134
▁wspom	-11135
▁piace	-11136
▁grupos	-11137
▁party	-11138
▁former	-11139
▁pracow	-11140
▁pure	-11141
▁true	-11142
▁Janeiro	-11143
▁Dal	-11144
▁create	-11145
......	-11146
OB	-11147
▁fantas	-11148
won	-11149
▁cze	-11150
▁Ret	-11151
▁vare	-11152
▁naz	-11153
▁status	-11154
▁groep	-11155
né	-11156
hof	-11157
▁deixar	-11158
iddel	-11159
▁zone	-11160
▁Daarna	-11161
gresso	-11162
icana	-11163
arl	-11164
ritt	-11165
▁masse	-11166
▁imper	-11167
▁categoria	-11168
▁principio	-11169
▁claim	-11170
▁Idag	-11171
tz	-11172
zez	-11173
inf	-11174
▁swoich	-11175
▁unserem	-11176
▁kør	-11177
▁basta	-11178
▁hä	-11179
▁ON	-11180
▁nästa	-11181
▁anges	-11182
▁sitio	-11183
▁komputer	-11184
▁okol	-11185
▁sagde	-11186
lection	-11187
▁Mir	-11188
▁bibliote	-11189
▁lata	-11190
Te	-11191
▁doskon	-11192
▁scelta	-11193
▁mamma	-11194
▁Municipal	-11195
▁gezien	-11196
ürger	-11197
▁såg	-11198
▁alguien	-11199
▁Klik	-11200
▁homem	-11201
▁Cel	-11202
ída	-11203
▁elementos	-11204
▁positive	-11205
▁mês	-11206
▁sprawie	-11207
▁różnych	-11208
▁hear	-11209
prend	-11210
▁przepis	-11211
▁pér	-11212
ubro	-11213
▁egent	-11214
▁andare	-11215
▁tablet	-11216
▁Ihren	-11217
PA	-11218
inação	-11219
▁zastos	-11220
▁Chi	-11221
▁dwóch	-11222
ivement	-11223
▁perspect	-11224
▁rozpoc	-11225
orgt	-11226
iously	-11227
▁confi	-11228
▁dú	-11229
▁Preis	-11230
▁metal	-11231
▁eyes	-11232
▁direkte	-11233
▁tenha	-11234
▁campa	-11235
asting	-11236
åller	-11237
▁fondament	-11238
▁virksomheder	-11239
▁tyd	-11240
▁dein	-11241
▁Län	-11242
▁parf	-11243
▁uts	-11244
voll	-11245
aje	-11246
▁flytt	-11247
▁licht	-11248
▁væk	-11249
▁staff	-11250
schapp	-11251
▁ejerc	-11252
▁kig	-11253
▁Glob	-11254
deel	-11255
kiej	-11256
śla	-11257
▁kilku	-11258
Mail	-11259
▁lager	-11260
ops	-11261
izada	-11262
▁criter	-11263
mai	-11264
▁tenía	-11265
aufen	-11266
▁sold	-11267
▁Entscheid	-11268
äster	-11269
▁Juli	-11270
▁máximo	-11271
ified	-11272
cam	-11273
▁wprowad	-11274
▁Vår	-11275
▁invent	-11276
iften	-11277
▁particuli	-11278
▁felt	-11279
▁bloc	-11280
▁vecka	-11281
▁flo	-11282
▁pronto	-11283
aise	-11284
▁abaixo	-11285
ulte	-11286
▁enquanto	-11287
▁größ	-11288
▁hinter	-11289
ierra	-11290
▁Mé	-11291
▁Cela	-11292
▁multi	-11293
▁legisl	-11294
▁issue	-11295
▁reklam	-11296
▁desse	-11297
▁Lei	-11298
▁vandaag	-11299
rich	-11300
▁trabalh	-11301
èle	-11302
▁prueb	-11303
▁bruges	-11304
hib	-11305
niejsze	-11306
▁Vel	-11307
▁festa	-11308
ICA	-11309
itekt	-11310
ding	-11311
heits	-11312
illas	-11313
▁kennis	-11314
▁samtidigt	-11315
▁Sådan	-11316
▁vælge	-11317
▁området	-11318
acun	-11319
▁politique	-11320
▁politik	-11321
▁Christian	-11322
▁obsług	-11323
▁veut	-11324
▁Vej	-11325
arbete	-11326
▁desenvolvimento	-11327
idado	-11328
▁powsta	-11329
▁læg	-11330
▁kie	-11331
▁Onder	-11332
▁características	-11333
▁sad	-11334
▁innehåll	-11335
Th	-11336
▁Bør	-11337
Fi	-11338
▁Educa	-11339
▁receber	-11340
▁OK	-11341
owiada	-11342
▁fueron	-11343
uve	-11344
équ	-11345
▁puedo	-11346
duk	-11347
wnętrz	-11348
▁zus	-11349
▁usted	-11350
▁United	-11351
itado	-11352
▁médico	-11353
▁inwest	-11354
▁essen	-11355
die	-11356
▁leave	-11357
▁kans	-11358
▁miasta	-11359
▁Hav	-11360
%,	-11361
▁Augen	-11362
▁senare	-11363
▁dags	-11364
allet	-11365
▁Rod	-11366
▁osp	-11367
Or	-11368
▁Kunst	-11369
▁mei	-11370
▁Prozent	-11371
▁Mehr	-11372
He	-11373
▁kring	-11374
aterdag	-11375
▁familiar	-11376
▁bater	-11377
▁nødvend	-11378
▁Down	-11379
bros	-11380
▁bestäm	-11381
▁forward	-11382
▁zorgen	-11383
▁possui	-11384
▁cały	-11385
▁blå	-11386
▁leve	-11387
plaats	-11388
▁aj	-11389
▁nieuws	-11390
fully	-11391
genommen	-11392
geren	-11393
▁centre	-11394
▁teve	-11395
odzie	-11396
emd	-11397
ismus	-11398
schap	-11399
▁periode	-11400
onna	-11401
kem	-11402
▁przykład	-11403
kiego	-11404
jord	-11405
ące	-11406
fatter	-11407
▁fundamental	-11408
▁sli	-11409
▁ajudar	-11410
?)	-11411
▁komple	-11412
▁anunci	-11413
▁uge	-11414
▁weniger	-11415
▁elabor	-11416
▁q	-11417
byg	-11418
dio	-11419
pose	-11420
▁tradu	-11421
över	-11422
▁kaart	-11423
▁skyld	-11424
▁relation	-11425
nader	-11426
▁bloggen	-11427
▁privil	-11428
▁comenz	-11429
▁champ	-11430
▁początku	-11431
▁rester	-11432
▁atividades	-11433
icks	-11434
▁London	-11435
▁exig	-11436
Ital	-11437
▁weken	-11438
▁schwer	-11439
▁Gratis	-11440
ollen	-11441
▁Woche	-11442
ulaire	-11443
OV	-11444
▁compag	-11445
ifique	-11446
▁pierws	-11447
▁agrade	-11448
źć	-11449
TT	-11450
vare	-11451
▁American	-11452
aars	-11453
▁VI	-11454
▁Cru	-11455
▁hennes	-11456
▁jedy	-11457
▁conforme	-11458
▁Alles	-11459
▁probleem	-11460
▁Video	-11461
otta	-11462
▁Selbst	-11463
värr	-11464
▁Logga	-11465
▁tér	-11466
▁Amazon	-11467
lade	-11468
▁End	-11469
vig	-11470
etu	-11471
reef	-11472
▁tygod	-11473
▁Mol	-11474
▁franc	-11475
mare	-11476
▁gry	-11477
polit	-11478
▁management	-11479
▁complete	-11480
▁Febru	-11481
følgelig	-11482
itario	-11483
antwoord	-11484
▁Verg	-11485
alis	-11486
▁waarbij	-11487
▁transpar	-11488
▁prostu	-11489
▁fro	-11490
▁största	-11491
▁Via	-11492
isering	-11493
▁Tek	-11494
▁wish	-11495
▁voord	-11496
▁adecu	-11497
▁måneder	-11498
▁Bilder	-11499
▁minuti	-11500
▁vive	-11501
adrid	-11502
ailleurs	-11503
blig	-11504
▁student	-11505
▁negó	-11506
▁voorzien	-11507
valt	-11508
viv	-11509
▁scar	-11510
ased	-11511
▁spécial	-11512
▁estrat	-11513
▁wpis	-11514
▁IM	-11515
▁innebär	-11516
łeś	-11517
▁concept	-11518
▁połącz	-11519
szej	-11520
▁hålla	-11521
▁Mär	-11522
▁stwor	-11523
▁Dez	-11524
annten	-11525
eles	-11526
▁calcul	-11527
▁Lang	-11528
▁oude	-11529
drar	-11530
▁Even	-11531
▁dét	-11532
juk	-11533
aces	-11534
▁Krist	-11535
lede	-11536
▁użytkow	-11537
▁venta	-11538
▁ciel	-11539
etzung	-11540
▁devem	-11541
▁ali	-11542
▁luogo	-11543
häng	-11544
▁gor	-11545
▁gestione	-11546
▁avuto	-11547
▁vision	-11548
▁brengen	-11549
▁zamów	-11550
▁wych	-11551
▁quality	-11552
▁pele	-11553
▁bir	-11554
▁Väl	-11555
▁conce	-11556
▁sviluppo	-11557
▁finale	-11558
▁Nä	-11559
czeń	-11560
▁however	-11561
▁minuten	-11562
▁istället	-11563
dels	-11564
embl	-11565
▁wskaz	-11566
▁International	-11567
▁tand	-11568
▁Sab	-11569
▁Dla	-11570
▁fü	-11571
▁articles	-11572
▁tecnologia	-11573
▁noche	-11574
job	-11575
yle	-11576
verte	-11577
Ich	-11578
▁amigo	-11579
▁gig	-11580
articolo	-11581
bli	-11582
▁tæt	-11583
▁obst	-11584
▁guid	-11585
▁medarbej	-11586
▁jewe	-11587
ença	-11588
iety	-11589
TM	-11590
▁myśl	-11591
▁spor	-11592
▁mang	-11593
▁hjemmeside	-11594
▁dete	-11595
▁Proc	-11596
▁Polski	-11597
cando	-11598
▁clar	-11599
dziesz	-11600
dze	-11601
▁upon	-11602
aza	-11603
▁tank	-11604
▁pueda	-11605
▁nemlig	-11606
▁przem	-11607
▁ervaring	-11608
▁gånger	-11609
▁hop	-11610
▁games	-11611
▁Von	-11612
▁Cir	-11613
icznej	-11614
▁illustr	-11615
▁dil	-11616
▁alternativ	-11617
▁invers	-11618
egli	-11619
tać	-11620
ieur	-11621
▁varför	-11622
▁Zar	-11623
obie	-11624
▁lands	-11625
sko	-11626
ately	-11627
ählen	-11628
▁jednym	-11629
aki	-11630
▁realizado	-11631
ensive	-11632
▁dalej	-11633
▁cyk	-11634
werp	-11635
▁Bem	-11636
▁promot	-11637
▁frequ	-11638
▁volt	-11639
▁abord	-11640
▁impos	-11641
▁miesią	-11642
▁vé	-11643
▁købe	-11644
▁dès	-11645
▁assum	-11646
▁Jeżeli	-11647
▁verr	-11648
▁beginnen	-11649
▁geko	-11650
▁fle	-11651
▁lip	-11652
▁możemy	-11653
▁early	-11654
▁rein	-11655
▁wyłącz	-11656
itando	-11657
▁chiam	-11658
▁aktyw	-11659
▁mannen	-11660
▁lecz	-11661
▁spelen	-11662
▁udvikling	-11663
▁based	-11664
Com	-11665
▁sonst	-11666
▁recommend	-11667
lauf	-11668
ontro	-11669
▁pasar	-11670
imaal	-11671
▁Prz	-11672
▁cuanto	-11673
▁início	-11674
▁Rahmen	-11675
ægt	-11676
▁mechan	-11677
▁producto	-11678
▁bietet	-11679
ector	-11680
▁close	-11681
▁six	-11682
▁apre	-11683
ît	-11684
cyd	-11685
▁lässt	-11686
▁várias	-11687
▁symbol	-11688
getti	-11689
▁przedsię	-11690
SA	-11691
agner	-11692
jazd	-11693
▁impress	-11694
▁Festival	-11695
▁således	-11696
▁hed	-11697
erci	-11698
berto	-11699
▁ningún	-11700
▁volume	-11701
▁Freder	-11702
stead	-11703
▁miejsca	-11704
bry	-11705
▁Cat	-11706
▁skrev	-11707
ifik	-11708
▁soy	-11709
▁ficou	-11710
juder	-11711
▁poner	-11712
arth	-11713
park	-11714
▁Jun	-11715
ształ	-11716
erto	-11717
▁italiano	-11718
▁wiad	-11719
▁gelijk	-11720
▁Marketing	-11721
▁oznac	-11722
piej	-11723
▁bell	-11724
ännande	-11725
ël	-11726
▁største	-11727
ected	-11728
▁pequ	-11729
▁clim	-11730
▁belangrijk	-11731
standen	-11732
KE	-11733
▁började	-11734
vrigt	-11735
▁muligheder	-11736
▁każd	-11737
▁experiência	-11738
leist	-11739
▁beautiful	-11740
▁forvent	-11741
irse	-11742
hode	-11743
▁clear	-11744
▁programme	-11745
nemen	-11746
▁Bard	-11747
mäß	-11748
ichting	-11749
▁capaz	-11750
▁plata	-11751
▁mogę	-11752
▁buona	-11753
▁dicho	-11754
▁samo	-11755
issenschaft	-11756
▁rus	-11757
▁piè	-11758
▁étaient	-11759
igi	-11760
▁stol	-11761
ciem	-11762
▁Bis	-11763
ucz	-11764
atiques	-11765
▁respekt	-11766
▁zasad	-11767
▁später	-11768
▁radi	-11769
▁plek	-11770
▁Poz	-11771
▁naszym	-11772
jæl	-11773
▁zajm	-11774
▁możesz	-11775
▁simply	-11776
▁Parte	-11777
▁pontos	-11778
edel	-11779
▁comma	-11780
▁adolesc	-11781
▁rij	-11782
▁wraz	-11783
▁rema	-11784
▁général	-11785
kim	-11786
okal	-11787
owar	-11788
ondag	-11789
holds	-11790
▁Event	-11791
▁Må	-11792
BA	-11793
▁jakiś	-11794
ekt	-11795
▁Dopo	-11796
▁offentlig	-11797
iczny	-11798
▁queda	-11799
gré	-11800
▁doute	-11801
zionali	-11802
▁płyt	-11803
▁contract	-11804
ført	-11805
▁schle	-11806
▁acceso	-11807
▁kurz	-11808
▁OS	-11809
idé	-11810
jąca	-11811
▁stuff	-11812
▁komun	-11813
▁programas	-11814
vera	-11815
▁bezoek	-11816
▁dry	-11817
Je	-11818
▁humanos	-11819
▁została	-11820
Press	-11821
▁treat	-11822
omini	-11823
liwe	-11824
▁værd	-11825
▁chocol	-11826
▁soms	-11827
øje	-11828
▁feed	-11829
▁temas	-11830
▁Platz	-11831
▁hid	-11832
wat	-11833
▁développement	-11834
▁Bom	-11835
▁conjunto	-11836
fera	-11837
ética	-11838
▁execut	-11839
ences	-11840
endas	-11841
▁vão	-11842
▁audio	-11843
▁erhver	-11844
»,	-11845
▁rédu	-11846
▁ruch	-11847
▁stk	-11848
værk	-11849
▁mulheres	-11850
iled	-11851
▁soff	-11852
bildung	-11853
▁slechts	-11854
▁entonces	-11855
▁skön	-11856
nande	-11857
▁novos	-11858
isia	-11859
▁abil	-11860
▁nuove	-11861
gon	-11862
▁oppos	-11863
▁tils	-11864
▁verkar	-11865
▁siendo	-11866
▁zainteres	-11867
▁själva	-11868
▁subject	-11869
▁timmar	-11870
▁zawiera	-11871
agine	-11872
pte	-11873
▁zin	-11874
▁prove	-11875
▁sida	-11876
sku	-11877
▁Denna	-11878
▁confirm	-11879
DER	-11880
▁respond	-11881
▁vroeg	-11882
▁wicht	-11883
uchar	-11884
kop	-11885
▁oficial	-11886
▁eher	-11887
▁aktual	-11888
▁centrale	-11889
▁colleg	-11890
▁source	-11891
TV	-11892
orias	-11893
▁Verfügung	-11894
itten	-11895
▁hoppas	-11896
▁Much	-11897
▁gobierno	-11898
jąt	-11899
çu	-11900
łym	-11901
deles	-11902
ählt	-11903
ugno	-11904
gericht	-11905
kennen	-11906
▁ofic	-11907
ysz	-11908
▁office	-11909
ændende	-11910
▁domingo	-11911
▁Porto	-11912
▁tack	-11913
▁include	-11914
▁cierto	-11915
▁nulla	-11916
visor	-11917
cato	-11918
▁życie	-11919
▁Itali	-11920
▁znajduje	-11921
itional	-11922
Sch	-11923
▁tredje	-11924
▁author	-11925
▁konsek	-11926
▁dernière	-11927
usi	-11928
rel	-11929
▁pueb	-11930
æst	-11931
▁bost	-11932
erdem	-11933
ień	-11934
▁chegar	-11935
atoria	-11936
itore	-11937
▁långt	-11938
itação	-11939
▁moda	-11940
.’	-11941
ció	-11942
ström	-11943
▁ganze	-11944
▁House	-11945
▁lum	-11946
▁bestaat	-11947
ieniem	-11948
▁vuole	-11949
▁fleste	-11950
▁kopp	-11951
▁products	-11952
owl	-11953
▁giovan	-11954
▁gradu	-11955
uszcz	-11956
▁fråga	-11957
▁compris	-11958
utura	-11959
▁europé	-11960
▁varios	-11961
▁czyn	-11962
elfen	-11963
jącego	-11964
▁dicembre	-11965
▁living	-11966
▁zdrow	-11967
▁previsto	-11968
▁begynd	-11969
▁Lat	-11970
▁agu	-11971
▁dialog	-11972
▁fann	-11973
nosi	-11974
tembre	-11975
▁Zum	-11976
▁sollen	-11977
▁daran	-11978
▁entsprech	-11979
ubre	-11980
acją	-11981
▁hil	-11982
▁egna	-11983
▁station	-11984
eso	-11985
▁Zahl	-11986
▁Side	-11987
omiast	-11988
▁ihrem	-11989
▁Media	-11990
▁raggiung	-11991
▁lux	-11992
▁hablar	-11993
ox	-11994
itr	-11995
▁luk	-11996
▁Ry	-11997
posaż	-11998
urther	-11999
▁gioco	-12000
oczes	-12001
ouvernement	-12002
▁kleinen	-12003
▁sagte	-12004
▁deren	-12005
▁ile	-12006
▁følgende	-12007
alia	-12008
▁regist	-12009
▁aurait	-12010
atst	-12011
rags	-12012
ology	-12013
▁prachtige	-12014
▁smuk	-12015
▁produção	-12016
▁Kort	-12017
▁dichi	-12018
▁sov	-12019
atieve	-12020
▁FR	-12021
▁interessant	-12022
▁style	-12023
▁verand	-12024
▁scuola	-12025
▁skor	-12026
kuje	-12027
▁publicz	-12028
▁föräl	-12029
▁timer	-12030
▁prév	-12031
outube	-12032
atre	-12033
ycznej	-12034
mine	-12035
▁discr	-12036
adress	-12037
ijnen	-12038
key	-12039
orig	-12040
werkt	-12041
▁especially	-12042
ściej	-12043
porta	-12044
▁främ	-12045
▁sklep	-12046
▁pagar	-12047
▁testa	-12048
▁título	-12049
▁waardoor	-12050
▁Questa	-12051
erecht	-12052
zuki	-12053
▁saw	-12054
▁aim	-12055
▁emo	-12056
▁zakresie	-12057
▁Rep	-12058
▁depart	-12059
▁ieder	-12060
▁corret	-12061
▁månader	-12062
iorn	-12063
▁equil	-12064
▁sábado	-12065
▁femmes	-12066
▁elk	-12067
▁Segundo	-12068
▁Saint	-12069
▁Jean	-12070
▁veta	-12071
▁napię	-12072
▁lou	-12073
▁move	-12074
▁profissional	-12075
▁histór	-12076
▁navn	-12077
▁propon	-12078
▁passion	-12079
▁solid	-12080
rane	-12081
▁vivi	-12082
▁jemand	-12083
▁chron	-12084
amientos	-12085
▁rése	-12086
▁cargo	-12087
ösa	-12088
▁humano	-12089
▁seis	-12090
iende	-12091
▁bueno	-12092
plad	-12093
▁wrong	-12094
agog	-12095
▁ude	-12096
▁contato	-12097
▁below	-12098
▁unique	-12099
vidas	-12100
ył	-12101
hés	-12102
owaniem	-12103
▁Oktober	-12104
prü	-12105
ędzie	-12106
▁Spra	-12107
▁choć	-12108
▁Aller	-12109
nene	-12110
▁avond	-12111
ivå	-12112
▁Please	-12113
▁grøn	-12114
▁skyd	-12115
▁nouvelles	-12116
▁zouden	-12117
▁knapp	-12118
▁zowel	-12119
▁dys	-12120
▁lam	-12121
väg	-12122
naden	-12123
▁Juni	-12124
istoire	-12125
▁ochron	-12126
▁histo	-12127
▁worth	-12128
III	-12129
▁uwagę	-12130
▁Mån	-12131
▁animal	-12132
▁devono	-12133
▁Só	-12134
▁swojej	-12135
▁podrá	-12136
▁Naz	-12137
loc	-12138
▁Skriv	-12139
▁Quer	-12140
IONE	-12141
▁wyj	-12142
▁adquir	-12143
▁leps	-12144
▁capt	-12145
▁Madrid	-12146
kcie	-12147
schluss	-12148
▁condizioni	-12149
▁śred	-12150
▁Div	-12151
▁marché	-12152
▁ani	-12153
arczy	-12154
▁igennem	-12155
stid	-12156
▁oms	-12157
oba	-12158
▁Eltern	-12159
uba	-12160
▁powierzch	-12161
▁haut	-12162
accord	-12163
▁donna	-12164
▁profissionais	-12165
▁artigo	-12166
▁agre	-12167
▁heard	-12168
▁ponto	-12169
ANT	-12170
teriores	-12171
elserne	-12172
▁Onze	-12173
bus	-12174
▁Hin	-12175
wiek	-12176
▁production	-12177
aming	-12178
▁tum	-12179
▁skriv	-12180
ersch	-12181
rek	-12182
ifor	-12183
orrer	-12184
▁Jugend	-12185
▁fanno	-12186
▁Göteborg	-12187
▁tort	-12188
ledge	-12189
▁Distância	-12190
ráf	-12191
▁speciale	-12192
gørelse	-12193
▁Stan	-12194
ęcz	-12195
▁regional	-12196
▁Dio	-12197
▁Richt	-12198
▁wody	-12199
▁dagli	-12200
Die	-12201
uring	-12202
▁Dre	-12203
▁nowe	-12204
▁eerder	-12205
▁Kurs	-12206
▁Smart	-12207
▁acess	-12208
løb	-12209
zpie	-12210
▁lorsque	-12211
▁nära	-12212
▁skick	-12213
obili	-12214
ankelijk	-12215
dad	-12216
▁produit	-12217
▁ew	-12218
▁titre	-12219
daad	-12220
▁enfermed	-12221
▁likely	-12222
kowych	-12223
wood	-12224
érience	-12225
▁oppure	-12226
▁send	-12227
▁eksempel	-12228
▁ytter	-12229
▁sucesso	-12230
▁fronte	-12231
AZ	-12232
▁Ras	-12233
entlichen	-12234
avait	-12235
▁wasn	-12236
▁miem	-12237
▁gehört	-12238
▁deltag	-12239
▁address	-12240
▁medicin	-12241
▁idi	-12242
▁allora	-12243
▁romant	-12244
iac	-12245
system	-12246
kcyj	-12247
▁homme	-12248
▁Blick	-12249
▁pewno	-12250
▁nombreux	-12251
▁value	-12252
▁temos	-12253
▁femin	-12254
▁fair	-12255
▁morning	-12256
▁leggere	-12257
▁cuore	-12258
▁frit	-12259
indet	-12260
▁offic	-12261
▁slags	-12262
▁zul	-12263
▁Grazie	-12264
▁tens	-12265
ätzlich	-12266
▁waarom	-12267
bek	-12268
▁hands	-12269
▁trev	-12270
▁review	-12271
▁trip	-12272
dagog	-12273
étais	-12274
▁wieku	-12275
▁pytanie	-12276
▁Poc	-12277
▁erfar	-12278
usive	-12279
▁espos	-12280
▁netop	-12281
essere	-12282
kap	-12283
▁meddel	-12284
▁bonus	-12285
▁Prote	-12286
ientes	-12287
▁buscar	-12288
▁cio	-12289
▁fyra	-12290
ogli	-12291
ril	-12292
▁januar	-12293
▁atte	-12294
▁Leute	-12295
▁forstå	-12296
▁autant	-12297
▁meisten	-12298
▁poderá	-12299
▁acesso	-12300
▁pasa	-12301
genden	-12302
▁mynd	-12303
▁principais	-12304
▁espacio	-12305
▁navig	-12306
▁transporte	-12307
FF	-12308
▁oven	-12309
ienda	-12310
ferencia	-12311
▁Vær	-12312
iscono	-12313
kur	-12314
▁culture	-12315
▁komfort	-12316
▁tillf	-12317
▁erre	-12318
BS	-12319
▁accompagn	-12320
▁DVD	-12321
▁blan	-12322
▁Hoch	-12323
▁engag	-12324
▁season	-12325
arla	-12326
▁encuentra	-12327
▁maart	-12328
hler	-12329
▁Może	-12330
▁perso	-12331
▁Tex	-12332
▁Cha	-12333
▁podz	-12334
▁swoim	-12335
▁valg	-12336
termin	-12337
▁starten	-12338
▁problemen	-12339
Ver	-12340
jr	-12341
▁relax	-12342
▁maneira	-12343
▁każdego	-12344
▁conteú	-12345
scy	-12346
▁agric	-12347
▁lhe	-12348
▁deriv	-12349
▁Try	-12350
▁ona	-12351
▁Bos	-12352
▁vidé	-12353
inci	-12354
volle	-12355
BL	-12356
rav	-12357
▁proposta	-12358
▁utile	-12359
▁CE	-12360
nalaz	-12361
▁tri	-12362
ATION	-12363
▁lugares	-12364
▁vrouwen	-12365
▁teil	-12366
▁Lim	-12367
ytte	-12368
▁nuovi	-12369
▁código	-12370
▁afect	-12371
▁juist	-12372
varande	-12373
▁vivo	-12374
▁Besuch	-12375
▁estudi	-12376
▁Pow	-12377
▁nier	-12378
▁veilig	-12379
ugen	-12380
óp	-12381
▁Hi	-12382
▁arbejder	-12383
▁tyle	-12384
▁movimento	-12385
▁Central	-12386
▁proto	-12387
ught	-12388
▁hoor	-12389
▁jong	-12390
▁obej	-12391
▁framför	-12392
mals	-12393
▁OM	-12394
▁kwaliteit	-12395
angel	-12396
taal	-12397
platz	-12398
chem	-12399
roit	-12400
aixa	-12401
utor	-12402
▁nig	-12403
▁desaf	-12404
▁migliori	-12405
▁Mes	-12406
▁petits	-12407
▁skute	-12408
▁listen	-12409
▁protection	-12410
kede	-12411
▁CR	-12412
▁propose	-12413
▁write	-12414
▁millions	-12415
▁gebied	-12416
ografia	-12417
beh	-12418
jör	-12419
▁sola	-12420
▁Fach	-12421
▁inga	-12422
ørende	-12423
▁entro	-12424
▁daw	-12425
▁clean	-12426
▁kväll	-12427
▁Tha	-12428
▁niemand	-12429
▁sept	-12430
▁Amerika	-12431
aktion	-12432
▁bilden	-12433
▁klik	-12434
▁prec	-12435
▁przeprowad	-12436
ART	-12437
▁sjo	-12438
ifrån	-12439
ywat	-12440
ENTE	-12441
▁Markt	-12442
▁moeil	-12443
▁gehad	-12444
▁popraw	-12445
▁matt	-12446
▁Up	-12447
▁reven	-12448
äss	-12449
wiz	-12450
ostęp	-12451
.).	-12452
▁felic	-12453
▁matin	-12454
▁enda	-12455
ätze	-12456
▁prépar	-12457
▁Lad	-12458
▁King	-12459
▁Set	-12460
▁contrario	-12461
▁looked	-12462
▁mati	-12463
ølge	-12464
bag	-12465
▁doivent	-12466
gado	-12467
▁Exper	-12468
▁presenti	-12469
ändr	-12470
▁händer	-12471
▁poprzez	-12472
▁Eins	-12473
eggi	-12474
▁objetivos	-12475
▁zim	-12476
atora	-12477
arem	-12478
Italia	-12479
uck	-12480
▁mari	-12481
▁AP	-12482
▁eventos	-12483
▁vente	-12484
▁vice	-12485
▁Gobierno	-12486
▁previs	-12487
▁każdym	-12488
▁University	-12489
beren	-12490
usst	-12491
▁erfol	-12492
▁Depois	-12493
socia	-12494
▁Stunden	-12495
▁sistemas	-12496
źdz	-12497
▁ót	-12498
▁kab	-12499
ódz	-12500
▁Hvordan	-12501
▁MED	-12502
▁täv	-12503
▁Prem	-12504
waard	-12505
▁zoveel	-12506
▁aft	-12507
yal	-12508
▁musica	-12509
jähr	-12510
▁samarbejde	-12511
▁protect	-12512
▁avv	-12513
▁cantidad	-12514
▁excelente	-12515
▁grâce	-12516
schein	-12517
▁milhões	-12518
▁Matt	-12519
ächlich	-12520
OU	-12521
Ja	-12522
▁valore	-12523
nende	-12524
▁sikre	-12525
▁price	-12526
▁acred	-12527
▁Zij	-12528
▁escre	-12529
▁Dob	-12530
idez	-12531
▁Entfer	-12532
▁Sommer	-12533
▁rápido	-12534
▁lepiej	-12535
▁preven	-12536
▁ways	-12537
ukunft	-12538
▁opini	-12539
▁skriva	-12540
▁bevor	-12541
▁terwijl	-12542
órios	-12543
▁najwięks	-12544
▁autour	-12545
▁gillar	-12546
▁zaken	-12547
▁kunskap	-12548
området	-12549
Tube	-12550
gaard	-12551
bezpie	-12552
▁genere	-12553
▁Zug	-12554
▁Kor	-12555
▁buon	-12556
enscha	-12557
▁består	-12558
▁esses	-12559
▁weeks	-12560
akes	-12561
▁zatr	-12562
chas	-12563
▁court	-12564
▁Bereich	-12565
▁workshop	-12566
pir	-12567
▁encant	-12568
▁alkohol	-12569
▁sound	-12570
▁Cho	-12571
▁mieszkań	-12572
IX	-12573
▁lut	-12574
▁entsche	-12575
istische	-12576
▁entwick	-12577
▁Wahl	-12578
stående	-12579
▁Sign	-12580
▁dando	-12581
▁cut	-12582
▁promoc	-12583
▁endast	-12584
itaria	-12585
essor	-12586
▁mesure	-12587
▁naszego	-12588
assi	-12589
▁LED	-12590
▁Gal	-12591
▁bleiben	-12592
sv	-12593
▁Liebe	-12594
▁Fig	-12595
▁Ela	-12596
▁ruimte	-12597
▁confort	-12598
żu	-12599
śnia	-12600
▁PDF	-12601
▁trattamento	-12602
▁Fant	-12603
▁Ergeb	-12604
▁regering	-12605
▁überhaupt	-12606
illing	-12607
reso	-12608
▁holder	-12609
łop	-12610
▁Then	-12611
hh	-12612
▁WordPress	-12613
elte	-12614
▁virksomhed	-12615
enses	-12616
heiten	-12617
▁sko	-12618
▁police	-12619
▁five	-12620
▁Nicht	-12621
▁presenza	-12622
▁Glück	-12623
▁namelijk	-12624
Por	-12625
▁portug	-12626
▁dinheiro	-12627
onomia	-12628
▁Każ	-12629
gäng	-12630
haft	-12631
▁Andr	-12632
▁tilbyder	-12633
▁Ti	-12634
▁alco	-12635
cida	-12636
▁unterstüt	-12637
▁bleibt	-12638
▁needed	-12639
▁ajuda	-12640
umes	-12641
▁sociais	-12642
skud	-12643
lez	-12644
oler	-12645
ukkig	-12646
▁nazw	-12647
ÓN	-12648
▁inqu	-12649
▁marts	-12650
ienta	-12651
▁molte	-12652
▁aktiviteter	-12653
ENTO	-12654
▁necessário	-12655
▁doe	-12656
▁wunder	-12657
ítica	-12658
uali	-12659
▁pochi	-12660
▁foot	-12661
▁Syd	-12662
▁modt	-12663
▁działania	-12664
▁spazio	-12665
▁biedt	-12666
laczego	-12667
▁mindst	-12668
▁section	-12669
bak	-12670
utzer	-12671
▁ín	-12672
▁settimana	-12673
▁leeft	-12674
▁Grün	-12675
▁strada	-12676
ówki	-12677
▁constante	-12678
itual	-12679
▁kit	-12680
▁sean	-12681
▁problems	-12682
▁piger	-12683
▁søger	-12684
▁servir	-12685
▁generale	-12686
▁osią	-12687
▁kir	-12688
▁vur	-12689
▁hoop	-12690
enci	-12691
▁concep	-12692
éti	-12693
øge	-12694
▁atrás	-12695
▁fod	-12696
▁palabras	-12697
▁hi	-12698
wych	-12699
▁señal	-12700
intér	-12701
▁camino	-12702
év	-12703
igvis	-12704
▁development	-12705
▁sociedad	-12706
liwości	-12707
▁dad	-12708
▁details	-12709
atamente	-12710
▁posts	-12711
▁Mand	-12712
adresse	-12713
▁migliore	-12714
ijker	-12715
▁opera	-12716
▁cannot	-12717
stænd	-12718
▁credit	-12719
issa	-12720
plos	-12721
▁dokon	-12722
▁Sara	-12723
▁intellig	-12724
▁USB	-12725
▁monta	-12726
▁handler	-12727
espère	-12728
▁historie	-12729
▁condition	-12730
▁Opt	-12731
▁semanas	-12732
▁Francisco	-12733
▁patient	-12734
çãeste	-12735
kke	-12736
▁samtidig	-12737
▁Tech	-12738
▁filosof	-12739
kul	-12740
rug	-12741
▁Selv	-12742
▁ark	-12743
▁professor	-12744
▁thinking	-12745
▁electrón	-12746
▁erz	-12747
legen	-12748
▁woman	-12749
éb	-12750
▁Geg	-12751
▁ER	-12752
▁løb	-12753
▁demais	-12754
▁utilizando	-12755
▁mese	-12756
▁anci	-12757
▁técnica	-12758
▁application	-12759
▁aanwe	-12760
▁tav	-12761
▁heraus	-12762
▁strand	-12763
kurs	-12764
▁Sup	-12765
▁park	-12766
kauf	-12767
▁OP	-12768
▁normale	-12769
rament	-12770
▁Freund	-12771
▁Gdy	-12772
▁Zukunft	-12773
▁gebracht	-12774
▁møde	-12775
ettre	-12776
▁svensk	-12777
▁conhecer	-12778
▁trova	-12779
▁materiale	-12780
crire	-12781
igner	-12782
SL	-12783
▁réponse	-12784
▁brak	-12785
▁freuen	-12786
▁heter	-12787
reste	-12788
nim	-12789
▁evolu	-12790
▁Ainda	-12791
FOR	-12792
▁His	-12793
ścia	-12794
jew	-12795
▁svært	-12796
▁própria	-12797
▁verwij	-12798
▁Någ	-12799
▁Zwe	-12800
▁winter	-12801
▁probabil	-12802
fattning	-12803
ords	-12804
▁nuevas	-12805
▁Herz	-12806
▁gått	-12807
▁schreef	-12808
▁plazo	-12809
▁powod	-12810
▁dienst	-12811
▁aplicación	-12812
xy	-12813
▁korrekt	-12814
▁thre	-12815
▁carro	-12816
▁islam	-12817
▁Commun	-12818
▁chce	-12819
enser	-12820
▁nuit	-12821
▁czyt	-12822
stel	-12823
▁situazione	-12824
▁common	-12825
▁dum	-12826
betaling	-12827
autor	-12828
▁platform	-12829
▁äldre	-12830
▁przede	-12831
iete	-12832
▁politica	-12833
▁gemeente	-12834
gär	-12835
▁late	-12836
▁träd	-12837
onej	-12838
▁Anton	-12839
▁Entfernung	-12840
▁controllo	-12841
zony	-12842
▁zespo	-12843
eros	-12844
▁volledig	-12845
▁Cos	-12846
▁ibland	-12847
▁comprendre	-12848
▁Oc	-12849
▁describ	-12850
usias	-12851
üler	-12852
▁hän	-12853
▁trotz	-12854
▁cięż	-12855
▁pourra	-12856
▁strong	-12857
cing	-12858
▁decreto	-12859
ivere	-12860
OMM	-12861
▁demasi	-12862
▁somm	-12863
▁formazione	-12864
odos	-12865
▁XV	-12866
▁vigtigt	-12867
▁wej	-12868
▁parfois	-12869
▁Flor	-12870
porter	-12871
elijks	-12872
▁følge	-12873
▁sense	-12874
▁juiste	-12875
zoeken	-12876
▁Aar	-12877
▁successo	-12878
ñana	-12879
▁aggi	-12880
▁risque	-12881
ństw	-12882
▁niekt	-12883
▁científ	-12884
▁risultati	-12885
▁temporada	-12886
▁hæn	-12887
▁México	-12888
▁responsable	-12889
▁Nog	-12890
▁terren	-12891
head	-12892
staan	-12893
▁canc	-12894
▁reduc	-12895
▁codzien	-12896
▁delar	-12897
▁consigli	-12898
▁fille	-12899
▁Sv	-12900
▁Ig	-12901
ską	-12902
▁Antwort	-12903
▁municíp	-12904
..."	-12905
raca	-12906
esl	-12907
atório	-12908
▁pomocą	-12909
edores	-12910
▁space	-12911
▁Luft	-12912
▁Play	-12913
▁lien	-12914
ulent	-12915
▁selvfølgelig	-12916
▁Indien	-12917
▁Robert	-12918
▁décis	-12919
▁location	-12920
▁nuestras	-12921
▁kleur	-12922
▁Trip	-12923
fast	-12924
▁trzy	-12925
▁Day	-12926
▁senere	-12927
ills	-12928
øder	-12929
▁teach	-12930
▁Lind	-12931
▁triste	-12932
izion	-12933
IER	-12934
zept	-12935
▁Dich	-12936
▁wyjąt	-12937
▁möjligt	-12938
▁quiero	-12939
goed	-12940
▁lyss	-12941
▁Cour	-12942
▁bella	-12943
▁lem	-12944
▁assol	-12945
▁Gio	-12946
▁bisher	-12947
▁talent	-12948
▁måned	-12949
▁nadie	-12950
▁lilla	-12951
▁Entwicklung	-12952
▁novas	-12953
▁Gracias	-12954
▁capire	-12955
▁ljus	-12956
nels	-12957
brev	-12958
ßerdem	-12959
▁oe	-12960
▁anmeld	-12961
▁lopen	-12962
▁democ	-12963
▁jeunes	-12964
▁rö	-12965
▁chciał	-12966
▁esos	-12967
▁latach	-12968
▁miei	-12969
▁known	-12970
▁key	-12971
ński	-12972
▁esclus	-12973
ędz	-12974
▁Hab	-12975
▁Japan	-12976
▁relevant	-12977
▁amount	-12978
▁iż	-12979
AK	-12980
▁Ikke	-12981
entiel	-12982
▁Personal	-12983
▁demonstr	-12984
▁uppgifter	-12985
▁Digital	-12986
▁bekannt	-12987
how	-12988
valget	-12989
▁Soci	-12990
▁Brit	-12991
▁fisk	-12992
▁bons	-12993
ARE	-12994
▁municip	-12995
▁haha	-12996
▁Emp	-12997
ädd	-12998
itect	-12999
▁Bern	-13000
import	-13001
annes	-13002
DR	-13003
czaj	-13004
▁roligt	-13005
▁estre	-13006
▁medier	-13007
▁heiß	-13008
szt	-13009
ælde	-13010
zystać	-13011
▁cuatro	-13012
▁bieden	-13013
ieszcz	-13014
▁estudio	-13015
▁crear	-13016
▁crisis	-13017
ersen	-13018
▁gången	-13019
ived	-13020
▁echte	-13021
▁criar	-13022
▁kronor	-13023
▁prób	-13024
▁oor	-13025
▁effekt	-13026
▁vigtig	-13027
▁nazionale	-13028
apeut	-13029
▁black	-13030
▁reach	-13031
▁fecha	-13032
▁amen	-13033
▁Isso	-13034
▁longer	-13035
imen	-13036
▁sofort	-13037
▁building	-13038
▁Carl	-13039
oks	-13040
förande	-13041
▁klaar	-13042
▁edad	-13043
▁bieten	-13044
▁Kun	-13045
▁Ye	-13046
▁którą	-13047
brać	-13048
▁mezzo	-13049
fær	-13050
quiera	-13051
▁death	-13052
cciones	-13053
▁Era	-13054
▁Aktiv	-13055
▁passado	-13056
råd	-13057
▁divid	-13058
leben	-13059
▁Depart	-13060
blik	-13061
▁skabe	-13062
▁svilupp	-13063
▁limite	-13064
▁formato	-13065
icare	-13066
▁Esc	-13067
▁invit	-13068
nytt	-13069
▁dj	-13070
▁appel	-13071
▁download	-13072
▁ast	-13073
▁Hy	-13074
▁capacidad	-13075
▁dö	-13076
▁destru	-13077
astr	-13078
▁uitvo	-13079
▁Frankr	-13080
ográf	-13081
▁leren	-13082
▁ford	-13083
▁uffici	-13084
▁Read	-13085
▁Press	-13086
iça	-13087
▁uczni	-13088
▁rencontr	-13089
issão	-13090
▁fib	-13091
▁beeld	-13092
▁irr	-13093
fühl	-13094
ujące	-13095
▁Mün	-13096
▁medios	-13097
▁Politik	-13098
▁określ	-13099
arder	-13100
▁kommenterar	-13101
▁déta	-13102
▁lamp	-13103
▁découvrir	-13104
▁przeznac	-13105
▁Most	-13106
▁shows	-13107
âte	-13108
▁PARA	-13109
▁voz	-13110
▁daarna	-13111
orsi	-13112
▁próxima	-13113
œur	-13114
nero	-13115
kowy	-13116
▁Hit	-13117
zeniem	-13118
▁vond	-13119
yka	-13120
isteren	-13121
▁Norte	-13122
▁Weiter	-13123
betes	-13124
indest	-13125
▁duda	-13126
kens	-13127
▁partners	-13128
▁kwest	-13129
▁policy	-13130
seite	-13131
ptembre	-13132
ckte	-13133
▁daher	-13134
▁occhi	-13135
▁Kü	-13136
▁milj	-13137
▁pin	-13138
kay	-13139
▁terenie	-13140
▁aproxim	-13141
▁lunch	-13142
fass	-13143
Am	-13144
reds	-13145
▁différents	-13146
▁MP	-13147
ilder	-13148
▁Engl	-13149
▁inge	-13150
aide	-13151
▁gratuit	-13152
▁require	-13153
▁Danmarks	-13154
▁richiesta	-13155
▁Yes	-13156
▁Bardzo	-13157
▁kombin	-13158
applic	-13159
▁Wanneer	-13160
▁perfek	-13161
▁Quand	-13162
▁świecie	-13163
▁wydar	-13164
▁kole	-13165
ących	-13166
▁festival	-13167
▁ovan	-13168
aris	-13169
gård	-13170
▁smartphone	-13171
▁Rock	-13172
ispens	-13173
ostante	-13174
▁quatro	-13175
▁juríd	-13176
▁somos	-13177
▁purch	-13178
▁pé	-13179
▁appr	-13180
▁opn	-13181
▁interesting	-13182
▁saying	-13183
▁usuarios	-13184
▁probable	-13185
▁infra	-13186
▁Why	-13187
▁polity	-13188
▁oploss	-13189
▁OCH	-13190
▁hacen	-13191
▁PM	-13192
▁ling	-13193
.'	-13194
▁stup	-13195
▁dziś	-13196
▁Lös	-13197
▁wyposaż	-13198
▁tendr	-13199
▁competit	-13200
▁figure	-13201
At	-13202
▁travers	-13203
▁mię	-13204
▁givet	-13205
▁Kontakta	-13206
▁reis	-13207
▁horm	-13208
▁herram	-13209
▁knew	-13210
▁bie	-13211
ifen	-13212
▁później	-13213
▁aucune	-13214
▁tratamiento	-13215
▁begyn	-13216
gaver	-13217
missione	-13218
▁Firma	-13219
▁near	-13220
rov	-13221
nede	-13222
▁puoi	-13223
▁pago	-13224
estar	-13225
▁muziek	-13226
▁rand	-13227
giore	-13228
▁adap	-13229
▁moest	-13230
▁problemer	-13231
▁Any	-13232
▁imped	-13233
▁rendre	-13234
▁egentligen	-13235
▁Isl	-13236
asc	-13237
▁dynam	-13238
▁éch	-13239
haps	-13240
▁gezond	-13241
yez	-13242
▁længe	-13243
▁slå	-13244
▁©	-13245
▁naturlig	-13246
▁jogos	-13247
▁simplement	-13248
givning	-13249
▁ogran	-13250
▁Band	-13251
▁gravid	-13252
▁sapere	-13253
nica	-13254
ógł	-13255
▁ciep	-13256
▁oferta	-13257
▁suficiente	-13258
▁inoltre	-13259
xe	-13260
▁sön	-13261
▁Uns	-13262
ève	-13263
▁takiego	-13264
▁técnicas	-13265
▁paese	-13266
▁próprio	-13267
wej	-13268
ætning	-13269
▁finance	-13270
hö	-13271
▁proje	-13272
▁contacto	-13273
▁gul	-13274
matig	-13275
▁cuest	-13276
▁essas	-13277
▁Todo	-13278
▁públicos	-13279
ensemble	-13280
▁curios	-13281
▁thank	-13282
cif	-13283
▁toek	-13284
▁Termin	-13285
▁inspira	-13286
▁viktig	-13287
▁Kons	-13288
▁impres	-13289
▁eenvoud	-13290
▁anbef	-13291
▁blom	-13292
▁entrega	-13293
mæss	-13294
▁Angeb	-13295
▁steder	-13296
▁Lav	-13297
▁viktigt	-13298
▁series	-13299
▁colocar	-13300
▁scher	-13301
▁zakoń	-13302
▁laisser	-13303
▁Mål	-13304
▁rapporto	-13305
xx	-13306
▁punti	-13307
▁afirm	-13308
▁Foi	-13309
▁Bog	-13310
▁Hem	-13311
▁Cada	-13312
ests	-13313
▁beskriv	-13314
wierdz	-13315
▁sympt	-13316
▁selskab	-13317
▁meeste	-13318
iesa	-13319
▁toep	-13320
▁tenden	-13321
▁longtemps	-13322
kosten	-13323
▁deu	-13324
▁möchten	-13325
▁trabajar	-13326
▁Cristo	-13327
▁fanns	-13328
raum	-13329
ärer	-13330
▁tempi	-13331
▁kroppen	-13332
verse	-13333
staande	-13334
liches	-13335
derdaad	-13336
ifer	-13337
▁banda	-13338
▁Pati	-13339
▁carne	-13340
▁ready	-13341
▁flesta	-13342
▁większo	-13343
▁décembre	-13344
rown	-13345
▁overeen	-13346
umo	-13347
▁explica	-13348
▁allmän	-13349
▁medlemmer	-13350
▁zwięks	-13351
▁Minuten	-13352
▁znaleźć	-13353
▁afgelopen	-13354
▁Ändra	-13355
dera	-13356
udnia	-13357
gestellt	-13358
▁verdens	-13359
▁phot	-13360
▁herunder	-13361
▁miljon	-13362
▁publik	-13363
olari	-13364
ront	-13365
▁dość	-13366
▁líder	-13367
▁wszel	-13368
▁compre	-13369
▁Beruf	-13370
▁jakieś	-13371
▁desider	-13372
▁korte	-13373
▁Jack	-13374
enf	-13375
orse	-13376
▁lade	-13377
▁sny	-13378
▁Vene	-13379
▁chau	-13380
iznes	-13381
▁EX	-13382
▁Polska	-13383
▁prise	-13384
ALE	-13385
▁contrato	-13386
icherung	-13387
idge	-13388
▁Erik	-13389
cidos	-13390
▁Cli	-13391
▁deles	-13392
▁prezzo	-13393
▁zaterdag	-13394
adoras	-13395
▁conclu	-13396
▁hinanden	-13397
▁curs	-13398
▁hulp	-13399
▁rejse	-13400
▁saud	-13401
▁migr	-13402
▁sier	-13403
▁wnios	-13404
▁onderste	-13405
▁Esse	-13406
▁podsta	-13407
▁klant	-13408
▁trwa	-13409
czny	-13410
▁fato	-13411
ożli	-13412
fung	-13413
▁Essa	-13414
schijn	-13415
▁disposizione	-13416
▁cach	-13417
▁Ly	-13418
▁rug	-13419
▁gec	-13420
gaben	-13421
CC	-13422
icar	-13423
▁NA	-13424
▁vient	-13425
▁tú	-13426
▁bron	-13427
kro	-13428
erait	-13429
▁convin	-13430
nehåll	-13431
▁skapa	-13432
onato	-13433
▁phone	-13434
iland	-13435
akten	-13436
▁låg	-13437
▁longo	-13438
dź	-13439
▁gesagt	-13440
klart	-13441
▁reduz	-13442
chef	-13443
▁sinds	-13444
▁brugt	-13445
▁Big	-13446
▁przesz	-13447
▁sprzed	-13448
ville	-13449
roż	-13450
▁mínimo	-13451
endom	-13452
▁amar	-13453
zys	-13454
metros	-13455
fert	-13456
▁opge	-13457
▁Consiglio	-13458
istico	-13459
wegen	-13460
▁Então	-13461
▁contex	-13462
▁Administr	-13463
▁écrit	-13464
▁behind	-13465
▁Distr	-13466
owałem	-13467
▁pint	-13468
▁Tec	-13469
enty	-13470
▁Gem	-13471
▁Dabei	-13472
onta	-13473
lichkeit	-13474
lus	-13475
▁beschikbaar	-13476
▁rab	-13477
acqua	-13478
▁Canada	-13479
jącym	-13480
Ex	-13481
▁Qui	-13482
▁method	-13483
▁kær	-13484
▁principales	-13485
▁Master	-13486
ździer	-13487
ipe	-13488
quelle	-13489
atów	-13490
▁rass	-13491
▁odb	-13492
▁Argent	-13493
▁vostro	-13494
cast	-13495
anego	-13496
▁ciąg	-13497
wahl	-13498
ciaal	-13499
▁posiad	-13500
▁Good	-13501
▁aard	-13502
elsens	-13503
▁ifr	-13504
▁plante	-13505
▁Mensch	-13506
▁levant	-13507
ciąg	-13508
▁Villa	-13509
▁Allt	-13510
▁daarom	-13511
▁plaatsen	-13512
▁comunicación	-13513
▁razie	-13514
▁représent	-13515
▁Anfang	-13516
▁domanda	-13517
▁spændende	-13518
▁avent	-13519
▁cere	-13520
olet	-13521
klub	-13522
▁nowych	-13523
▁Zak	-13524
▁człon	-13525
tende	-13526
▁caract	-13527
Be	-13528
kcja	-13529
▁luce	-13530
▁propre	-13531
▁appartement	-13532
▁plans	-13533
▁meus	-13534
naio	-13535
ision	-13536
▁saf	-13537
ussion	-13538
▁pasta	-13539
▁ellers	-13540
▁bian	-13541
abler	-13542
▁efic	-13543
▁sprawdz	-13544
▁Jahres	-13545
proble	-13546
▁helfen	-13547
],	-13548
▁varias	-13549
zonych	-13550
orsdag	-13551
▁Stato	-13552
▁puntos	-13553
führung	-13554
▁janvier	-13555
▁Flug	-13556
▁gælder	-13557
attro	-13558
▁drive	-13559
▁mejorar	-13560
▁wartości	-13561
▁ongeveer	-13562
▁produce	-13563
▁puesto	-13564
▁Are	-13565
▁produzione	-13566
▁dichiar	-13567
ordnung	-13568
égr	-13569
▁onts	-13570
▁communication	-13571
▁konto	-13572
▁Website	-13573
▁italiana	-13574
▁nuevos	-13575
▁tuoi	-13576
▁nasze	-13577
▁Guer	-13578
ueel	-13579
fia	-13580
▁Tim	-13581
▁Partner	-13582
wege	-13583
▁THE	-13584
łego	-13585
▁halten	-13586
END	-13587
▁część	-13588
▁milioni	-13589
▁warum	-13590
▁juego	-13591
partement	-13592
▁diagnost	-13593
▁början	-13594
▁ellas	-13595
appar	-13596
▁hang	-13597
▁types	-13598
lepiej	-13599
▁heerlijk	-13600
▁Stad	-13601
fan	-13602
▁kształ	-13603
GE	-13604
▁jedem	-13605
▁disponible	-13606
▁Administra	-13607
▁klanten	-13608
▁soddis	-13609
▁Sn	-13610
orar	-13611
▁CV	-13612
▁tør	-13613
▁Svenska	-13614
▁minuter	-13615
lass	-13616
▁Civil	-13617
ciąż	-13618
▁Main	-13619
▁śro	-13620
éré	-13621
▁Journal	-13622
▁tramite	-13623
▁attr	-13624
▁settembre	-13625
▁impre	-13626
miny	-13627
▁maioria	-13628
▁Nutz	-13629
▁amazing	-13630
▁importa	-13631
uomo	-13632
▁Jednak	-13633
▁beskr	-13634
oint	-13635
▁kond	-13636
▁gevoel	-13637
▁topic	-13638
▁ação	-13639
▁atenção	-13640
▁Hom	-13641
▁élec	-13642
▁Pri	-13643
▁almind	-13644
▁wymi	-13645
▁éc	-13646
▁mundial	-13647
▁comune	-13648
tet	-13649
▁terá	-13650
▁hou	-13651
▁finalmente	-13652
▁términ	-13653
▁Punkt	-13654
▁sezon	-13655
endere	-13656
▁Nur	-13657
▁trouw	-13658
idados	-13659
▁dens	-13660
▁Wirtschaft	-13661
▁cuidado	-13662
▁metros	-13663
werpen	-13664
klär	-13665
▁excellent	-13666
▁dessutom	-13667
▁representa	-13668
alles	-13669
▁flot	-13670
▁IL	-13671
ächst	-13672
▁correc	-13673
▁vorg	-13674
atory	-13675
ATO	-13676
▁bezig	-13677
▁inspiration	-13678
cesz	-13679
▁Text	-13680
▁cará	-13681
ogos	-13682
▁Milano	-13683
▁pose	-13684
▁veckan	-13685
▁Nam	-13686
▁increas	-13687
oge	-13688
itudes	-13689
▁deliver	-13690
zają	-13691
▁brit	-13692
▁répondre	-13693
▁Tijd	-13694
▁pension	-13695
▁passage	-13696
▁certeza	-13697
▁parla	-13698
ięcy	-13699
▁Gå	-13700
▁repl	-13701
iesen	-13702
▁pesar	-13703
▁dår	-13704
▁viaggio	-13705
rän	-13706
▁konkurr	-13707
folk	-13708
øs	-13709
edì	-13710
ordning	-13711
▁confl	-13712
ykker	-13713
core	-13714
▁hvorfor	-13715
▁recens	-13716
▁edição	-13717
CD	-13718
▁image	-13719
ąpi	-13720
▁geï	-13721
▁ferie	-13722
▁porém	-13723
▁bestimm	-13724
▁enkelte	-13725
▁levar	-13726
▁América	-13727
frem	-13728
bracht	-13729
▁zmien	-13730
▁dezelfde	-13731
pod	-13732
▁rodzin	-13733
▁uszk	-13734
▁haciendo	-13735
▁mañana	-13736
▁mostrar	-13737
volgens	-13738
uramente	-13739
▁przyczy	-13740
▁elas	-13741
sung	-13742
▁pik	-13743
▁quiere	-13744
yny	-13745
iedades	-13746
▁fortæller	-13747
▁cancer	-13748
▁costo	-13749
▁artyku	-13750
emento	-13751
▁studie	-13752
mest	-13753
▁Rapp	-13754
▁måtte	-13755
▁convoc	-13756
▁quotid	-13757
▁erbjud	-13758
▁snabbt	-13759
▁aufge	-13760
▁Dra	-13761
▁depos	-13762
▁telefo	-13763
▁riferimento	-13764
▁step	-13765
▁skrive	-13766
▁Data	-13767
▁cucina	-13768
avo	-13769
▁aandacht	-13770
köp	-13771
▁posizione	-13772
▁Clar	-13773
▁consiste	-13774
isiaj	-13775
▁certaines	-13776
wohl	-13777
▁expla	-13778
▁informacje	-13779
▁Avec	-13780
▁rate	-13781
▁situação	-13782
▁manter	-13783
▁conflic	-13784
łączy	-13785
▁consist	-13786
▁rode	-13787
▁brukar	-13788
▁reprodu	-13789
▁relative	-13790
▁verte	-13791
▁især	-13792
▁lyst	-13793
anow	-13794
▁Kopf	-13795
▁facebook	-13796
▁dettag	-13797
▁ojos	-13798
▁running	-13799
▁reform	-13800
▁giornata	-13801
▁Sar	-13802
eland	-13803
▁domic	-13804
▁Harry	-13805
zymy	-13806
▁hurtig	-13807
Est	-13808
acks	-13809
▁interview	-13810
▁jurid	-13811
▁middag	-13812
▁kyr	-13813
sför	-13814
▁descub	-13815
▁hacerlo	-13816
nads	-13817
▁Energie	-13818
▁zapr	-13819
▁utveckling	-13820
▁produktów	-13821
▁kæm	-13822
▁Kenn	-13823
▁krig	-13824
▁machine	-13825
▁feu	-13826
▁eneste	-13827
ulter	-13828
værende	-13829
▁Są	-13830
▁percorso	-13831
▁beta	-13832
szcz	-13833
▁Arm	-13834
▁Assim	-13835
▁besök	-13836
▁history	-13837
▁belo	-13838
cons	-13839
kraft	-13840
▁destino	-13841
▁przedstaw	-13842
▁scon	-13843
bold	-13844
stadt	-13845
▁further	-13846
▁dient	-13847
▁norte	-13848
▁prol	-13849
antil	-13850
▁chap	-13851
▁geral	-13852
▁pian	-13853
▁study	-13854
▁encontra	-13855
avond	-13856
▁zami	-13857
æster	-13858
▁Cert	-13859
▁Barcel	-13860
▁drin	-13861
amma	-13862
holde	-13863
▁einde	-13864
▁macch	-13865
bund	-13866
▁veckor	-13867
▁aiut	-13868
inh	-13869
▁volver	-13870
▁commercial	-13871
▁cuales	-13872
▁políticas	-13873
▁salle	-13874
▁primi	-13875
▁fyl	-13876
rique	-13877
owano	-13878
▁encou	-13879
esc	-13880
woju	-13881
▁Quel	-13882
▁Instituto	-13883
▁äm	-13884
▁ausge	-13885
eca	-13886
▁effetti	-13887
▁utanför	-13888
Ik	-13889
▁vacc	-13890
▁Green	-13891
▁voyage	-13892
▁assic	-13893
ulation	-13894
▁dispar	-13895
oger	-13896
verket	-13897
zł	-13898
bered	-13899
uales	-13900
▁innerhalb	-13901
▁ziel	-13902
othe	-13903
iennent	-13904
▁Öster	-13905
▁förhåll	-13906
▁Ministério	-13907
▁raczej	-13908
pare	-13909
")	-13910
bod	-13911
▁format	-13912
▁ottenere	-13913
▁soul	-13914
▁lost	-13915
▁Santo	-13916
univers	-13917
zał	-13918
▁gemak	-13919
▁pię	-13920
▁pedido	-13921
yser	-13922
▁energet	-13923
▁companies	-13924
▁frut	-13925
ibi	-13926
▁vedr	-13927
▁Abend	-13928
▁Hola	-13929
▁virtu	-13930
▁bedrijven	-13931
Er	-13932
ienti	-13933
outer	-13934
▁ormai	-13935
▁tänka	-13936
▁prendere	-13937
ruik	-13938
▁stap	-13939
▁Ahora	-13940
▁gwar	-13941
▁augusti	-13942
osen	-13943
reci	-13944
▁besteht	-13945
▁Públ	-13946
▁étant	-13947
kommer	-13948
▁Marie	-13949
▁senc	-13950
oline	-13951
board	-13952
▁ambient	-13953
▁drink	-13954
▁hijos	-13955
▁niezw	-13956
▁Sko	-13957
uddann	-13958
▁unterschied	-13959
izzare	-13960
▁znacz	-13961
reira	-13962
▁Software	-13963
elingen	-13964
▁bringen	-13965
▁ata	-13966
olta	-13967
▁results	-13968
▁ayudar	-13969
▁feest	-13970
▁Lors	-13971
▁meld	-13972
▁quelqu	-13973
▁incom	-13974
▁dysk	-13975
▁keuze	-13976
▁gór	-13977
▁huset	-13978
▁Veranst	-13979
volver	-13980
▁troub	-13981
▁travel	-13982
bog	-13983
▁tratamento	-13984
▁piccolo	-13985
views	-13986
▁begge	-13987
owanej	-13988
▁Pok	-13989
▁voet	-13990
▁profit	-13991
▁samym	-13992
osc	-13993
▁efficace	-13994
icin	-13995
▁verst	-13996
igheid	-13997
▁acho	-13998
▁börja	-13999
▁kuch	-14000
▁betaling	-14001
▁głos	-14002
▁Ev	-14003
órias	-14004
istic	-14005
▁ultimi	-14006
uencia	-14007
▁panor	-14008
▁przedsiębior	-14009
zyj	-14010
▁stats	-14011
▁scritto	-14012
▁indtil	-14013
sida	-14014
vise	-14015
▁trend	-14016
LI	-14017
▁maggio	-14018
histoire	-14019
▁volunt	-14020
▁Maß	-14021
▁sería	-14022
▁barr	-14023
PO	-14024
dec	-14025
▁direction	-14026
▁mira	-14027
▁spieg	-14028
owości	-14029
▁skle	-14030
cznych	-14031
pflicht	-14032
▁locale	-14033
gener	-14034
▁comida	-14035
▁nostre	-14036
▁mör	-14037
▁dou	-14038
▁Aff	-14039
▁America	-14040
▁spons	-14041
▁partire	-14042
ześnie	-14043
verg	-14044
▁giugno	-14045
▁milieu	-14046
▁reconhe	-14047
▁clienti	-14048
abol	-14049
▁Decreto	-14050
emi	-14051
▁envo	-14052
▁Find	-14053
▁fert	-14054
▁zdecyd	-14055
▁fing	-14056
▁remar	-14057
▁Jose	-14058
▁Lage	-14059
▁registra	-14060
▁fælles	-14061
▁déb	-14062
▁Seiten	-14063
gers	-14064
▁pages	-14065
▁bab	-14066
▁sait	-14067
▁enfin	-14068
▁dagens	-14069
▁avanz	-14070
▁descr	-14071
brig	-14072
▁teknik	-14073
▁solche	-14074
▁population	-14075
werb	-14076
idual	-14077
riften	-14078
▁Consultado	-14079
emment	-14080
entligt	-14081
bot	-14082
▁mantener	-14083
▁consol	-14084
▁intent	-14085
oltà	-14086
▁appena	-14087
▁creare	-14088
selves	-14089
So	-14090
▁Led	-14091
▁havia	-14092
▁Internacional	-14093
▁adel	-14094
▁Eind	-14095
▁Hard	-14096
ât	-14097
▁somente	-14098
alny	-14099
gin	-14100
▁SM	-14101
ieux	-14102
liśmy	-14103
▁lös	-14104
▁ayant	-14105
jahr	-14106
sehen	-14107
ificio	-14108
▁listop	-14109
▁vivre	-14110
▁drew	-14111
▁fiz	-14112
▁rang	-14113
▁indispens	-14114
ligevel	-14115
▁dól	-14116
▁nesse	-14117
▁ME	-14118
...”	-14119
spir	-14120
▁abbia	-14121
htt	-14122
▁William	-14123
▁devo	-14124
oid	-14125
▁Pros	-14126
▁gras	-14127
▁ottobre	-14128
▁march	-14129
politik	-14130
waarden	-14131
▁Econom	-14132
▁juin	-14133
▁Przed	-14134
▁Ihrem	-14135
▁Nieuw	-14136
▁villa	-14137
▁potraf	-14138
▁Bag	-14139
UC	-14140
▁polec	-14141
▁among	-14142
▁loss	-14143
▁toekomst	-14144
▁Genom	-14145
▁bedeut	-14146
ancias	-14147
▁employe	-14148
▁personnel	-14149
▁hommes	-14150
▁accepter	-14151
besch	-14152
vall	-14153
▁nadzie	-14154
▁James	-14155
App	-14156
▁Brand	-14157
rasse	-14158
▁Lar	-14159
▁Fly	-14160
besondere	-14161
▁Spaß	-14162
▁Integr	-14163
▁Prima	-14164
▁zondag	-14165
inhas	-14166
▁harmon	-14167
▁quienes	-14168
KA	-14169
▁middel	-14170
hington	-14171
▁pend	-14172
varer	-14173
▁Bec	-14174
▁Bir	-14175
▁Agora	-14176
▁udfordr	-14177
lov	-14178
▁glaub	-14179
▁prosp	-14180
ciel	-14181
▁imagen	-14182
▁While	-14183
owymi	-14184
▁præs	-14185
üd	-14186
▁espera	-14187
▁Nova	-14188
rote	-14189
▁reflex	-14190
▁sætte	-14191
▁direttamente	-14192
▁cursos	-14193
▁física	-14194
▁forza	-14195
▁resten	-14196
▁liges	-14197
▁hell	-14198
▁jedynie	-14199
ficie	-14200
gegevens	-14201
▁himself	-14202
▁gestión	-14203
▁capacità	-14204
▁livros	-14205
acyjne	-14206
▁Anne	-14207
▁zbyt	-14208
etzen	-14209
itato	-14210
▁entreprises	-14211
▁voort	-14212
wendung	-14213
▁mówi	-14214
uite	-14215
łasz	-14216
▁chwil	-14217
▁Phil	-14218
▁bezpiecze	-14219
owanego	-14220
arbeitung	-14221
▁salon	-14222
eless	-14223
▁dolor	-14224
jerg	-14225
igkeiten	-14226
Vi	-14227
▁nedan	-14228
▁verific	-14229
▁modelos	-14230
▁Cond	-14231
gaan	-14232
welt	-14233
ource	-14234
▁compat	-14235
▁peur	-14236
▁sitter	-14237
▁decyz	-14238
▁elektry	-14239
▁anticip	-14240
esk	-14241
▁fredag	-14242
▁względu	-14243
örer	-14244
▁Stelle	-14245
▁colabor	-14246
mans	-14247
aves	-14248
▁besøg	-14249
▁Muito	-14250
▁läs	-14251
ijl	-14252
derung	-14253
▁seri	-14254
atrice	-14255
▁required	-14256
▁organisatie	-14257
▁uite	-14258
▁dzieck	-14259
dor	-14260
▁energy	-14261
▁traz	-14262
▁vender	-14263
▁fazendo	-14264
▁markt	-14265
▁opdracht	-14266
ectac	-14267
ionych	-14268
▁manhã	-14269
▁kontroll	-14270
kta	-14271
ąp	-14272
øver	-14273
▁salute	-14274
gry	-14275
immen	-14276
▁omfatt	-14277
tas	-14278
▁Want	-14279
łączyć	-14280
igar	-14281
▁tanti	-14282
kommt	-14283
▁laisse	-14284
bundet	-14285
▁debido	-14286
xis	-14287
stwo	-14288
▁portal	-14289
▁czar	-14290
▁mother	-14291
▁Kamp	-14292
▁powinien	-14293
▁verke	-14294
geber	-14295
▁trein	-14296
▁sexta	-14297
tor	-14298
▁besö	-14299
gele	-14300
▁beper	-14301
▁Laat	-14302
sex	-14303
▁irá	-14304
▁septembre	-14305
▁hall	-14306
rezz	-14307
▁fasc	-14308
▁bic	-14309
▁Gesellschaft	-14310
▁ål	-14311
▁Seit	-14312
▁Kli	-14313
▁investigación	-14314
▁chacun	-14315
wane	-14316
▁elsker	-14317
▁hør	-14318
▁lab	-14319
▁aren	-14320
▁alguém	-14321
ray	-14322
▁miles	-14323
▁Carlos	-14324
▁Disk	-14325
▁liggen	-14326
▁Kommentar	-14327
▁giovani	-14328
▁adequ	-14329
▁Sor	-14330
ktions	-14331
▁pratique	-14332
utiliz	-14333
▁szczę	-14334
▁Ej	-14335
▁frais	-14336
▁return	-14337
▁Parl	-14338
▁histoire	-14339
▁cultural	-14340
TS	-14341
▁krót	-14342
▁respuesta	-14343
▁SC	-14344
▁nécessaire	-14345
▁paździer	-14346
▁Have	-14347
▁propag	-14348
▁ambos	-14349
▁razón	-14350
▁oct	-14351
baren	-14352
▁Bürger	-14353
▁toil	-14354
zeg	-14355
▁dejting	-14356
▁bedst	-14357
▁alunos	-14358
▁Mult	-14359
▁Ford	-14360
▁techniques	-14361
▁truc	-14362
BR	-14363
▁ther	-14364
▁Luc	-14365
▁lagt	-14366
cimientos	-14367
▁tue	-14368
▁Inde	-14369
▁forh	-14370
▁figura	-14371
alg	-14372
▁trady	-14373
▁SV	-14374
▁Haupt	-14375
▁uomini	-14376
▁vise	-14377
▁élément	-14378
▁pessoal	-14379
mina	-14380
▁Winter	-14381
▁lesen	-14382
nocześnie	-14383
elijkheid	-14384
vård	-14385
▁Niem	-14386
owę	-14387
▁necesidades	-14388
▁Sym	-14389
▁bepaalde	-14390
▁Ori	-14391
abilidade	-14392
▁Cur	-14393
▁Schüler	-14394
▁handelt	-14395
dienst	-14396
▁spett	-14397
▁langer	-14398
▁boeken	-14399
▁Dol	-14400
▁aspectos	-14401
▁Reise	-14402
▁Ron	-14403
▁maybe	-14404
ycznego	-14405
▁interés	-14406
uais	-14407
isso	-14408
▁rischio	-14409
udem	-14410
▁Kvin	-14411
▁DK	-14412
▁Sho	-14413
▁Kla	-14414
▁Hosp	-14415
▁stage	-14416
▁drag	-14417
wą	-14418
endar	-14419
▁tänker	-14420
▁rut	-14421
▁Ofer	-14422
▁brev	-14423
område	-14424
gruppen	-14425
▁krijg	-14426
▁lägga	-14427
▁Namen	-14428
▁droits	-14429
▁SER	-14430
▁rekening	-14431
▁alls	-14432
▁mauv	-14433
▁riesgo	-14434
isco	-14435
▁środow	-14436
iese	-14437
▁permette	-14438
abezpie	-14439
▁donné	-14440
łoży	-14441
▁dwie	-14442
▁minutter	-14443
▁driver	-14444
▁lun	-14445
▁tecnolog	-14446
▁wrze	-14447
▁Körper	-14448
Mar	-14449
▁amici	-14450
▁Ka	-14451
▁estará	-14452
staat	-14453
cter	-14454
▁kaum	-14455
▁rzecz	-14456
▁Szcz	-14457
▁fout	-14458
▁repet	-14459
uição	-14460
finden	-14461
▁regionale	-14462
▁ständ	-14463
êmes	-14464
▁acciones	-14465
attività	-14466
alten	-14467
▁ones	-14468
▁kommet	-14469
iao	-14470
▁brut	-14471
zeichnet	-14472
quement	-14473
▁vård	-14474
▁OR	-14475
▁Rus	-14476
pag	-14477
houden	-14478
▁fini	-14479
▁acquist	-14480
▁República	-14481
▁hizo	-14482
▁studer	-14483
▁guten	-14484
▁quieres	-14485
ADO	-14486
▁fonte	-14487
▁kompet	-14488
▁kijk	-14489
▁oben	-14490
mærksom	-14491
%)	-14492
▁sun	-14493
ministrazione	-14494
dziemy	-14495
ibilidade	-14496
▁cabeza	-14497
▁Innehåll	-14498
▁idée	-14499
▁bygger	-14500
▁kiezen	-14501
▁parad	-14502
▁estad	-14503
▁Wikipedia	-14504
middag	-14505
genomen	-14506
▁dép	-14507
▁rod	-14508
▁nível	-14509
▁istnie	-14510
▁outside	-14511
▁Januar	-14512
▁efectos	-14513
áticos	-14514
▁parker	-14515
zył	-14516
▁struttura	-14517
▁Sud	-14518
▁kraju	-14519
Cu	-14520
▁definitely	-14521
kas	-14522
▁indeholder	-14523
▁parties	-14524
center	-14525
▁zei	-14526
ylland	-14527
▁usually	-14528
▁Museum	-14529
position	-14530
▁hombres	-14531
ológico	-14532
▁Def	-14533
▁terme	-14534
▁aumentar	-14535
▁nowy	-14536
▁Frei	-14537
ability	-14538
▁YouTube	-14539
▁dém	-14540
▁objeto	-14541
▁Lag	-14542
▁aanwezig	-14543
orier	-14544
ended	-14545
▁Sou	-14546
▁fans	-14547
▁contenido	-14548
ods	-14549
▁rodzaju	-14550
▁manos	-14551
▁formación	-14552
▁ideale	-14553
▁normas	-14554
▁borg	-14555
▁uważ	-14556
exp	-14557
▁Kraft	-14558
▁Costa	-14559
▁korzyst	-14560
▁Belgi	-14561
▁handen	-14562
▁Centrum	-14563
▁Inc	-14564
▁preço	-14565
▁horr	-14566
▁Tagen	-14567
▁environment	-14568
▁świata	-14569
neo	-14570
▁máqu	-14571
▁blogs	-14572
▁deleg	-14573
▁kategori	-14574
▁zoeken	-14575
wki	-14576
▁kommit	-14577
▁Jud	-14578
immung	-14579
▁arbeiten	-14580
▁dürfen	-14581
▁funciona	-14582
▁eviden	-14583
▁parle	-14584
abiliz	-14585
▁ampli	-14586
▁Auss	-14587
▁stof	-14588
ériode	-14589
ipend	-14590
▁federal	-14591
▁celebr	-14592
▁dead	-14593
▁perfe	-14594
givet	-14595
kers	-14596
▁School	-14597
▁oczywiście	-14598
elligen	-14599
▁browser	-14600
▁religi	-14601
▁solidar	-14602
▁Brasile	-14603
▁proporcion	-14604
▁zmian	-14605
▁usa	-14606
▁schoon	-14607
▁karakter	-14608
HA	-14609
▁licha	-14610
▁ouv	-14611
▁Cy	-14612
▁DU	-14613
▁Obama	-14614
▁lives	-14615
équip	-14616
▁white	-14617
▁deutlich	-14618
▁följande	-14619
▁contempor	-14620
▁qualcuno	-14621
▁preso	-14622
▁razy	-14623
▁command	-14624
▁särskilt	-14625
▁laver	-14626
Con	-14627
▁resa	-14628
chy	-14629
▁gegeven	-14630
▁halen	-14631
▁takes	-14632
▁industry	-14633
▁stare	-14634
▁TO	-14635
świetl	-14636
▁compens	-14637
▁aso	-14638
▁titolo	-14639
▁refle	-14640
▁eigene	-14641
tan	-14642
▁Vores	-14643
▁Även	-14644
frist	-14645
▁dicas	-14646
izados	-14647
▁woord	-14648
▁primero	-14649
▁diam	-14650
▁knowledge	-14651
▁außer	-14652
▁naast	-14653
▁Twe	-14654
▁Mess	-14655
▁env	-14656
▁salari	-14657
upu	-14658
▁Meg	-14659
▁guerre	-14660
▁œ	-14661
ultimo	-14662
gever	-14663
▁souff	-14664
pañ	-14665
habil	-14666
▁aí	-14667
▁mógł	-14668
atuur	-14669
▁ende	-14670
▁stessi	-14671
agi	-14672
▁ações	-14673
szyscy	-14674
▁diciembre	-14675
zimmer	-14676
▁appart	-14677
pośred	-14678
icznego	-14679
▁imagem	-14680
▁actions	-14681
▁przer	-14682
▁azi	-14683
ination	-14684
▁sider	-14685
▁Atl	-14686
▁mãe	-14687
▁BE	-14688
▁road	-14689
▁vacances	-14690
▁swój	-14691
▁Hilfe	-14692
zm	-14693
▁erfolg	-14694
▁powiet	-14695
▁hjer	-14696
▁projektu	-14697
▁lingu	-14698
page	-14699
▁publi	-14700
▁vänner	-14701
▁PO	-14702
associ	-14703
▁Bry	-14704
▁bäst	-14705
▁guess	-14706
ziende	-14707
▁turned	-14708
▁goes	-14709
▁upplev	-14710
czes	-14711
licka	-14712
▁talking	-14713
▁välja	-14714
▁riguarda	-14715
eringen	-14716
▁instant	-14717
▁mogelijkheden	-14718
▁terecht	-14719
▁revel	-14720
▁toppen	-14721
▁indhold	-14722
epen	-14723
gående	-14724
▁faud	-14725
▁Constitu	-14726
loss	-14727
▁Vict	-14728
pektiv	-14729
▁Rol	-14730
▁perten	-14731
▁odpowiedz	-14732
▁einzel	-14733
▁producer	-14734
▁böcker	-14735
itre	-14736
▁confr	-14737
▁pull	-14738
▁Aunque	-14739
▁privacy	-14740
▁Há	-14741
▁obsz	-14742
mbito	-14743
▁track	-14744
▁precies	-14745
▁João	-14746
▁FC	-14747
▁Nacht	-14748
▁poza	-14749
ujący	-14750
contre	-14751
ducation	-14752
▁regol	-14753
▁salg	-14754
vd	-14755
▁takim	-14756
▁tuin	-14757
pack	-14758
▁verksamhet	-14759
▁Millionen	-14760
▁documentos	-14761
espr	-14762
▁erfaren	-14763
▁nauk	-14764
▁events	-14765
▁Ken	-14766
GR	-14767
▁obiekt	-14768
▁calor	-14769
▁Meinung	-14770
enseign	-14771
▁pomocy	-14772
▁proyectos	-14773
ingungen	-14774
køb	-14775
▁Før	-14776
middels	-14777
▁betek	-14778
▁Danske	-14779
zeitig	-14780
ęg	-14781
▁padres	-14782
▁aquellos	-14783
▁forskning	-14784
▁tats	-14785
▁læk	-14786
owod	-14787
ícula	-14788
adań	-14789
remo	-14790
ench	-14791
▁Fond	-14792
▁obiett	-14793
▁sangue	-14794
aute	-14795
▁bilen	-14796
laget	-14797
▁places	-14798
nergie	-14799
▁zeigt	-14800
▁stille	-14801
▁Ora	-14802
dresse	-14803
▁kund	-14804
▁fich	-14805
▁kopen	-14806
zier	-14807
ervice	-14808
▁afsl	-14809
▁sæl	-14810
NO	-14811
▁fals	-14812
▁kolle	-14813
▁miljo	-14814
▁Fakt	-14815
▁outubro	-14816
uller	-14817
▁conosc	-14818
▁advert	-14819
▁Ecco	-14820
iby	-14821
▁Washington	-14822
wają	-14823
▁nigdy	-14824
▁résult	-14825
▁Frem	-14826
▁arrive	-14827
▁autoridades	-14828
avía	-14829
nale	-14830
▁verantwoord	-14831
▁Sing	-14832
▁aleg	-14833
▁steg	-14834
▁pelle	-14835
▁protest	-14836
▁consomm	-14837
xito	-14838
▁themselves	-14839
▁golf	-14840
▁financial	-14841
▁States	-14842
▁Ext	-14843
▁période	-14844
onego	-14845
▁indem	-14846
▁obtener	-14847
üns	-14848
▁afstand	-14849
▁næv	-14850
▁assunto	-14851
medi	-14852
abord	-14853
▁Groß	-14854
▁forest	-14855
▁skolan	-14856
älld	-14857
▁arbetar	-14858
ibiliz	-14859
▁matière	-14860
▁tenido	-14861
ftrag	-14862
rafo	-14863
weit	-14864
▁Sedan	-14865
kste	-14866
▁montr	-14867
▁Wahr	-14868
▁farm	-14869
▁Cin	-14870
▁Jacob	-14871
føre	-14872
▁simp	-14873
▁dobry	-14874
▁dniu	-14875
▁schade	-14876
▁Kil	-14877
▁Tür	-14878
▁esas	-14879
▁speł	-14880
▁Pak	-14881
▁créer	-14882
▁mucha	-14883
âmara	-14884
▁comm	-14885
▁Soc	-14886
▁frei	-14887
scht	-14888
▁Dinge	-14889
iting	-14890
azo	-14891
▁vanligt	-14892
▁Ther	-14893
kal	-14894
▁innymi	-14895
▁schrift	-14896
qual	-14897
▁tradicional	-14898
▁demasiado	-14899
▁Wed	-14900
▁Syn	-14901
kare	-14902
▁MS	-14903
▁propia	-14904
ywidual	-14905
Ass	-14906
▁quarta	-14907
▁comple	-14908
▁principale	-14909
▁moim	-14910
▁decide	-14911
ième	-14912
▁Kön	-14913
łud	-14914
▁gesam	-14915
▁recent	-14916
▁condições	-14917
▁pequen	-14918
cię	-14919
▁catt	-14920
stof	-14921
▁added	-14922
werkers	-14923
▁dezembro	-14924
▁ervoor	-14925
▁cykl	-14926
html	-14927
▁biał	-14928
▁minor	-14929
éf	-14930
▁esf	-14931
usión	-14932
ängen	-14933
holdet	-14934
uwd	-14935
▁zostały	-14936
▁Ring	-14937
▁mesa	-14938
ąć	-14939
▁tiver	-14940
▁útil	-14941
▁Tribunal	-14942
lera	-14943
▁profesionales	-14944
▁State	-14945
▁frü	-14946
estes	-14947
▁diag	-14948
▁parlare	-14949
alender	-14950
▁rete	-14951
▁oportunidad	-14952
▁Pon	-14953
▁Maj	-14954
▁déclar	-14955
▁opmærksom	-14956
ijzen	-14957
ężczy	-14958
▁gesehen	-14959
dure	-14960
kking	-14961
▁quinta	-14962
▁Store	-14963
▁Tv	-14964
▁Ange	-14965
▁Uw	-14966
▁feeling	-14967
alet	-14968
▁ahí	-14969
▁option	-14970
▁acerca	-14971
▁jedno	-14972
skolan	-14973
▁England	-14974
ijo	-14975
ünsche	-14976
▁nutzen	-14977
MI	-14978
▁løbet	-14979
ourd	-14980
ranken	-14981
strijd	-14982
▁visitar	-14983
heids	-14984
▁Andre	-14985
▁Note	-14986
ięku	-14987
▁sten	-14988
▁gouvernement	-14989
▁positiv	-14990
▁begre	-14991
▁jednej	-14992
▁genieten	-14993
▁Bran	-14994
▁partido	-14995
▁construction	-14996
▁zet	-14997
owanym	-14998
après	-14999
zyd	-15000
▁institution	-15001
ups	-15002
▁images	-15003
▁bescher	-15004
▁skole	-15005
▁potencial	-15006
▁bow	-15007
esses	-15008
▁urb	-15009
▁kru	-15010
▁propio	-15011
klaring	-15012
▁Sid	-15013
▁serán	-15014
▁Mittel	-15015
alização	-15016
▁patienter	-15017
▁Street	-15018
ningarna	-15019
▁campan	-15020
▁undersøg	-15021
ærer	-15022
kår	-15023
Univers	-15024
▁fün	-15025
▁siè	-15026
kald	-15027
▁esperienza	-15028
▁DS	-15029
▁Zap	-15030
▁kupić	-15031
▁negocio	-15032
dop	-15033
▁demander	-15034
bern	-15035
▁niestety	-15036
ueil	-15037
▁gegeben	-15038
▁guida	-15039
▁honor	-15040
▁położ	-15041
▁terce	-15042
▁Kos	-15043
▁klasse	-15044
▁kvinde	-15045
ínio	-15046
▁books	-15047
halte	-15048
uiten	-15049
▁comunicazione	-15050
▁würden	-15051
icl	-15052
▁ogól	-15053
erende	-15054
▁Zijn	-15055
redo	-15056
jami	-15057
emde	-15058
▁zaję	-15059
▁heißt	-15060
▁couldn	-15061
▁options	-15062
▁houdt	-15063
▁memoria	-15064
▁offen	-15065
▁energía	-15066
eblik	-15067
▁linha	-15068
iseerd	-15069
▁meerdere	-15070
idea	-15071
▁prawa	-15072
▁netto	-15073
kung	-15074
ecta	-15075
▁Kauf	-15076
▁verwacht	-15077
▁oub	-15078
▁Æ	-15079
▁consegui	-15080
▁Arbej	-15081
assing	-15082
▁indir	-15083
▁Daarnaast	-15084
niego	-15085
sprogram	-15086
iad	-15087
▁immediat	-15088
äß	-15089
▁wpływ	-15090
▁range	-15091
▁click	-15092
▁slaap	-15093
▁Sek	-15094
föra	-15095
▁solutions	-15096
adz	-15097
▁salir	-15098
▁głoś	-15099
▁written	-15100
▁anz	-15101
▁registro	-15102
▁thanks	-15103
▁lekar	-15104
▁tagit	-15105
acyjnych	-15106
▁VER	-15107
▁zaz	-15108
▁möjlighet	-15109
▁Kole	-15110
czki	-15111
▁sne	-15112
▁Gegen	-15113
▁balance	-15114
▁joue	-15115
▁senior	-15116
▁Dos	-15117
▁woning	-15118
szą	-15119
elos	-15120
▁opportunity	-15121
éns	-15122
etes	-15123
▁président	-15124
▁ontvangen	-15125
▁gewesen	-15126
▁Love	-15127
wh	-15128
▁urs	-15129
▁jeżeli	-15130
▁Agr	-15131
▁recente	-15132
▁lavori	-15133
▁dovrebbe	-15134
▁mød	-15135
▁potem	-15136
▁Gesund	-15137
▁garder	-15138
icket	-15139
▁verschiedenen	-15140
weisen	-15141
▁tac	-15142
iable	-15143
værelse	-15144
▁infrast	-15145
stal	-15146
▁hjälpa	-15147
łac	-15148
▁Tamb	-15149
▁Lund	-15150
▁laquelle	-15151
icach	-15152
▁hjemme	-15153
rupt	-15154
▁alcanz	-15155
▁taka	-15156
▁News	-15157
▁indywidual	-15158
▁Quem	-15159
▁dicht	-15160
iling	-15161
▁Bez	-15162
inaus	-15163
▁print	-15164
▁kaffe	-15165
▁frequent	-15166
▁precios	-15167
▁overs	-15168
▁Está	-15169
▁ontvang	-15170
▁Bak	-15171
▁jas	-15172
hnung	-15173
▁mettere	-15174
▁prática	-15175
▁Varför	-15176
▁presentes	-15177
hæng	-15178
▁einge	-15179
maak	-15180
rost	-15181
▁leeftijd	-15182
▁inderdaad	-15183
▁gennaio	-15184
▁juillet	-15185
▁quattro	-15186
▁Gedan	-15187
▁Mutter	-15188
▁certainly	-15189
▁hoogte	-15190
▁présente	-15191
▁municipal	-15192
▁erk	-15193
▁principe	-15194
bach	-15195
anset	-15196
öjd	-15197
▁puedan	-15198
▁Tysk	-15199
flex	-15200
▁Arr	-15201
igde	-15202
▁znalaz	-15203
▁varandra	-15204
▁vlie	-15205
▁umożli	-15206
▁entfer	-15207
▁plug	-15208
▁coordin	-15209
▁confian	-15210
▁mismos	-15211
▁titt	-15212
isches	-15213
icap	-15214
▁niente	-15215
▁jedn	-15216
▁meteen	-15217
▁gelu	-15218
tej	-15219
▁trouvé	-15220
▁pau	-15221
▁pacientes	-15222
▁Pens	-15223
▁geheel	-15224
▁wouldn	-15225
▁entanto	-15226
▁diseño	-15227
On	-15228
▁leicht	-15229
▁save	-15230
boll	-15231
▁formål	-15232
▁Beitrag	-15233
▁gebouw	-15234
spraak	-15235
▁multip	-15236
▁giro	-15237
▁Fotos	-15238
▁swojego	-15239
▁Power	-15240
▁confir	-15241
ivill	-15242
▁Damit	-15243
▁Wert	-15244
▁camping	-15245
rott	-15246
▁fejl	-15247
▁paper	-15248
▁tviv	-15249
▁novembro	-15250
IDAD	-15251
▁abit	-15252
▁chr	-15253
ificazione	-15254
ostas	-15255
bene	-15256
homme	-15257
▁verpl	-15258
▁stär	-15259
schrift	-15260
▁Associ	-15261
iders	-15262
ujących	-15263
istrz	-15264
▁learning	-15265
feer	-15266
▁Probleme	-15267
▁retro	-15268
▁NY	-15269
▁discut	-15270
▁jobbet	-15271
▁skad	-15272
▁Sistema	-15273
▁estás	-15274
▁fiscal	-15275
łej	-15276
▁świę	-15277
schijnlijk	-15278
gren	-15279
▁president	-15280
ulares	-15281
[...]
