<unk>	0
<s>	0
</s>	0

	0


	0



	0




	0





	0






	0







	0








	0









	0










	0











	0












	0













	0














	0















	0
















	0

















	0


















	0



















	0




















	0





















	0






















	0























	0
























	0

























	0


























	0



























	0




























	0





























	0






























	0































	0
▁▁	0
▁▁▁	0
▁▁▁▁	0
▁▁▁▁▁	0
▁▁▁▁▁▁	0
▁▁▁▁▁▁▁	0
▁▁▁▁▁▁▁▁	0
▁▁▁▁▁▁▁▁▁	0
▁▁▁▁▁▁▁▁▁▁	0
▁▁▁▁▁▁▁▁▁▁▁	0
▁▁▁▁▁▁▁▁▁▁▁▁	0
▁▁▁▁▁▁▁▁▁▁▁▁▁	0
▁▁▁▁▁▁▁▁▁▁▁▁▁▁	0
▁▁▁▁▁▁▁▁▁▁▁▁▁▁▁	0
▁▁▁▁▁▁▁▁▁▁▁▁▁▁▁▁	0
▁▁▁▁▁▁▁▁▁▁▁▁▁▁▁▁▁	0
▁▁▁▁▁▁▁▁▁▁▁▁▁▁▁▁▁▁	0
▁▁▁▁▁▁▁▁▁▁▁▁▁▁▁▁▁▁▁	0
▁▁▁▁▁▁▁▁▁▁▁▁▁▁▁▁▁▁▁▁	0
▁▁▁▁▁▁▁▁▁▁▁▁▁▁▁▁▁▁▁▁▁	0
▁▁▁▁▁▁▁▁▁▁▁▁▁▁▁▁▁▁▁▁▁▁	0
▁▁▁▁▁▁▁▁▁▁▁▁▁▁▁▁▁▁▁▁▁▁▁	0
▁▁▁▁▁▁▁▁▁▁▁▁▁▁▁▁▁▁▁▁▁▁▁▁	0
▁▁▁▁▁▁▁▁▁▁▁▁▁▁▁▁▁▁▁▁▁▁▁▁▁	0
▁▁▁▁▁▁▁▁▁▁▁▁▁▁▁▁▁▁▁▁▁▁▁▁▁▁	0
▁▁▁▁▁▁▁▁▁▁▁▁▁▁▁▁▁▁▁▁▁▁▁▁▁▁▁	0
▁▁▁▁▁▁▁▁▁▁▁▁▁▁▁▁▁▁▁▁▁▁▁▁▁▁▁▁	0
▁▁▁▁▁▁▁▁▁▁▁▁▁▁▁▁▁▁▁▁▁▁▁▁▁▁▁▁▁	0
▁▁▁▁▁▁▁▁▁▁▁▁▁▁▁▁▁▁▁▁▁▁▁▁▁▁▁▁▁▁	0
▁▁▁▁▁▁▁▁▁▁▁▁▁▁▁▁▁▁▁▁▁▁▁▁▁▁▁▁▁▁▁	0
<table>	0
<caption>	0
<thead>	0
<tbody>	0
<tfoot>	0
<tr>	0
<th>	0
<td>	0
</table>	0
</caption>	0
</thead>	0
</tbody>	0
</tfoot>	0
</tr>	0
</th>	0
</td>	0
<h1>	0
<h2>	0
<h3>	0
<h4>	0
<h5>	0
<h6>	0
<blockquote>	0
</h1>	0
</h2>	0
</h3>	0
</h4>	0
</h5>	0
</h6>	0
</blockquote>	0
<strong>	0
<em>	0
<b>	0
<i>	0
<u>	0
<sub>	0
<sup>	0
<code>	0
</strong>	0
</em>	0
</b>	0
</i>	0
</u>	0
</sub>	0
</sup>	0
</code>	0
		0
<mask>	0
<2mass>	0
[@BOS@]	0
<unused0>	0
<unused1>	0
<unused2>	0
<unused3>	0
<unused4>	0
<unused5>	0
<unused6>	0
<unused7>	0
<unused8>	0
<unused9>	0
<unused10>	0
<unused11>	0
<unused12>	0
<unused13>	0
<unused14>	0
<unused15>	0
<unused16>	0
<unused17>	0
<unused18>	0
<unused19>	0
<unused20>	0
<unused21>	0
<unused22>	0
<unused23>	0
<unused24>	0
<unused25>	0
<unused26>	0
<unused27>	0
<unused28>	0
<unused29>	0
<unused30>	0
<unused31>	0
<unused32>	0
<unused33>	0
<unused34>	0
<unused35>	0
<unused36>	0
<unused37>	0
<unused38>	0
<unused39>	0
<unused40>	0
<unused41>	0
<unused42>	0
<unused43>	0
<unused44>	0
<unused45>	0
<unused46>	0
<unused47>	0
<unused48>	0
<unused49>	0
<unused50>	0
<unused51>	0
<unused52>	0
<unused53>	0
<unused54>	0
<unused55>	0
<unused56>	0
<unused57>	0
<unused58>	0
<unused59>	0
<unused60>	0
<unused61>	0
<unused62>	0
<unused63>	0
<unused64>	0
<unused65>	0
<unused66>	0
<unused67>	0
<unused68>	0
<unused69>	0
<unused70>	0
<unused71>	0
<unused72>	0
<unused73>	0
<unused74>	0
<unused75>	0
<unused76>	0
<unused77>	0
<unused78>	0
<unused79>	0
<unused80>	0
<unused81>	0
<unused82>	0
<unused83>	0
<unused84>	0
<unused85>	0
<unused86>	0
<unused87>	0
<unused88>	0
<unused89>	0
<unused90>	0
<unused91>	0
<unused92>	0
<unused93>	0
<unused94>	0
<unused95>	0
<unused96>	0
<unused97>	0
<unused98>	0
00	0
01	0
02	0
03	0
04	0
05	0
06	0
07	0
08	0
09	0
10	0
11	0
12	0
13	0
14	0
15	0
16	0
17	0
18	0
19	0
20	0
21	0
22	0
23	0
24	0
25	0
26	0
27	0
28	0
29	0
30	0
31	0
32	0
33	0
34	0
35	0
36	0
37	0
38	0
39	0
40	0
41	0
42	0
43	0
44	0
45	0
46	0
47	0
48	0
49	0
50	0
51	0
52	0
53	0
54	0
55	0
56	0
57	0
58	0
59	0
60	0
61	0
62	0
63	0
64	0
65	0
66	0
67	0
68	0
69	0
70	0
71	0
72	0
73	0
74	0
75	0
76	0
77	0
78	0
79	0
80	0
81	0
82	0
83	0
84	0
85	0
86	0
87	0
88	0
89	0
90	0
91	0
92	0
93	0
94	0
95	0
96	0
97	0
98	0
99	0
100	0
101	0
102	0
103	0
104	0
105	0
106	0
107	0
108	0
109	0
110	0
111	0
112	0
113	0
114	0
115	0
116	0
117	0
118	0
119	0
120	0
121	0
122	0
123	0
124	0
125	0
126	0
127	0
128	0
129	0
130	0
131	0
132	0
133	0
134	0
135	0
136	0
137	0
138	0
139	0
140	0
141	0
142	0
143	0
144	0
145	0
146	0
147	0
148	0
149	0
150	0
151	0
152	0
153	0
154	0
155	0
156	0
157	0
158	0
159	0
160	0
161	0
162	0
163	0
164	0
165	0
166	0
167	0
168	0
169	0
170	0
171	0
172	0
173	0
174	0
175	0
176	0
177	0
178	0
179	0
180	0
181	0
182	0
183	0
184	0
185	0
186	0
187	0
188	0
189	0
190	0
191	0
192	0
193	0
194	0
195	0
196	0
197	0
198	0
199	0
200	0
201	0
202	0
203	0
204	0
205	0
206	0
207	0
208	0
209	0
210	0
211	0
212	0
213	0
214	0
215	0
216	0
217	0
218	0
219	0
220	0
221	0
222	0
223	0
224	0
225	0
226	0
227	0
228	0
229	0
230	0
231	0
232	0
233	0
234	0
235	0
236	0
237	0
238	0
239	0
240	0
241	0
242	0
243	0
244	0
245	0
246	0
247	0
248	0
249	0
250	0
251	0
252	0
253	0
254	0
255	0
256	0
257	0
258	0
259	0
260	0
261	0
262	0
263	0
264	0
265	0
266	0
267	0
268	0
269	0
270	0
271	0
272	0
273	0
274	0
275	0
276	0
277	0
278	0
279	0
280	0
281	0
282	0
283	0
284	0
285	0
286	0
287	0
288	0
289	0
290	0
291	0
292	0
293	0
294	0
295	0
296	0
297	0
298	0
299	0
300	0
301	0
302	0
303	0
304	0
305	0
306	0
307	0
308	0
309	0
310	0
311	0
312	0
313	0
314	0
315	0
316	0
317	0
318	0
319	0
320	0
321	0
322	0
323	0
324	0
325	0
326	0
327	0
328	0
329	0
330	0
331	0
332	0
333	0
334	0
335	0
336	0
337	0
338	0
339	0
340	0
341	0
342	0
343	0
344	0
345	0
346	0
347	0
348	0
349	0
350	0
351	0
352	0
353	0
354	0
355	0
356	0
357	0
358	0
359	0
360	0
361	0
362	0
363	0
364	0
365	0
366	0
367	0
368	0
369	0
370	0
371	0
372	0
373	0
374	0
375	0
376	0
377	0
378	0
379	0
380	0
381	0
382	0
383	0
384	0
385	0
386	0
387	0
388	0
389	0
390	0
391	0
392	0
393	0
394	0
395	0
396	0
397	0
398	0
399	0
400	0
401	0
402	0
403	0
404	0
405	0
406	0
407	0
408	0
409	0
410	0
411	0
412	0
413	0
414	0
415	0
416	0
417	0
418	0
419	0
420	0
421	0
422	0
423	0
424	0
425	0
426	0
427	0
428	0
429	0
430	0
431	0
432	0
433	0
434	0
435	0
436	0
437	0
438	0
439	0
440	0
441	0
442	0
443	0
444	0
445	0
446	0
447	0
448	0
449	0
450	0
451	0
452	0
453	0
454	0
455	0
456	0
457	0
458	0
459	0
460	0
461	0
462	0
463	0
464	0
465	0
466	0
467	0
468	0
469	0
470	0
471	0
472	0
473	0
474	0
475	0
476	0
477	0
478	0
479	0
480	0
481	0
482	0
483	0
484	0
485	0
486	0
487	0
488	0
489	0
490	0
491	0
492	0
493	0
494	0
495	0
496	0
497	0
498	0
499	0
500	0
501	0
502	0
503	0
504	0
505	0
506	0
507	0
508	0
509	0
510	0
511	0
512	0
513	0
514	0
515	0
516	0
517	0
518	0
519	0
520	0
521	0
522	0
523	0
524	0
525	0
526	0
527	0
528	0
529	0
530	0
531	0
532	0
533	0
534	0
535	0
536	0
537	0
538	0
539	0
540	0
541	0
542	0
543	0
544	0
545	0
546	0
547	0
548	0
549	0
550	0
551	0
552	0
553	0
554	0
555	0
556	0
557	0
558	0
559	0
560	0
561	0
562	0
563	0
564	0
565	0
566	0
567	0
568	0
569	0
570	0
571	0
572	0
573	0
574	0
575	0
576	0
577	0
578	0
579	0
580	0
581	0
582	0
583	0
584	0
585	0
586	0
587	0
588	0
589	0
590	0
591	0
592	0
593	0
594	0
595	0
596	0
597	0
598	0
599	0
600	0
601	0
602	0
603	0
604	0
605	0
606	0
607	0
608	0
609	0
610	0
611	0
612	0
613	0
614	0
615	0
616	0
617	0
618	0
619	0
620	0
621	0
622	0
623	0
624	0
625	0
626	0
627	0
628	0
629	0
630	0
631	0
632	0
633	0
634	0
635	0
636	0
637	0
638	0
639	0
640	0
641	0
642	0
643	0
644	0
645	0
646	0
647	0
648	0
649	0
650	0
651	0
652	0
653	0
654	0
655	0
656	0
657	0
658	0
659	0
660	0
661	0
662	0
663	0
664	0
665	0
666	0
667	0
668	0
669	0
670	0
671	0
672	0
673	0
674	0
675	0
676	0
677	0
678	0
679	0
680	0
681	0
682	0
683	0
684	0
685	0
686	0
687	0
688	0
689	0
690	0
691	0
692	0
693	0
694	0
695	0
696	0
697	0
698	0
699	0
700	0
701	0
702	0
703	0
704	0
705	0
706	0
707	0
708	0
709	0
710	0
711	0
712	0
713	0
714	0
715	0
716	0
717	0
718	0
719	0
720	0
721	0
722	0
723	0
724	0
725	0
726	0
727	0
728	0
729	0
730	0
731	0
732	0
733	0
734	0
735	0
736	0
737	0
738	0
739	0
740	0
741	0
742	0
743	0
744	0
745	0
746	0
747	0
748	0
749	0
750	0
751	0
752	0
753	0
754	0
755	0
756	0
757	0
758	0
759	0
760	0
761	0
762	0
763	0
764	0
765	0
766	0
767	0
768	0
769	0
770	0
771	0
772	0
773	0
774	0
775	0
776	0
777	0
778	0
779	0
780	0
781	0
782	0
783	0
784	0
785	0
786	0
787	0
788	0
789	0
790	0
791	0
792	0
793	0
794	0
795	0
796	0
797	0
798	0
799	0
800	0
801	0
802	0
803	0
804	0
805	0
806	0
807	0
808	0
809	0
810	0
811	0
812	0
813	0
814	0
815	0
816	0
817	0
818	0
819	0
820	0
821	0
822	0
823	0
824	0
825	0
826	0
827	0
828	0
829	0
830	0
831	0
832	0
833	0
834	0
835	0
836	0
837	0
838	0
839	0
840	0
841	0
842	0
843	0
844	0
845	0
846	0
847	0
848	0
849	0
850	0
851	0
852	0
853	0
854	0
855	0
856	0
857	0
858	0
859	0
860	0
861	0
862	0
863	0
864	0
865	0
866	0
867	0
868	0
869	0
870	0
871	0
872	0
873	0
874	0
875	0
876	0
877	0
878	0
879	0
880	0
881	0
882	0
883	0
884	0
885	0
886	0
887	0
888	0
889	0
890	0
891	0
892	0
893	0
894	0
895	0
896	0
897	0
898	0
899	0
900	0
901	0
902	0
903	0
904	0
905	0
906	0
907	0
908	0
909	0
910	0
911	0
912	0
913	0
914	0
915	0
916	0
917	0
918	0
919	0
920	0
921	0
922	0
923	0
924	0
925	0
926	0
927	0
928	0
929	0
930	0
931	0
932	0
933	0
934	0
935	0
936	0
937	0
938	0
939	0
940	0
941	0
942	0
943	0
944	0
945	0
946	0
947	0
948	0
949	0
950	0
951	0
952	0
953	0
954	0
955	0
956	0
957	0
958	0
959	0
960	0
961	0
962	0
963	0
964	0
965	0
966	0
967	0
968	0
969	0
970	0
971	0
972	0
973	0
974	0
975	0
976	0
977	0
978	0
979	0
980	0
981	0
982	0
983	0
984	0
985	0
986	0
987	0
988	0
989	0
990	0
991	0
992	0
993	0
994	0
995	0
996	0
997	0
998	0
999	0
<start_of_turn>	0
<end_of_turn>	0
<system_prompt>	0
<language>	0
</language>	0
<0x00>	0
<0x01>	0
<0x02>	0
<0x03>	0
<0x04>	0
<0x05>	0
<0x06>	0
<0x07>	0
<0x08>	0
<0x09>	0
<0x0A>	0
<0x0B>	0
<0x0C>	0
<0x0D>	0
<0x0E>	0
<0x0F>	0
<0x10>	0
<0x11>	0
<0x12>	0
<0x13>	0
<0x14>	0
<0x15>	0
<0x16>	0
<0x17>	0
<0x18>	0
<0x19>	0
<0x1A>	0
<0x1B>	0
<0x1C>	0
<0x1D>	0
<0x1E>	0
<0x1F>	0
<0x20>	0
<0x21>	0
<0x22>	0
<0x23>	0
<0x24>	0
<0x25>	0
<0x26>	0
<0x27>	0
<0x28>	0
<0x29>	0
<0x2A>	0
<0x2B>	0
<0x2C>	0
<0x2D>	0
<0x2E>	0
<0x2F>	0
<0x30>	0
<0x31>	0
<0x32>	0
<0x33>	0
<0x34>	0
<0x35>	0
<0x36>	0
<0x37>	0
<0x38>	0
<0x39>	0
<0x3A>	0
<0x3B>	0
<0x3C>	0
<0x3D>	0
<0x3E>	0
<0x3F>	0
<0x40>	0
<0x41>	0
<0x42>	0
<0x43>	0
<0x44>	0
<0x45>	0
<0x46>	0
<0x47>	0
<0x48>	0
<0x49>	0
<0x4A>	0
<0x4B>	0
<0x4C>	0
<0x4D>	0
<0x4E>	0
<0x4F>	0
<0x50>	0
<0x51>	0
<0x52>	0
<0x53>	0
<0x54>	0
<0x55>	0
<0x56>	0
<0x57>	0
<0x58>	0
<0x59>	0
<0x5A>	0
<0x5B>	0
<0x5C>	0
<0x5D>	0
<0x5E>	0
<0x5F>	0
<0x60>	0
<0x61>	0
<0x62>	0
<0x63>	0
<0x64>	0
<0x65>	0
<0x66>	0
<0x67>	0
<0x68>	0
<0x69>	0
<0x6A>	0
<0x6B>	0
<0x6C>	0
<0x6D>	0
<0x6E>	0
<0x6F>	0
<0x70>	0
<0x71>	0
<0x72>	0
<0x73>	0
<0x74>	0
<0x75>	0
<0x76>	0
<0x77>	0
<0x78>	0
<0x79>	0
<0x7A>	0
<0x7B>	0
<0x7C>	0
<0x7D>	0
<0x7E>	0
<0x7F>	0
<0x80>	0
<0x81>	0
<0x82>	0
<0x83>	0
<0x84>	0
<0x85>	0
<0x86>	0
<0x87>	0
<0x88>	0
<0x89>	0
<0x8A>	0
<0x8B>	0
<0x8C>	0
<0x8D>	0
<0x8E>	0
<0x8F>	0
<0x90>	0
<0x91>	0
<0x92>	0
<0x93>	0
<0x94>	0
<0x95>	0
<0x96>	0
<0x97>	0
<0x98>	0
<0x99>	0
<0x9A>	0
<0x9B>	0
<0x9C>	0
<0x9D>	0
<0x9E>	0
<0x9F>	0
<0xA0>	0
<0xA1>	0
<0xA2>	0
<0xA3>	0
<0xA4>	0
<0xA5>	0
<0xA6>	0
<0xA7>	0
<0xA8>	0
<0xA9>	0
<0xAA>	0
<0xAB>	0
<0xAC>	0
<0xAD>	0
<0xAE>	0
<0xAF>	0
<0xB0>	0
<0xB1>	0
<0xB2>	0
<0xB3>	0
<0xB4>	0
<0xB5>	0
<0xB6>	0
<0xB7>	0
<0xB8>	0
<0xB9>	0
<0xBA>	0
<0xBB>	0
<0xBC>	0
<0xBD>	0
<0xBE>	0
<0xBF>	0
<0xC0>	0
<0xC1>	0
<0xC2>	0
<0xC3>	0
<0xC4>	0
<0xC5>	0
<0xC6>	0
<0xC7>	0
<0xC8>	0
<0xC9>	0
<0xCA>	0
<0xCB>	0
<0xCC>	0
<0xCD>	0
<0xCE>	0
<0xCF>	0
<0xD0>	0
<0xD1>	0
<0xD2>	0
<0xD3>	0
<0xD4>	0
<0xD5>	0
<0xD6>	0
<0xD7>	0
<0xD8>	0
<0xD9>	0
<0xDA>	0
<0xDB>	0
<0xDC>	0
<0xDD>	0
<0xDE>	0
<0xDF>	0
<0xE0>	0
<0xE1>	0
<0xE2>	0
<0xE3>	0
<0xE4>	0
<0xE5>	0
<0xE6>	0
<0xE7>	0
<0xE8>	0
<0xE9>	0
<0xEA>	0
<0xEB>	0
<0xEC>	0
<0xED>	0
<0xEE>	0
<0xEF>	0
<0xF0>	0
<0xF1>	0
<0xF2>	0
<0xF3>	0
<0xF4>	0
<0xF5>	0
<0xF6>	0
<0xF7>	0
<0xF8>	0
<0xF9>	0
<0xFA>	0
<0xFB>	0
<0xFC>	0
<0xFD>	0
<0xFE>	0
<0xFF>	0
▁t	-0
▁a	-1
he	-2
in	-3
re	-4
▁o	-5
▁the	-6
▁s	-7
▁w	-8
er	-9
ou	-10
at	-11
on	-12
▁c	-13
nd	-14
it	-15
▁b	-16
is	-17
▁f	-18
ing	-19
▁m	-20
▁to	-21
or	-22
en	-23
▁p	-24
es	-25
ed	-26
an	-27
▁h	-28
▁of	-29
▁d	-30
▁th	-31
ll	-32
▁in	-33
▁and	-34
ar	-35
▁I	-36
▁l	-37
▁y	-38
om	-39
as	-40
ic	-41
al	-42
▁you	-43
▁n	-44
ve	-45
ion	-46
le	-47
▁g	-48
▁be	-49
▁e	-50
▁re	-51
st	-52
ent	-53
ot	-54
▁T	-55
ut	-56
ow	-57
▁is	-58
▁on	-59
et	-60
▁for	-61
ay	-62
▁that	-63
ct	-64
id	-65
se	-66
ly	-67
▁ha	-68
▁it	-69
ro	-70
▁u	-71
im	-72
▁he	-73
ver	-74
ld	-75
ce	-76
▁A	-77
ur	-78
▁we	-79
ig	-80
▁st	-81
ith	-82
▁wh	-83
▁S	-84
ch	-85
▁with	-86
▁an	-87
ad	-88
oo	-89
am	-90
ke	-91
ir	-92
▁as	-93
ation	-94
ill	-95
all	-96
if	-97
▁are	-98
▁The	-99
▁W	-100
▁C	-101
..	-102
ter	-103
▁have	-104
il	-105
ra	-106
▁was	-107
her	-108
▁se	-109
▁your	-110
▁this	-111
▁or	-112
▁at	-113
▁M	-114
▁not	-115
▁ne	-116
ore	-117
▁con	-118
▁com	-119
pp	-120
ess	-121
▁H	-122
▁pro	-123
ers	-124
ht	-125
ould	-126
ge	-127
▁B	-128
▁su	-129
ck	-130
▁fr	-131
ate	-132
ul	-133
▁me	-134
▁do	-135
▁de	-136
est	-137
op	-138
ust	-139
th	-140
▁ex	-141
▁sh	-142
ment	-143
▁can	-144
ol	-145
▁r	-146
ant	-147
ome	-148
▁P	-149
ble	-150
ive	-151
qu	-152
out	-153
us	-154
▁my	-155
ight	-156
▁so	-157
pe	-158
ain	-159
▁k	-160
ie	-161
▁all	-162
nt	-163
▁will	-164
▁D	-165
ist	-166
ally	-167
▁v	-168
▁wor	-169
▁from	-170
▁but	-171
▁"	-172
art	-173
▁(	-174
▁ab	-175
▁al	-176
▁j	-177
▁ch	-178
▁F	-179
ort	-180
res	-181
ear	-182
ity	-183
iv	-184
un	-185
ies	-186
ost	-187
▁Th	-188
▁by	-189
▁they	-190
os	-191
▁whe	-192
oug	-193
um	-194
and	-195
▁O	-196
▁N	-197
red	-198
▁out	-199
em	-200
ard	-201
▁up	-202
very	-203
▁“	-204
ook	-205
our	-206
▁L	-207
one	-208
ake	-209
▁G	-210
▁R	-211
▁li	-212
▁tr	-213
el	-214
ast	-215
▁pl	-216
▁about	-217
▁E	-218
ide	-219
ak	-220
▁one	-221
▁us	-222
▁go	-223
ect	-224
▁Y	-225
ime	-226
ind	-227
▁more	-228
ther	-229
ood	-230
▁has	-231
▁int	-232
od	-233
ci	-234
ud	-235
ice	-236
▁It	-237
▁sa	-238
▁his	-239
▁kn	-240
ite	-241
▁like	-242
▁le	-243
ack	-244
▁who	-245
▁any	-246
▁some	-247
▁get	-248
ure	-249
ich	-250
ound	-251
▁their	-252
pt	-253
per	-254
ong	-255
▁what	-256
▁ad	-257
▁if	-258
ough	-259
ff	-260
▁would	-261
▁there	-262
...	-263
▁fe	-264
▁en	-265
▁time	-266
▁had	-267
ine	-268
lo	-269
reat	-270
are	-271
▁them	-272
▁man	-273
▁comp	-274
ag	-275
age	-276
ous	-277
▁just	-278
ink	-279
ame	-280
▁know	-281
ri	-282
▁lo	-283
▁our	-284
ions	-285
▁ar	-286
ab	-287
▁te	-288
▁her	-289
▁work	-290
▁been	-291
cc	-292
ere	-293
▁other	-294
ays	-295
▁im	-296
able	-297
▁J	-298
au	-299
▁which	-300
▁pe	-301
▁when	-302
act	-303
ven	-304
▁qu	-305
▁year	-306
▁than	-307
▁pr	-308
▁ag	-309
ep	-310
▁cont	-311
ance	-312
ip	-313
▁In	-314
so	-315
▁We	-316
ac	-317
▁off	-318
▁am	-319
ople	-320
orm	-321
▁were	-322
▁app	-323
▁how	-324
ase	-325
ry	-326
ace	-327
▁cl	-328
▁no	-329
▁she	-330
ue	-331
ans	-332
▁res	-333
▁people	-334
ber	-335
ings	-336
iz	-337
▁You	-338
▁need	-339
▁look	-340
ick	-341
ail	-342
ree	-343
▁dis	-344
ated	-345
▁per	-346
▁said	-347
▁over	-348
hing	-349
ence	-350
ach	-351
▁U	-352
▁un	-353
ire	-354
▁bec	-355
itt	-356
▁part	-357
▁This	-358
▁new	-359
▁inc	-360
own	-361
▁don	-362
▁want	-363
ap	-364
ile	-365
▁see	-366
pl	-367
ult	-368
oll	-369
▁think	-370
ations	-371
▁He	-372
ount	-373
▁gr	-374
ond	-375
▁him	-376
ass	-377
▁Wh	-378
ign	-379
▁sp	-380
▁pre	-381
form	-382
ress	-383
▁could	-384
▁make	-385
▁into	-386
▁good	-387
ause	-388
ark	-389
du	-390
▁very	-391
▁-	-392
ary	-393
▁also	-394
ild	-395
ose	-396
▁spe	-397
▁every	-398
uch	-399
▁imp	-400
▁may	-401
nder	-402
▁did	-403
▁back	-404
▁only	-405
vel	-406
▁If	-407
fter	-408
▁ser	-409
▁act	-410
ub	-411
ical	-412
int	-413
▁St	-414
ord	-415
sel	-416
irst	-417
▁hel	-418
ks	-419
▁much	-420
▁now	-421
og	-422
ning	-423
▁way	-424
ade	-425
▁ro	-426
▁help	-427
▁should	-428
▁tw	-429
ru	-430
▁rec	-431
▁too	-432
wn	-433
ents	-434
▁And	-435
av	-436
▁acc	-437
ial	-438
▁here	-439
▁bet	-440
▁thr	-441
ition	-442
▁well	-443
▁even	-444
ia	-445
fore	-446
."	-447
▁great	-448
▁these	-449
▁K	-450
▁most	-451
ful	-452
▁comm	-453
▁first	-454
ors	-455
▁sc	-456
▁under	-457
▁wr	-458
ens	-459
▁then	-460
iff	-461
▁em	-462
ife	-463
▁really	-464
▁use	-465
omet	-466
▁Ch	-467
▁right	-468
ull	-469
▁But	-470
ang	-471
ish	-472
ory	-473
.”	-474
ious	-475
▁read	-476
▁br	-477
ove	-478
▁years	-479
other	-480
lic	-481
▁many	-482
hed	-483
▁because	-484
we	-485
ily	-486
ction	-487
ons	-488
ater	-489
▁des	-490
te	-491
▁after	-492
cial	-493
▁po	-494
ne	-495
▁ke	-496
▁pers	-497
▁say	-498
▁cons	-499
ise	-500
ting	-501
ual	-502
▁–	-503
▁diff	-504
▁where	-505
▁take	-506
aking	-507
▁bu	-508
▁add	-509
▁tra	-510
▁does	-511
▁through	-512
▁its	-513
▁two	-514
▁day	-515
ces	-516
bs	-517
▁gu	-518
ments	-519
▁going	-520
▁long	-521
ool	-522
igh	-523
▁again	-524
▁find	-525
▁own	-526
ved	-527
▁somet	-528
▁down	-529
self	-530
▁co	-531
day	-532
▁before	-533
▁ind	-534
▁rem	-535
▁aw	-536
▁V	-537
▁start	-538
oss	-539
urn	-540
ied	-541
xt	-542
ple	-543
▁sm	-544
▁being	-545
nds	-546
▁those	-547
oy	-548
ty	-549
ject	-550
hen	-551
▁ph	-552
pect	-553
ving	-554
▁rel	-555
vers	-556
ought	-557
▁So	-558
▁prov	-559
ict	-560
▁supp	-561
ating	-562
▁such	-563
gr	-564
ually	-565
ible	-566
alk	-567
▁dec	-568
ates	-569
▁rep	-570
▁As	-571
iss	-572
▁love	-573
ft	-574
▁There	-575
▁person	-576
tain	-577
▁post	-578
▁happ	-579
lud	-580
tern	-581
▁made	-582
▁bel	-583
▁ins	-584
iness	-585
▁inform	-586
ittle	-587
ities	-588
ange	-589
▁wee	-590
▁bus	-591
oc	-592
▁inv	-593
les	-594
get	-595
▁still	-596
▁reg	-597
▁feel	-598
▁bl	-599
iew	-600
▁life	-601
▁things	-602
▁ra	-603
cess	-604
thing	-605
▁exper	-606
ren	-607
ank	-608
▁little	-609
mer	-610
▁What	-611
▁lot	-612
ob	-613
▁ev	-614
▁something	-615
▁car	-616
ific	-617
▁ent	-618
ew	-619
▁last	-620
ave	-621
ib	-622
▁best	-623
▁che	-624
▁att	-625
▁mon	-626
▁They	-627
▁fin	-628
ways	-629
ced	-630
▁produ	-631
ollow	-632
▁got	-633
old	-634
▁few	-635
▁play	-636
▁differe	-637
aw	-638
▁stud	-639
▁call	-640
).	-641
ices	-642
▁serv	-643
▁come	-644
▁home	-645
▁same	-646
▁sec	-647
gg	-648
▁How	-649
▁ac	-650
▁includ	-651
oth	-652
,"	-653
▁show	-654
be	-655
li	-656
▁set	-657
▁end	-658
▁eff	-659
▁An	-660
▁Re	-661
▁never	-662
▁sure	-663
▁try	-664
▁blo	-665
▁sy	-666
ather	-667
▁let	-668
▁book	-669
▁world	-670
▁information	-671
▁child	-672
ath	-673
ms	-674
▁around	-675
▁real	-676
read	-677
alth	-678
▁fam	-679
imes	-680
ract	-681
▁inst	-682
ility	-683
ince	-684
▁sim	-685
▁follow	-686
any	-687
▁fl	-688
ever	-689
ident	-690
ward	-691
ular	-692
▁That	-693
ph	-694
▁business	-695
ys	-696
erest	-697
ased	-698
▁For	-699
▁disc	-700
▁ask	-701
▁always	-702
▁ass	-703
▁point	-704
als	-705
▁op	-706
▁min	-707
▁cour	-708
ason	-709
▁sub	-710
end	-711
iting	-712
▁requ	-713
▁must	-714
▁i	-715
▁keep	-716
ell	-717
its	-718
▁cr	-719
▁art	-720
uring	-721
▁might	-722
air	-723
ited	-724
▁frie	-725
ower	-726
▁high	-727
▁place	-728
▁while	-729
▁$	-730
ian	-731
▁better	-732
▁used	-733
▁She	-734
▁sur	-735
▁put	-736
▁seem	-737
lease	-738
ener	-739
ures	-740
up	-741
▁pol	-742
led	-743
ative	-744
omm	-745
▁dr	-746
akes	-747
▁pres	-748
arch	-749
▁found	-750
▁care	-751
▁each	-752
▁def	-753
▁str	-754
iving	-755
▁vis	-756
ouse	-757
cept	-758
chool	-759
▁ear	-760
gan	-761
▁interest	-762
▁thing	-763
hes	-764
ives	-765
▁num	-766
▁eas	-767
▁count	-768
velop	-769
hip	-770
ational	-771
,”	-772
ont	-773
▁experi	-774
▁quest	-775
cy	-776
ee	-777
▁thought	-778
▁mark	-779
ng	-780
▁ide	-781
▁pub	-782
ves	-783
▁different	-784
ness	-785
atch	-786
▁cle	-787
▁month	-788
here	-789
ics	-790
▁give	-791
▁list	-792
!!	-793
stem	-794
▁old	-795
ope	-796
ner	-797
▁hand	-798
com	-799
ues	-800
▁med	-801
▁av	-802
ody	-803
▁exp	-804
▁fact	-805
▁lear	-806
▁det	-807
▁adv	-808
▁next	-809
▁loc	-810
ec	-811
stand	-812
▁fun	-813
ention	-814
▁poss	-815
olog	-816
▁another	-817
▁mem	-818
ute	-819
▁without	-820
▁import	-821
ax	-822
▁belie	-823
der	-824
▁ref	-825
▁didn	-826
▁proble	-827
▁'	-828
▁why	-829
▁When	-830
az	-831
▁tell	-832
ix	-833
▁run	-834
lect	-835
▁comple	-836
ork	-837
▁My	-838
▁plan	-839
nce	-840
▁Un	-841
▁Al	-842
▁char	-843
less	-844
▁hard	-845
und	-846
▁cur	-847
erm	-848
ertain	-849
oney	-850
▁site	-851
▁conf	-852
ss	-853
line	-854
▁iss	-855
▁develop	-856
▁wom	-857
▁pay	-858
▁head	-859
▁big	-860
▁system	-861
▁ob	-862
oup	-863
▁.	-864
pr	-865
ten	-866
▁sk	-867
▁mo	-868
▁days	-869
ote	-870
▁top	-871
▁far	-872
▁both	-873
▁pur	-874
▁ret	-875
▁sl	-876
▁away	-877
ween	-878
ize	-879
▁since	-880
▁health	-881
▁aut	-882
▁inter	-883
atter	-884
▁To	-885
▁coll	-886
ably	-887
▁trans	-888
ts	-889
▁kind	-890
▁support	-891
▁bo	-892
▁el	-893
▁school	-894
▁week	-895
▁full	-896
▁commun	-897
ution	-898
amp	-899
uck	-900
▁able	-901
▁sign	-902
▁looking	-903
gram	-904
▁ext	-905
▁inf	-906
ired	-907
▁blog	-908
ene	-909
▁three	-910
ared	-911
▁between	-912
▁family	-913
▁product	-914
ered	-915
▁open	-916
▁ever	-917
cer	-918
ider	-919
▁free	-920
anks	-921
▁ed	-922
▁pass	-923
▁market	-924
ages	-925
▁talk	-926
▁done	-927
▁gener	-928
▁Do	-929
▁rest	-930
▁met	-931
▁lead	-932
▁word	-933
aug	-934
▁important	-935
),	-936
▁webs	-937
▁turn	-938
vern	-939
ense	-940
▁[	-941
▁resp	-942
▁course	-943
▁enough	-944
▁understand	-945
rib	-946
▁cor	-947
▁prof	-948
▁less	-949
▁state	-950
view	-951
▁small	-952
▁appro	-953
chn	-954
▁money	-955
ient	-956
gin	-957
▁gl	-958
▁process	-959
▁doing	-960
ah	-961
▁hour	-962
▁cou	-963
▁mod	-964
▁though	-965
ately	-966
▁partic	-967
ustom	-968
▁form	-969
▁number	-970
ross	-971
▁De	-972
irect	-973
▁unt	-974
▁val	-975
▁contin	-976
▁Fr	-977
joy	-978
▁sit	-979
ale	-980
ety	-981
▁stand	-982
▁ty	-983
▁having	-984
▁war	-985
▁program	-986
▁exam	-987
▁lar	-988
▁‘	-989
▁bit	-990
▁team	-991
▁getting	-992
ality	-993
▁actually	-994
▁cre	-995
▁doesn	-996
▁least	-997
The	-998
▁experience	-999
▁result	-1000
▁build	-1001
▁Be	-1002
▁during	-1003
▁No	-1004
▁using	-1005
bers	-1006
▁mean	-1007
ided	-1008
▁...	-1009
▁effect	-1010
▁design	-1011
ows	-1012
aring	-1013
▁mind	-1014
▁making	-1015
ically	-1016
ines	-1017
ash	-1018
▁opp	-1019
▁night	-1020
--	-1021
▁happen	-1022
ember	-1023
▁All	-1024
ession	-1025
▁Is	-1026
ready	-1027
▁today	-1028
loy	-1029
▁expl	-1030
▁anything	-1031
▁came	-1032
ets	-1033
▁report	-1034
....	-1035
▁children	-1036
▁At	-1037
ined	-1038
▁creat	-1039
▁room	-1040
iven	-1041
▁cost	-1042
▁case	-1043
▁bre	-1044
uc	-1045
▁Pro	-1046
ortun	-1047
▁website	-1048
icle	-1049
ining	-1050
▁certain	-1051
uss	-1052
ants	-1053
▁already	-1054
▁check	-1055
io	-1056
▁New	-1057
▁order	-1058
▁avail	-1059
ploy	-1060
▁sol	-1061
ished	-1062
onder	-1063
▁change	-1064
▁working	-1065
ized	-1066
▁On	-1067
▁enjoy	-1068
▁group	-1069
ned	-1070
▁main	-1071
▁public	-1072
▁times	-1073
▁until	-1074
ars	-1075
▁law	-1076
▁web	-1077
▁wa	-1078
▁company	-1079
▁ey	-1080
meric	-1081
rent	-1082
▁hope	-1083
▁techn	-1084
▁rece	-1085
▁dist	-1086
ata	-1087
▁custom	-1088
con	-1089
ters	-1090
?"	-1091
▁water	-1092
aut	-1093
▁someone	-1094
▁house	-1095
ric	-1096
▁meet	-1097
▁organ	-1098
▁service	-1099
▁hum	-1100
ection	-1101
the	-1102
arent	-1103
▁opt	-1104
ived	-1105
▁Thanks	-1106
▁mom	-1107
▁pat	-1108
ists	-1109
ised	-1110
▁Sh	-1111
▁left	-1112
▁believe	-1113
erg	-1114
pped	-1115
▁power	-1116
▁project	-1117
ted	-1118
▁pos	-1119
▁beh	-1120
land	-1121
▁second	-1122
▁says	-1123
▁available	-1124
ital	-1125
▁name	-1126
ature	-1127
▁once	-1128
irl	-1129
▁Americ	-1130
▁cent	-1131
illion	-1132
▁food	-1133
▁went	-1134
▁God	-1135
▁reason	-1136
▁game	-1137
▁matter	-1138
▁var	-1139
▁job	-1140
ger	-1141
▁jo	-1142
▁level	-1143
ling	-1144
osed	-1145
▁incre	-1146
▁gra	-1147
▁others	-1148
▁invest	-1149
ug	-1150
▁following	-1151
▁against	-1152
oot	-1153
▁Your	-1154
▁chang	-1155
▁men	-1156
▁wonder	-1157
ock	-1158
ards	-1159
▁spec	-1160
▁means	-1161
▁aff	-1162
me	-1163
vernment	-1164
▁expect	-1165
ccess	-1166
ins	-1167
▁past	-1168
ames	-1169
▁class	-1170
▁ter	-1171
gether	-1172
▁together	-1173
▁bra	-1174
ides	-1175
▁ca	-1176
▁prob	-1177
ither	-1178
ump	-1179
uff	-1180
▁Chr	-1181
▁yet	-1182
▁possible	-1183
▁often	-1184
▁With	-1185
ying	-1186
▁proper	-1187
ier	-1188
ision	-1189
ead	-1190
▁ans	-1191
erv	-1192
▁leg	-1193
▁direct	-1194
▁within	-1195
▁view	-1196
▁friends	-1197
ently	-1198
▁side	-1199
▁else	-1200
hat	-1201
▁exc	-1202
▁Not	-1203
▁prot	-1204
▁prom	-1205
▁Can	-1206
ret	-1207
atur	-1208
▁ve	-1209
▁grow	-1210
▁problem	-1211
▁everything	-1212
med	-1213
▁idea	-1214
▁story	-1215
▁bas	-1216
▁shall	-1217
▁One	-1218
ids	-1219
▁offer	-1220
▁young	-1221
▁Cl	-1222
ism	-1223
▁light	-1224
▁live	-1225
▁intern	-1226
▁question	-1227
▁provide	-1228
▁pa	-1229
▁easy	-1230
oice	-1231
▁makes	-1232
▁pret	-1233
▁prev	-1234
▁data	-1235
▁nothing	-1236
ird	-1237
most	-1238
▁took	-1239
▁including	-1240
▁treat	-1241
▁es	-1242
▁fil	-1243
▁won	-1244
ER	-1245
▁current	-1246
▁mus	-1247
▁complete	-1248
▁seen	-1249
ivers	-1250
▁—	-1251
▁test	-1252
▁trying	-1253
▁whole	-1254
ruct	-1255
▁Thank	-1256
▁country	-1257
▁Now	-1258
▁consider	-1259
▁saf	-1260
▁Ad	-1261
▁allow	-1262
▁needs	-1263
▁bad	-1264
▁Ar	-1265
▁deal	-1266
ivid	-1267
▁win	-1268
ex	-1269
▁pract	-1270
▁quite	-1271
man	-1272
▁:	-1273
▁phot	-1274
alf	-1275
▁pretty	-1276
▁short	-1277
not	-1278
▁present	-1279
cent	-1280
▁Q	-1281
▁become	-1282
▁friend	-1283
▁visit	-1284
urance	-1285
▁&	-1286
▁miss	-1287
pend	-1288
utes	-1289
▁probably	-1290
▁told	-1291
▁col	-1292
▁employ	-1293
app	-1294
▁account	-1295
way	-1296
▁months	-1297
cially	-1298
▁contro	-1299
▁ago	-1300
▁clear	-1301
to	-1302
▁women	-1303
▁bene	-1304
▁clo	-1305
ield	-1306
aps	-1307
aj	-1308
▁quick	-1309
▁area	-1310
▁heart	-1311
reen	-1312
▁services	-1313
▁online	-1314
▁stay	-1315
ology	-1316
▁rese	-1317
▁fav	-1318
ream	-1319
br	-1320
▁asked	-1321
▁Br	-1322
fect	-1323
▁face	-1324
▁equ	-1325
▁everyone	-1326
▁please	-1327
▁mor	-1328
aken	-1329
▁dem	-1330
▁Ex	-1331
ases	-1332
▁move	-1333
▁soon	-1334
▁est	-1335
▁special	-1336
▁walk	-1337
▁mar	-1338
oh	-1339
▁May	-1340
▁pain	-1341
▁sw	-1342
▁success	-1343
ency	-1344
▁large	-1345
hor	-1346
uture	-1347
▁near	-1348
▁hours	-1349
ories	-1350
▁body	-1351
▁cond	-1352
▁begin	-1353
ured	-1354
▁personal	-1355
▁pop	-1356
▁Christ	-1357
▁isn	-1358
▁beaut	-1359
part	-1360
▁Se	-1361
▁Here	-1362
aim	-1363
ww	-1364
▁ann	-1365
▁girl	-1366
cing	-1367
▁started	-1368
work	-1369
▁sing	-1370
ividual	-1371
▁along	-1372
▁vide	-1373
▁comes	-1374
?”	-1375
▁wanted	-1376
▁impro	-1377
▁Just	-1378
▁access	-1379
▁perform	-1380
▁di	-1381
▁link	-1382
orn	-1383
iqu	-1384
▁dra	-1385
▁sound	-1386
▁ris	-1387
▁seems	-1388
▁Com	-1389
▁nice	-1390
▁Tr	-1391
▁called	-1392
ients	-1393
ott	-1394
▁occ	-1395
▁benef	-1396
▁share	-1397
port	-1398
▁adm	-1399
▁learn	-1400
▁Or	-1401
▁sever	-1402
▁eng	-1403
▁four	-1404
▁hold	-1405
▁sal	-1406
▁yourself	-1407
ails	-1408
▁social	-1409
▁const	-1410
▁oper	-1411
used	-1412
▁event	-1413
▁taking	-1414
▁future	-1415
▁given	-1416
▁local	-1417
▁These	-1418
ats	-1419
▁news	-1420
ateg	-1421
▁students	-1422
▁However	-1423
ode	-1424
▁individual	-1425
side	-1426
▁answ	-1427
▁After	-1428
itive	-1429
iron	-1430
ully	-1431
cri	-1432
lf	-1433
▁activ	-1434
▁step	-1435
▁arr	-1436
pping	-1437
▁several	-1438
ills	-1439
▁government	-1440
▁TH	-1441
▁air	-1442
▁bring	-1443
▁fac	-1444
▁anyone	-1445
eng	-1446
ording	-1447
▁later	-1448
ply	-1449
inal	-1450
▁page	-1451
▁happy	-1452
pecially	-1453
ified	-1454
▁opportun	-1455
ances	-1456
▁particular	-1457
▁return	-1458
conom	-1459
▁fore	-1460
▁example	-1461
It	-1462
▁addition	-1463
ential	-1464
▁perfect	-1465
selves	-1466
▁applic	-1467
▁Pl	-1468
▁watch	-1469
▁buy	-1470
▁whether	-1471
▁almost	-1472
ried	-1473
▁hist	-1474
▁educ	-1475
ps	-1476
▁close	-1477
outh	-1478
ries	-1479
ajor	-1480
itions	-1481
▁writing	-1482
▁article	-1483
▁words	-1484
▁across	-1485
ination	-1486
▁concer	-1487
You	-1488
▁coming	-1489
▁lim	-1490
tend	-1491
els	-1492
▁discuss	-1493
▁mess	-1494
no	-1495
▁questions	-1496
▁pot	-1497
▁community	-1498
▁mil	-1499
▁either	-1500
▁above	-1501
row	-1502
▁line	-1503
▁offic	-1504
▁insurance	-1505
ggest	-1506
ched	-1507
▁cap	-1508
▁Some	-1509
iously	-1510
iter	-1511
aster	-1512
▁contact	-1513
▁pict	-1514
▁members	-1515
ike	-1516
▁myself	-1517
▁pick	-1518
ery	-1519
▁break	-1520
▁rather	-1521
oun	-1522
▁foc	-1523
▁Well	-1524
▁Pr	-1525
ommend	-1526
icult	-1527
▁defin	-1528
▁profession	-1529
▁works	-1530
▁hot	-1531
ips	-1532
ton	-1533
▁Our	-1534
▁content	-1535
ration	-1536
▁appear	-1537
▁minutes	-1538
▁reading	-1539
ising	-1540
▁suggest	-1541
idd	-1542
▁moment	-1543
ury	-1544
▁agree	-1545
iful	-1546
▁subject	-1547
▁amount	-1548
▁human	-1549
use	-1550
ior	-1551
idence	-1552
▁invol	-1553
▁dev	-1554
augh	-1555
▁polic	-1556
▁hear	-1557
▁taken	-1558
▁land	-1559
over	-1560
//	-1561
IN	-1562
▁cra	-1563
▁eyes	-1564
ged	-1565
▁half	-1566
ability	-1567
▁bro	-1568
▁age	-1569
▁Don	-1570
▁recommend	-1571
fully	-1572
▁forward	-1573
pos	-1574
▁indust	-1575
ization	-1576
▁stop	-1577
▁non	-1578
▁leave	-1579
lish	-1580
aff	-1581
ert	-1582
▁strong	-1583
ains	-1584
▁however	-1585
uly	-1586
▁issues	-1587
illed	-1588
▁true	-1589
▁major	-1590
▁Comm	-1591
cl	-1592
▁create	-1593
▁review	-1594
ief	-1595
▁million	-1596
oint	-1597
▁research	-1598
of	-1599
We	-1600
▁looks	-1601
agement	-1602
ering	-1603
▁cover	-1604
▁upon	-1605
▁parent	-1606
arm	-1607
▁Ind	-1608
▁fall	-1609
▁et	-1610
▁sum	-1611
▁tot	-1612
▁control	-1613
tt	-1614
▁--	-1615
raph	-1616
▁low	-1617
▁pie	-1618
▁Mr	-1619
▁simply	-1620
▁ele	-1621
▁email	-1622
▁quality	-1623
oose	-1624
where	-1625
iding	-1626
▁require	-1627
▁early	-1628
▁remember	-1629
▁econom	-1630
▁record	-1631
▁based	-1632
att	-1633
▁charact	-1634
▁conn	-1635
▁worth	-1636
unt	-1637
▁difficult	-1638
ral	-1639
▁elect	-1640
▁cut	-1641
por	-1642
▁Le	-1643
▁camp	-1644
gle	-1645
by	-1646
▁stuff	-1647
▁spend	-1648
uation	-1649
▁especially	-1650
▁abs	-1651
▁necess	-1652
ister	-1653
▁priv	-1654
unch	-1655
ots	-1656
▁products	-1657
▁sent	-1658
▁author	-1659
iod	-1660
though	-1661
▁saw	-1662
ney	-1663
▁par	-1664
ium	-1665
urther	-1666
▁amaz	-1667
▁claim	-1668
▁issue	-1669
▁self	-1670
ption	-1671
▁tax	-1672
ify	-1673
▁specific	-1674
▁wind	-1675
▁heard	-1676
lling	-1677
▁below	-1678
▁city	-1679
ission	-1680
▁likely	-1681
▁wrong	-1682
▁search	-1683
ny	-1684
▁US	-1685
▁wasn	-1686
▁favor	-1687
viron	-1688
cu	-1689
▁entire	-1690
ON	-1691
for	-1692
ator	-1693
▁kids	-1694
▁couple	-1695
▁respons	-1696
ok	-1697
▁morning	-1698
▁Con	-1699
cell	-1700
://	-1701
▁looked	-1702
rop	-1703
book	-1704
itical	-1705
room	-1706
▁write	-1707
▁dou	-1708
▁Please	-1709
▁plac	-1710
▁video	-1711
orts	-1712
▁relations	-1713
ledge	-1714
▁prep	-1715
elt	-1716
▁bed	-1717
▁address	-1718
▁ways	-1719
▁compan	-1720
fer	-1721
▁enc	-1722
ush	-1723
▁season	-1724
na	-1725
▁needed	-1726
▁beautiful	-1727
ctor	-1728
▁weeks	-1729
▁Then	-1730
ected	-1731
▁super	-1732
▁repl	-1733
▁exact	-1734
▁value	-1735
▁Sp	-1736
▁simple	-1737
▁store	-1738
ift	-1739
▁cannot	-1740
▁problems	-1741
now	-1742
▁price	-1743
▁chall	-1744
▁five	-1745
▁tem	-1746
▁music	-1747
▁sle	-1748
▁ple	-1749
▁etc	-1750
▁net	-1751
▁finan	-1752
itely	-1753
▁living	-1754
▁hon	-1755
▁period	-1756
▁thinking	-1757
▁key	-1758
▁mater	-1759
ilar	-1760
▁known	-1761
▁front	-1762
ences	-1763
mber	-1764
!"	-1765
urity	-1766
▁woman	-1767
▁common	-1768
body	-1769
wards	-1770
▁typ	-1771
oud	-1772
▁tre	-1773
▁include	-1774
▁development	-1775
vironment	-1776
▁clean	-1777
▁due	-1778
▁boy	-1779
▁door	-1780
▁cred	-1781
ians	-1782
uro	-1783
▁longer	-1784
▁fig	-1785
▁press	-1786
▁hands	-1787
▁ill	-1788
▁hig	-1789
▁sci	-1790
▁Go	-1791
▁knew	-1792
▁redu	-1793
▁saying	-1794
▁interesting	-1795
▁fre	-1796
▁vers	-1797
▁wish	-1798
fort	-1799
▁sense	-1800
AT	-1801
ilities	-1802
▁Am	-1803
▁send	-1804
▁type	-1805
▁thank	-1806
itten	-1807
▁media	-1808
▁Man	-1809
eed	-1810
ibility	-1811
bt	-1812
▁office	-1813
▁wait	-1814
▁mother	-1815
▁ens	-1816
▁ident	-1817
▁purch	-1818
▁Let	-1819
▁single	-1820
▁death	-1821
▁pri	-1822
▁answer	-1823
dd	-1824
ane	-1825
▁orig	-1826
▁Any	-1827
.)	-1828
▁Eng	-1829
urs	-1830
ources	-1831
come	-1832
▁compet	-1833
▁space	-1834
haps	-1835
▁behind	-1836
▁phys	-1837
▁rele	-1838
▁la	-1839
orth	-1840
▁Why	-1841
▁comment	-1842
cle	-1843
▁building	-1844
itting	-1845
▁#	-1846
▁His	-1847
ware	-1848
ional	-1849
▁material	-1850
▁ready	-1851
▁dam	-1852
sh	-1853
ES	-1854
▁yes	-1855
▁accept	-1856
▁mention	-1857
▁Yes	-1858
overed	-1859
go	-1860
ued	-1861
▁htt	-1862
light	-1863
ina	-1864
ergy	-1865
▁amazing	-1866
ique	-1867
▁Of	-1868
▁sex	-1869
rap	-1870
ffic	-1871
ape	-1872
▁travel	-1873
hod	-1874
▁phone	-1875
▁mot	-1876
▁*	-1877
▁trad	-1878
itted	-1879
▁chance	-1880
yle	-1881
▁percent	-1882
▁cal	-1883
▁companies	-1884
ulation	-1885
▁further	-1886
▁pack	-1887
▁exist	-1888
▁soft	-1889
▁improve	-1890
▁bar	-1891
bo	-1892
iday	-1893
▁manag	-1894
ites	-1895
ron	-1896
▁regard	-1897
▁risk	-1898
▁fail	-1899
▁results	-1900
oogle	-1901
iversity	-1902
gs	-1903
▁speak	-1904
▁Te	-1905
▁relationship	-1906
osp	-1907
▁focus	-1908
ained	-1909
wh	-1910
▁study	-1911
▁among	-1912
▁mult	-1913
▁App	-1914
▁While	-1915
▁surpr	-1916
co	-1917
ik	-1918
▁continue	-1919
ches	-1920
ming	-1921
▁item	-1922
acy	-1923
▁Bl	-1924
▁sat	-1925
▁field	-1926
une	-1927
erence	-1928
▁felt	-1929
▁required	-1930
soci	-1931
▁Every	-1932
▁cop	-1933
▁training	-1934
ource	-1935
▁himself	-1936
▁Z	-1937
OR	-1938
reci	-1939
uge	-1940
ees	-1941
▁maybe	-1942
▁party	-1943
reet	-1944
▁tool	-1945
▁history	-1946
▁definitely	-1947
▁usually	-1948
ogn	-1949
rect	-1950
ison	-1951
▁card	-1952
▁ones	-1953
▁Ph	-1954
▁running	-1955
▁United	-1956
ental	-1957
▁mag	-1958
ones	-1959
atic	-1960
▁energy	-1961
▁Res	-1962
▁safe	-1963
▁staff	-1964
ns	-1965
▁outside	-1966
▁respect	-1967
ored	-1968
▁lost	-1969
rew	-1970
▁environment	-1971
▁natur	-1972
rodu	-1973
aving	-1974
uth	-1975
▁turned	-1976
▁comput	-1977
ensive	-1978
▁industry	-1979
▁deli	-1980
▁Mar	-1981
ners	-1982
▁knowledge	-1983
▁takes	-1984
▁swe	-1985
▁Me	-1986
lement	-1987
▁_	-1988
▁guess	-1989
reme	-1990
▁talking	-1991
ern	-1992
▁themselves	-1993
load	-1994
▁upd	-1995
ony	-1996
▁road	-1997
urch	-1998
▁cir	-1999
imate	-2000
▁fire	-2001
resent	-2002
▁vari	-2003
lished	-2004
Th	-2005
head	-2006
▁added	-2007
▁Oh	-2008
ror	-2009
▁financial	-2010
▁cult	-2011
▁goes	-2012
utions	-2013
gress	-2014
▁fund	-2015
▁haven	-2016
▁general	-2017
▁date	-2018
▁couldn	-2019
▁method	-2020
chie	-2021
▁effective	-2022
▁ant	-2023
oring	-2024
mark	-2025
▁cause	-2026
▁American	-2027
▁extra	-2028
bal	-2029
empt	-2030
▁written	-2031
asing	-2032
▁term	-2033
▁similar	-2034
▁lives	-2035
▁opportunity	-2036
ges	-2037
ilt	-2038
▁certainly	-2039
▁table	-2040
AN	-2041
▁wouldn	-2042
▁books	-2043
ience	-2044
▁position	-2045
▁aud	-2046
▁THE	-2047
▁By	-2048
oura	-2049
▁Are	-2050
▁father	-2051
▁red	-2052
▁Sc	-2053
ring	-2054
ands	-2055
▁Pe	-2056
▁wonderful	-2057
hers	-2058
▁thanks	-2059
OU	-2060
▁ce	-2061
▁docu	-2062
▁tried	-2063
▁Rep	-2064
aching	-2065
astic	-2066
▁instead	-2067
▁strateg	-2068
▁parents	-2069
▁determ	-2070
▁gave	-2071
▁stra	-2072
▁ideas	-2073
orry	-2074
▁famil	-2075
▁professional	-2076
▁ess	-2077
▁attention	-2078
▁action	-2079
ume	-2080
▁vi	-2081
▁sleep	-2082
iver	-2083
▁policy	-2084
cellent	-2085
▁Joh	-2086
▁cool	-2087
▁property	-2088
inist	-2089
▁fa	-2090
▁feat	-2091
▁changes	-2092
▁bab	-2093
AR	-2094
▁sort	-2095
▁ground	-2096
year	-2097
▁exactly	-2098
▁customers	-2099
ication	-2100
enty	-2101
▁mov	-2102
▁Gr	-2103
oid	-2104
▁flo	-2105
▁feeling	-2106
▁cook	-2107
asure	-2108
▁ste	-2109
medi	-2110
▁More	-2111
cks	-2112
ples	-2113
▁anal	-2114
▁necessary	-2115
▁points	-2116
▁vol	-2117
gu	-2118
▁comb	-2119
▁fast	-2120
▁six	-2121
▁colle	-2122
▁particip	-2123
irth	-2124
▁details	-2125
▁happened	-2126
▁except	-2127
▁tou	-2128
▁town	-2129
▁choose	-2130
▁games	-2131
▁provided	-2132
▁States	-2133
fr	-2134
▁achie	-2135
▁appreci	-2136
▁late	-2137
▁fight	-2138
▁decided	-2139
▁areas	-2140
ceed	-2141
ograph	-2142
▁interested	-2143
let	-2144
▁Intern	-2145
ude	-2146
▁white	-2147
▁fair	-2148
irt	-2149
▁education	-2150
ires	-2151
▁black	-2152
ster	-2153
EN	-2154
▁port	-2155
olute	-2156
▁Euro	-2157
▁comfort	-2158
▁Even	-2159
▁quickly	-2160
▁Tw	-2161
▁learning	-2162
my	-2163
▁listen	-2164
▁er	-2165
▁Wor	-2166
▁regular	-2167
▁favorite	-2168
▁request	-2169
▁Will	-2170
▁Car	-2171
▁drink	-2172
▁situation	-2173
▁neg	-2174
▁object	-2175
▁jour	-2176
▁Inst	-2177
▁eat	-2178
crib	-2179
▁foot	-2180
asons	-2181
▁Act	-2182
▁Su	-2183
iet	-2184
icles	-2185
▁signific	-2186
▁increase	-2187
omes	-2188
angu	-2189
▁according	-2190
▁norm	-2191
▁various	-2192
ishing	-2193
oke	-2194
▁assist	-2195
erc	-2196
▁glad	-2197
▁bott	-2198
irm	-2199
▁paper	-2200
▁click	-2201
ules	-2202
▁attack	-2203
▁gets	-2204
▁held	-2205
pro	-2206
eral	-2207
▁dest	-2208
▁character	-2209
▁gone	-2210
▁dead	-2211
▁Ke	-2212
▁fine	-2213
▁rate	-2214
▁z	-2215
▁Che	-2216
pose	-2217
▁completely	-2218
▁management	-2219
▁giving	-2220
time	-2221
par	-2222
▁received	-2223
▁credit	-2224
▁,	-2225
▁dig	-2226
fact	-2227
▁deep	-2228
ival	-2229
▁imag	-2230
eah	-2231
ises	-2232
▁sometimes	-2233
▁pull	-2234
▁lab	-2235
▁inside	-2236
▁Also	-2237
▁section	-2238
▁aren	-2239
ressed	-2240
▁series	-2241
▁hit	-2242
▁Have	-2243
▁trust	-2244
▁sho	-2245
▁Cent	-2246
ural	-2247
▁security	-2248
▁glo	-2249
▁guys	-2250
▁recogn	-2251
rict	-2252
▁hor	-2253
▁loss	-2254
▁range	-2255
ially	-2256
band	-2257
▁box	-2258
▁voice	-2259
atever	-2260
▁Sec	-2261
vert	-2262
▁hop	-2263
▁feed	-2264
▁text	-2265
▁tour	-2266
▁third	-2267
▁terms	-2268
▁events	-2269
▁conv	-2270
▁decision	-2271
af	-2272
▁technology	-2273
ama	-2274
▁En	-2275
▁worked	-2276
gest	-2277
▁impact	-2278
▁meeting	-2279
▁infl	-2280
▁Europe	-2281
LL	-2282
▁Cont	-2283
▁alone	-2284
▁blood	-2285
back	-2286
▁ensure	-2287
▁coun	-2288
▁hol	-2289
▁huge	-2290
antly	-2291
▁drive	-2292
umb	-2293
▁song	-2294
▁stat	-2295
resh	-2296
▁receive	-2297
aughter	-2298
▁opin	-2299
▁sharing	-2300
▁anim	-2301
▁natural	-2302
▁weight	-2303
▁Per	-2304
▁skills	-2305
▁guy	-2306
▁involved	-2307
OT	-2308
▁Most	-2309
iddle	-2310
mas	-2311
▁save	-2312
▁aware	-2313
▁marketing	-2314
▁apply	-2315
ached	-2316
▁immedi	-2317
mb	-2318
▁fit	-2319
ublic	-2320
▁consum	-2321
▁slow	-2322
▁internet	-2323
▁hair	-2324
anger	-2325
▁wall	-2326
▁choice	-2327
▁estab	-2328
▁teac	-2329
▁Good	-2330
▁medical	-2331
▁mass	-2332
▁wife	-2333
▁higher	-2334
▁shows	-2335
▁Ag	-2336
▁host	-2337
▁finally	-2338
mm	-2339
aught	-2340
ober	-2341
▁trip	-2342
▁fell	-2343
▁correct	-2344
▁oil	-2345
▁piece	-2346
▁recent	-2347
▁private	-2348
.,	-2349
▁jud	-2350
▁Fe	-2351
▁ten	-2352
▁attend	-2353
▁fix	-2354
▁excellent	-2355
▁attempt	-2356
▁itself	-2357
▁practice	-2358
▁dream	-2359
▁Gu	-2360
▁wide	-2361
▁protect	-2362
▁http	-2363
▁obs	-2364
▁insp	-2365
▁John	-2366
▁encoura	-2367
▁Ne	-2368
▁absolute	-2369
▁init	-2370
▁contract	-2371
▁viol	-2372
▁da	-2373
▁posts	-2374
▁son	-2375
ball	-2376
▁potential	-2377
▁easily	-2378
▁ord	-2379
▁playing	-2380
orrow	-2381
ators	-2382
verage	-2383
▁Many	-2384
itch	-2385
▁bank	-2386
▁Pres	-2387
ibly	-2388
▁From	-2389
aur	-2390
▁comments	-2391
▁paid	-2392
▁size	-2393
▁activities	-2394
irit	-2395
hy	-2396
ecause	-2397
▁summer	-2398
▁install	-2399
ler	-2400
▁luck	-2401
What	-2402
▁gen	-2403
ask	-2404
▁veh	-2405
▁dark	-2406
like	-2407
▁hur	-2408
ression	-2409
▁clos	-2410
▁remain	-2411
▁extreme	-2412
▁brought	-2413
▁ability	-2414
▁Google	-2415
▁prior	-2416
▁cases	-2417
▁wants	-2418
ruction	-2419
▁Part	-2420
▁State	-2421
▁options	-2422
▁truth	-2423
▁sun	-2424
▁customer	-2425
▁langu	-2426
▁final	-2427
▁Comp	-2428
ED	-2429
▁hus	-2430
▁hy	-2431
▁message	-2432
▁lay	-2433
▁note	-2434
▁related	-2435
▁represent	-2436
▁picture	-2437
▁treatment	-2438
▁sn	-2439
▁compl	-2440
▁bud	-2441
▁loved	-2442
▁computer	-2443
▁total	-2444
▁advice	-2445
▁suff	-2446
▁recently	-2447
cil	-2448
▁inj	-2449
▁weeke	-2450
▁Dr	-2451
▁sus	-2452
▁version	-2453
▁feet	-2454
▁track	-2455
wise	-2456
▁park	-2457
▁costs	-2458
▁tar	-2459
▁began	-2460
▁truly	-2461
▁Read	-2462
▁bur	-2463
▁sell	-2464
▁Great	-2465
sy	-2466
▁starting	-2467
▁contrib	-2468
airs	-2469
▁York	-2470
▁useful	-2471
▁carry	-2472
▁role	-2473
▁birth	-2474
▁legal	-2475
▁circ	-2476
▁member	-2477
▁eye	-2478
▁convers	-2479
ounds	-2480
▁kill	-2481
▁application	-2482
IS	-2483
▁difference	-2484
ole	-2485
▁spent	-2486
▁Hi	-2487
▁Ab	-2488
ging	-2489
▁popular	-2490
▁positive	-2491
▁fear	-2492
▁sales	-2493
olution	-2494
▁fu	-2495
onse	-2496
de	-2497
▁Qu	-2498
ification	-2499
▁sett	-2500
▁countries	-2501
▁maintain	-2502
▁Jan	-2503
▁draw	-2504
▁board	-2505
▁First	-2506
idered	-2507
imum	-2508
▁created	-2509
lier	-2510
istic	-2511
▁X	-2512
▁prin	-2513
▁Look	-2514
cious	-2515
▁select	-2516
sc	-2517
▁evidence	-2518
duct	-2519
▁bal	-2520
▁ep	-2521
▁imm	-2522
▁seemed	-2523
▁lik	-2524
play	-2525
▁political	-2526
▁World	-2527
erve	-2528
▁stru	-2529
undred	-2530
but	-2531
▁approach	-2532
▁mis	-2533
▁div	-2534
▁appe	-2535
IT	-2536
▁dru	-2537
pri	-2538
lebr	-2539
▁police	-2540
...]	-2541
▁America	-2542
▁offers	-2543
hood	-2544
▁conditions	-2545
▁seeing	-2546
▁items	-2547
▁deg	-2548
ann	-2549
amer	-2550
▁poor	-2551
▁topic	-2552
▁touch	-2553
▁engine	-2554
▁towards	-2555
▁soci	-2556
isions	-2557
▁unique	-2558
ING	-2559
▁squ	-2560
▁husband	-2561
▁knows	-2562
ze	-2563
▁performance	-2564
▁considered	-2565
▁student	-2566
▁associ	-2567
▁perhaps	-2568
▁option	-2569
▁places	-2570
▁AN	-2571
▁official	-2572
▁subm	-2573
▁rights	-2574
enced	-2575
▁serious	-2576
▁function	-2577
▁national	-2578
▁del	-2579
▁benefits	-2580
▁Face	-2581
▁rad	-2582
▁reci	-2583
▁trou	-2584
itor	-2585
▁expected	-2586
▁obv	-2587
▁reasons	-2588
▁skin	-2589
▁info	-2590
▁Serv	-2591
▁mach	-2592
▁baby	-2593
▁lots	-2594
esome	-2595
▁Because	-2596
▁•	-2597
!”	-2598
".	-2599
▁Acc	-2600
▁dep	-2601
ule	-2602
ades	-2603
▁leaders	-2604
do	-2605
▁:)	-2606
erson	-2607
▁original	-2608
▁sil	-2609
▁Once	-2610
▁Sy	-2611
zy	-2612
ables	-2613
▁Christmas	-2614
▁purpose	-2615
RE	-2616
▁Im	-2617
che	-2618
▁Des	-2619
▁Get	-2620
▁additional	-2621
▁nature	-2622
ey	-2623
▁emb	-2624
▁perm	-2625
▁lif	-2626
▁Fl	-2627
▁Her	-2628
▁cand	-2629
▁court	-2630
hold	-2631
▁currently	-2632
▁thous	-2633
▁sold	-2634
▁brand	-2635
▁dri	-2636
▁weekend	-2637
▁depend	-2638
lt	-2639
▁features	-2640
▁beginning	-2641
▁effort	-2642
▁lack	-2643
ops	-2644
▁sche	-2645
aign	-2646
ung	-2647
??	-2648
▁planning	-2649
▁dise	-2650
uses	-2651
▁users	-2652
atives	-2653
▁systems	-2654
yond	-2655
obile	-2656
▁notice	-2657
val	-2658
▁reach	-2659
▁individuals	-2660
reng	-2661
▁Med	-2662
▁screen	-2663
▁waiting	-2664
▁ball	-2665
▁helpful	-2666
▁growth	-2667
▁plans	-2668
▁prevent	-2669
▁challeng	-2670
ox	-2671
▁gives	-2672
more	-2673
▁enter	-2674
iring	-2675
▁tit	-2676
▁introdu	-2677
▁Mark	-2678
iction	-2679
▁seek	-2680
▁doll	-2681
ding	-2682
▁cold	-2683
▁interview	-2684
▁tal	-2685
▁clients	-2686
▁dro	-2687
AS	-2688
▁Dis	-2689
ighb	-2690
▁Day	-2691
▁stories	-2692
▁resources	-2693
just	-2694
▁projects	-2695
▁exerc	-2696
izing	-2697
▁whatever	-2698
▁base	-2699
▁changed	-2700
▁cross	-2701
▁hundred	-2702
▁Maybe	-2703
iced	-2704
▁progress	-2705
▁provides	-2706
▁copy	-2707
▁condition	-2708
▁throughout	-2709
▁lower	-2710
▁detail	-2711
bit	-2712
▁goal	-2713
▁code	-2714
▁target	-2715
▁model	-2716
▁response	-2717
▁celebr	-2718
▁software	-2719
▁City	-2720
▁became	-2721
usion	-2722
▁daily	-2723
▁investig	-2724
▁Ob	-2725
▁network	-2726
!!!	-2727
IC	-2728
▁parts	-2729
▁easier	-2730
▁dog	-2731
▁Reg	-2732
▁brother	-2733
▁dom	-2734
▁lad	-2735
▁wrote	-2736
▁Facebook	-2737
▁Co	-2738
eth	-2739
▁designed	-2740
▁ut	-2741
▁behav	-2742
▁groups	-2743
▁@	-2744
▁lat	-2745
anced	-2746
▁thoughts	-2747
itc	-2748
▁Pol	-2749
▁photos	-2750
▁apart	-2751
▁fan	-2752
▁source	-2753
▁President	-2754
▁understanding	-2755
▁forget	-2756
▁nearly	-2757
▁user	-2758
▁safety	-2759
▁levels	-2760
▁wel	-2761
▁avoid	-2762
▁round	-2763
▁honest	-2764
▁print	-2765
arr	-2766
▁Dep	-2767
▁emot	-2768
▁sens	-2769
▁doubt	-2770
nal	-2771
▁happens	-2772
▁physical	-2773
▁file	-2774
▁kept	-2775
▁pan	-2776
▁Fin	-2777
▁average	-2778
www	-2779
pper	-2780
▁figure	-2781
vant	-2782
kay	-2783
▁respond	-2784
▁although	-2785
▁Oct	-2786
▁career	-2787
▁Since	-2788
ederal	-2789
▁>	-2790
▁Who	-2791
enge	-2792
▁sites	-2793
▁movie	-2794
▁style	-2795
▁separ	-2796
inner	-2797
itary	-2798
▁ahead	-2799
▁Jes	-2800
nam	-2801
▁pictures	-2802
▁moving	-2803
▁tips	-2804
▁learned	-2805
▁pen	-2806
▁relig	-2807
▁mist	-2808
▁sto	-2809
▁appropri	-2810
▁streng	-2811
▁neighb	-2812
▁built	-2813
▁refer	-2814
▁healthy	-2815
aged	-2816
▁stock	-2817
▁purchase	-2818
▁film	-2819
▁straight	-2820
▁campaign	-2821
▁tast	-2822
▁People	-2823
lex	-2824
▁National	-2825
▁Cal	-2826
▁University	-2827
▁language	-2828
▁hosp	-2829
▁fant	-2830
su	-2831
▁meant	-2832
▁document	-2833
ivil	-2834
▁Sept	-2835
▁Af	-2836
▁basis	-2837
itional	-2838
▁daughter	-2839
▁vict	-2840
▁via	-2841
uary	-2842
▁satis	-2843
▁struct	-2844
lled	-2845
▁breat	-2846
”.	-2847
▁Em	-2848
▁Us	-2849
ests	-2850
▁Aust	-2851
▁previous	-2852
▁descri	-2853
▁allowed	-2854
▁opinion	-2855
▁location	-2856
▁explain	-2857
ulations	-2858
▁Was	-2859
▁programs	-2860
▁bag	-2861
▁tom	-2862
▁multip	-2863
inary	-2864
▁peace	-2865
apt	-2866
rest	-2867
▁fresh	-2868
cies	-2869
▁House	-2870
▁cy	-2871
unk	-2872
▁Tod	-2873
▁cell	-2874
itution	-2875
▁collect	-2876
▁South	-2877
▁directly	-2878
eg	-2879
▁types	-2880
▁rev	-2881
▁achieve	-2882
▁color	-2883
▁depart	-2884
▁Spe	-2885
▁successful	-2886
reg	-2887
▁pray	-2888
▁implement	-2889
nov	-2890
ights	-2891
ively	-2892
▁absolutely	-2893
▁blogg	-2894
▁autom	-2895
AL	-2896
▁beyond	-2897
▁middle	-2898
▁limited	-2899
▁rent	-2900
▁influ	-2901
▁speed	-2902
▁economic	-2903
▁March	-2904
▁highly	-2905
arily	-2906
▁remind	-2907
▁heav	-2908
▁Canad	-2909
sequ	-2910
▁advant	-2911
oul	-2912
▁prim	-2913
▁international	-2914
▁benefit	-2915
pite	-2916
▁subst	-2917
▁rules	-2918
▁ur	-2919
▁solution	-2920
▁worry	-2921
▁steps	-2922
▁Tra	-2923
If	-2924
No	-2925
▁helps	-2926
▁accom	-2927
pril	-2928
▁grad	-2929
atory	-2930
epend	-2931
▁organization	-2932
▁players	-2933
rel	-2934
▁Make	-2935
iar	-2936
▁variety	-2937
▁immediately	-2938
reed	-2939
▁exec	-2940
▁growing	-2941
▁indic	-2942
arter	-2943
▁spot	-2944
itter	-2945
▁fully	-2946
▁vot	-2947
▁sounds	-2948
▁disapp	-2949
nes	-2950
face	-2951
▁significant	-2952
▁threat	-2953
▁particularly	-2954
▁includes	-2955
This	-2956
▁tur	-2957
▁describ	-2958
ipment	-2959
▁qual	-2960
▁budget	-2961
▁floor	-2962
And	-2963
vent	-2964
hel	-2965
▁load	-2966
▁charge	-2967
▁adult	-2968
▁sorry	-2969
▁meaning	-2970
ittee	-2971
▁employees	-2972
▁awesome	-2973
▁June	-2974
▁Jesus	-2975
▁included	-2976
▁occur	-2977
aves	-2978
▁lic	-2979
ctions	-2980
▁path	-2981
how	-2982
▁mid	-2983
▁force	-2984
atform	-2985
▁shoot	-2986
egr	-2987
oms	-2988
▁stri	-2989
▁doctor	-2990
▁letter	-2991
▁mix	-2992
▁sweet	-2993
▁Where	-2994
▁helped	-2995
▁patients	-2996
▁effic	-2997
▁extremely	-2998
▁connect	-2999
▁flow	-3000
▁college	-3001
▁passed	-3002
itation	-3003
▁stick	-3004
▁standard	-3005
▁image	-3006
▁remo	-3007
▁TV	-3008
▁English	-3009
attle	-3010
fortun	-3011
▁Love	-3012
▁tele	-3013
▁concept	-3014
▁lose	-3015
imately	-3016
▁latest	-3017
▁Stud	-3018
ground	-3019
▁appreciate	-3020
.'	-3021
ley	-3022
▁Off	-3023
▁mentioned	-3024
▁shot	-3025
▁providing	-3026
cember	-3027
▁fat	-3028
▁families	-3029
▁April	-3030
▁prefer	-3031
▁unless	-3032
▁cat	-3033
▁administ	-3034
action	-3035
▁earlier	-3036
▁clot	-3037
▁numbers	-3038
idents	-3039
cast	-3040
amed	-3041
▁North	-3042
▁spirit	-3043
ese	-3044
▁watching	-3045
▁normal	-3046
▁willing	-3047
▁warm	-3048
▁girls	-3049
▁danger	-3050
He	-3051
▁obtain	-3052
▁Cons	-3053
▁green	-3054
iny	-3055
▁tools	-3056
▁demand	-3057
ovember	-3058
str	-3059
▁Like	-3060
▁global	-3061
▁finding	-3062
oming	-3063
▁Col	-3064
right	-3065
org	-3066
▁rout	-3067
▁emerg	-3068
ai	-3069
arden	-3070
▁Bar	-3071
▁[...]	-3072
pre	-3073
▁Jo	-3074
▁join	-3075
But	-3076
▁forg	-3077
▁Aug	-3078
▁Somet	-3079
▁argu	-3080
▁moved	-3081
▁intell	-3082
itude	-3083
sych	-3084
adem	-3085
ension	-3086
▁statement	-3087
▁grand	-3088
▁mine	-3089
▁strugg	-3090
itchen	-3091
▁Health	-3092
▁sad	-3093
▁requirements	-3094
verse	-3095
▁Today	-3096
▁£	-3097
vey	-3098
▁Ge	-3099
▁played	-3100
ufact	-3101
▁Sm	-3102
▁December	-3103
ological	-3104
▁brain	-3105
▁subs	-3106
▁Bo	-3107
▁expert	-3108
▁contain	-3109
▁September	-3110
▁fill	-3111
▁hotel	-3112
▁reve	-3113
__	-3114
▁bookmark	-3115
ended	-3116
▁income	-3117
▁War	-3118
▁camer	-3119
▁enjoyed	-3120
▁OF	-3121
itable	-3122
▁church	-3123
▁tick	-3124
▁October	-3125
eter	-3126
ened	-3127
▁goals	-3128
▁release	-3129
▁November	-3130
clud	-3131
▁ded	-3132
▁princi	-3133
sec	-3134
▁prop	-3135
▁fol	-3136
▁Min	-3137
▁Other	-3138
idge	-3139
ffee	-3140
▁capt	-3141
▁liter	-3142
▁affect	-3143
iment	-3144
▁damage	-3145
▁science	-3146
▁gun	-3147
▁schools	-3148
▁conduct	-3149
▁weather	-3150
▁Lord	-3151
ivity	-3152
▁ign	-3153
▁attract	-3154
▁appropriate	-3155
▁TO	-3156
▁platform	-3157
▁January	-3158
▁earth	-3159
▁production	-3160
▁Sund	-3161
In	-3162
▁society	-3163
▁consist	-3164
That	-3165
ram	-3166
off	-3167
▁modern	-3168
▁Ed	-3169
▁Count	-3170
▁Take	-3171
▁Brit	-3172
▁incred	-3173
▁creating	-3174
▁hous	-3175
▁reality	-3176
▁Although	-3177
▁businesses	-3178
▁evening	-3179
▁ton	-3180
▁July	-3181
▁Har	-3182
▁pred	-3183
▁photo	-3184
▁died	-3185
ha	-3186
▁whose	-3187
▁stress	-3188
▁effects	-3189
based	-3190
▁Pre	-3191
▁Ear	-3192
▁Friday	-3193
▁activity	-3194
▁asking	-3195
▁afford	-3196
▁scient	-3197
▁consult	-3198
rupt	-3199
▁restaur	-3200
orge	-3201
▁faith	-3202
▁regist	-3203
▁miles	-3204
▁Art	-3205
▁tend	-3206
▁complex	-3207
▁UK	-3208
▁Pa	-3209
ysis	-3210
aging	-3211
hib	-3212
▁rates	-3213
▁Int	-3214
▁challenge	-3215
▁Cong	-3216
▁repe	-3217
▁/	-3218
▁wood	-3219
uted	-3220
ague	-3221
▁former	-3222
▁surv	-3223
aches	-3224
▁realize	-3225
rit	-3226
▁altern	-3227
▁occas	-3228
▁See	-3229
▁supposed	-3230
ek	-3231
▁Cour	-3232
▁allows	-3233
aling	-3234
▁states	-3235
▁Did	-3236
▁download	-3237
▁club	-3238
▁basic	-3239
▁School	-3240
▁totally	-3241
▁equipment	-3242
abor	-3243
▁cash	-3244
▁stage	-3245
▁meas	-3246
▁keeping	-3247
▁clearly	-3248
▁Par	-3249
▁investment	-3250
▁bill	-3251
iend	-3252
▁nation	-3253
▁greater	-3254
terday	-3255
lection	-3256
▁published	-3257
cked	-3258
term	-3259
▁proced	-3260
▁prices	-3261
▁opportunities	-3262
▁articles	-3263
▁af	-3264
round	-3265
Oh	-3266
using	-3267
Well	-3268
dden	-3269
▁trade	-3270
▁gift	-3271
▁multiple	-3272
itiz	-3273
ims	-3274
word	-3275
▁helping	-3276
▁decide	-3277
▁bottom	-3278
▁YOU	-3279
you	-3280
▁log	-3281
iled	-3282
▁dinner	-3283
▁shown	-3284
bed	-3285
▁responsible	-3286
▁reported	-3287
▁decl	-3288
▁vehicle	-3289
▁excited	-3290
▁slight	-3291
▁jobs	-3292
▁comfortable	-3293
▁🙂	-3294
▁therefore	-3295
▁drop	-3296
▁sym	-3297
▁pressure	-3298
▁Over	-3299
▁nut	-3300
▁disease	-3301
▁gas	-3302
▁appears	-3303
▁offered	-3304
▁window	-3305
▁mount	-3306
▁finished	-3307
▁older	-3308
▁match	-3309
▁powerful	-3310
▁actual	-3311
▁whom	-3312
▁putting	-3313
▁owners	-3314
▁quiet	-3315
▁Rem	-3316
rely	-3317
▁driving	-3318
▁glass	-3319
▁race	-3320
▁sudden	-3321
▁president	-3322
▁Add	-3323
▁broad	-3324
dom	-3325
▁trouble	-3326
▁display	-3327
▁wat	-3328
▁deb	-3329
▁Gener	-3330
nces	-3331
▁assess	-3332
▁sitting	-3333
artment	-3334
▁shop	-3335
▁manufact	-3336
▁prem	-3337
▁regarding	-3338
▁catch	-3339
▁aspect	-3340
▁lovely	-3341
▁promot	-3342
▁located	-3343
what	-3344
riage	-3345
ously	-3346
▁otherwise	-3347
▁bought	-3348
▁appl	-3349
ocr	-3350
▁organiz	-3351
lying	-3352
▁jump	-3353
▁August	-3354
ken	-3355
▁smart	-3356
▁communic	-3357
▁gold	-3358
▁Sunday	-3359
OM	-3360
▁worse	-3361
rs	-3362
▁wed	-3363
iling	-3364
▁corpor	-3365
▁advert	-3366
▁cry	-3367
▁dress	-3368
▁King	-3369
▁dire	-3370
▁busy	-3371
▁integr	-3372
▁train	-3373
▁military	-3374
▁capital	-3375
▁firm	-3376
ana	-3377
aint	-3378
ault	-3379
AC	-3380
▁serve	-3381
▁minute	-3382
▁polit	-3383
▁imagine	-3384
▁Afric	-3385
▁kid	-3386
▁rid	-3387
▁mobile	-3388
▁x	-3389
set	-3390
▁Bu	-3391
▁led	-3392
▁culture	-3393
▁independ	-3394
▁Coll	-3395
▁acqu	-3396
▁secret	-3397
▁followed	-3398
▁IN	-3399
osing	-3400
acc	-3401
ses	-3402
ST	-3403
▁posted	-3404
▁eight	-3405
▁commer	-3406
▁hang	-3407
▁Coun	-3408
▁plenty	-3409
▁setting	-3410
▁frequ	-3411
iant	-3412
▁bi	-3413
▁kitchen	-3414
▁leading	-3415
▁increasing	-3416
▁Feb	-3417
▁shared	-3418
▁Satur	-3419
ears	-3420
▁epis	-3421
There	-3422
asc	-3423
▁den	-3424
▁gain	-3425
▁demon	-3426
▁appoint	-3427
aven	-3428
▁generally	-3429
▁Keep	-3430
ales	-3431
ams	-3432
▁Mc	-3433
▁spread	-3434
▁patient	-3435
ils	-3436
▁pages	-3437
imin	-3438
gar	-3439
▁Char	-3440
▁Ste	-3441
gy	-3442
▁Gra	-3443
▁Internet	-3444
▁guide	-3445
▁Whe	-3446
▁welcome	-3447
▁reduce	-3448
▁Austral	-3449
mon	-3450
▁discovered	-3451
▁advantage	-3452
mail	-3453
▁fem	-3454
lig	-3455
▁ge	-3456
▁coffee	-3457
▁efforts	-3458
▁circum	-3459
▁mouth	-3460
ening	-3461
▁sale	-3462
▁plant	-3463
VE	-3464
▁deliver	-3465
▁eating	-3466
▁smile	-3467
▁cancer	-3468
▁released	-3469
▁billion	-3470
▁und	-3471
▁Germ	-3472
▁leaving	-3473
▁fantastic	-3474
▁continued	-3475
▁Sim	-3476
▁unc	-3477
oices	-3478
put	-3479
▁civil	-3480
▁payment	-3481
ma	-3482
▁ver	-3483
▁degree	-3484
ION	-3485
ength	-3486
▁digital	-3487
▁vote	-3488
▁gar	-3489
▁Dav	-3490
new	-3491
▁street	-3492
▁heat	-3493
",	-3494
▁Mond	-3495
▁player	-3496
▁instruct	-3497
▁client	-3498
agn	-3499
▁covered	-3500
▁pet	-3501
▁ir	-3502
apter	-3503
▁lines	-3504
ino	-3505
iles	-3506
omen	-3507
pm	-3508
▁center	-3509
▁NOT	-3510
▁wear	-3511
fast	-3512
▁economy	-3513
▁High	-3514
oon	-3515
▁born	-3516
force	-3517
▁blue	-3518
▁strategy	-3519
▁discussion	-3520
fortunately	-3521
▁Up	-3522
▁band	-3523
▁throw	-3524
arant	-3525
roll	-3526
▁hell	-3527
▁Department	-3528
▁adop	-3529
▁Saturday	-3530
▁strength	-3531
▁collection	-3532
▁audience	-3533
ID	-3534
▁exercise	-3535
▁direction	-3536
▁rock	-3537
▁journey	-3538
▁materials	-3539
▁Trump	-3540
▁dry	-3541
▁manage	-3542
▁candid	-3543
▁workers	-3544
▁Which	-3545
▁conversation	-3546
key	-3547
▁anyway	-3548
ky	-3549
encies	-3550
▁opened	-3551
▁medic	-3552
▁psych	-3553
▁diet	-3554
▁reports	-3555
▁Hope	-3556
▁active	-3557
▁spending	-3558
fl	-3559
ustr	-3560
order	-3561
▁die	-3562
▁relax	-3563
▁temper	-3564
▁arm	-3565
ux	-3566
raid	-3567
▁toward	-3568
▁fing	-3569
▁accident	-3570
▁prepared	-3571
▁population	-3572
▁images	-3573
▁harm	-3574
ties	-3575
▁device	-3576
that	-3577
▁partners	-3578
▁telling	-3579
▁commit	-3580
▁West	-3581
▁essential	-3582
▁walking	-3583
▁Cor	-3584
▁finish	-3585
▁manner	-3586
▁friendly	-3587
▁Hell	-3588
▁experienced	-3589
board	-3590
EC	-3591
▁Park	-3592
▁feels	-3593
▁cards	-3594
het	-3595
owd	-3596
▁Dem	-3597
▁developed	-3598
zz	-3599
▁vac	-3600
ager	-3601
▁machine	-3602
ancy	-3603
log	-3604
▁killed	-3605
▁Mich	-3606
▁title	-3607
isl	-3608
ondon	-3609
▁esc	-3610
▁El	-3611
▁Does	-3612
▁increased	-3613
erved	-3614
▁bath	-3615
▁hearing	-3616
anc	-3617
▁parties	-3618
▁guid	-3619
▁AND	-3620
usiness	-3621
▁ended	-3622
▁holiday	-3623
▁Monday	-3624
▁stopped	-3625
▁herself	-3626
lear	-3627
▁cru	-3628
OL	-3629
aled	-3630
apan	-3631
▁links	-3632
OW	-3633
▁pattern	-3634
▁dut	-3635
change	-3636
▁volunt	-3637
pective	-3638
▁max	-3639
▁buying	-3640
▁creative	-3641
▁relevant	-3642
▁mur	-3643
▁ult	-3644
wor	-3645
hest	-3646
▁Each	-3647
dule	-3648
▁pros	-3649
▁feature	-3650
ili	-3651
▁Mon	-3652
Yes	-3653
▁China	-3654
▁overall	-3655
formation	-3656
ounced	-3657
▁yours	-3658
▁According	-3659
▁characters	-3660
▁wild	-3661
aries	-3662
▁afraid	-3663
▁supply	-3664
▁hospital	-3665
▁Those	-3666
▁traffic	-3667
ares	-3668
▁transport	-3669
▁folks	-3670
min	-3671
▁transfer	-3672
▁Work	-3673
▁foreign	-3674
▁laws	-3675
▁caused	-3676
▁Would	-3677
▁names	-3678
onna	-3679
▁surprised	-3680
▁mental	-3681
▁express	-3682
▁Last	-3683
▁garden	-3684
▁Red	-3685
▁yesterday	-3686
▁indeed	-3687
▁citiz	-3688
▁tomorrow	-3689
▁biggest	-3690
▁reflect	-3691
▁seven	-3692
▁Republic	-3693
ube	-3694
ruary	-3695
▁knowing	-3696
▁limit	-3697
▁Post	-3698
icro	-3699
friend	-3700
▁rule	-3701
▁distrib	-3702
▁balance	-3703
▁cert	-3704
▁star	-3705
hern	-3706
gn	-3707
▁categ	-3708
▁;	-3709
▁partner	-3710
▁hate	-3711
▁London	-3712
▁pieces	-3713
rench	-3714
▁caught	-3715
enn	-3716
ament	-3717
pes	-3718
ossible	-3719
▁expensive	-3720
aper	-3721
▁lived	-3722
▁possibly	-3723
▁Russ	-3724
atively	-3725
▁pool	-3726
▁circumst	-3727
oly	-3728
▁Another	-3729
!)	-3730
▁reached	-3731
appy	-3732
▁readers	-3733
▁arch	-3734
ashion	-3735
ato	-3736
▁Yeah	-3737
▁produce	-3738
coming	-3739
▁fru	-3740
▁encourage	-3741
▁cup	-3742
chan	-3743
▁ourselves	-3744
rible	-3745
utive	-3746
cr	-3747
▁standing	-3748
▁vill	-3749
▁managed	-3750
uate	-3751
▁mill	-3752
▁block	-3753
▁discover	-3754
▁crit	-3755
▁cast	-3756
ipped	-3757
▁connection	-3758
▁update	-3759
well	-3760
▁ban	-3761
▁calls	-3762
▁ran	-3763
▁boys	-3764
▁commercial	-3765
ocol	-3766
▁soul	-3767
▁waste	-3768
▁memory	-3769
▁winter	-3770
▁solutions	-3771
▁innov	-3772
▁Ro	-3773
▁histor	-3774
▁camera	-3775
▁experiences	-3776
▁fra	-3777
▁becoming	-3778
▁communication	-3779
enses	-3780
icip	-3781
▁fab	-3782
▁existing	-3783
▁Japan	-3784
▁ing	-3785
▁onto	-3786
place	-3787
▁Out	-3788
▁February	-3789
▁trial	-3790
▁nor	-3791
▁federal	-3792
ET	-3793
▁owner	-3794
▁cheap	-3795
▁analysis	-3796
▁thus	-3797
▁majority	-3798
▁Mus	-3799
▁scene	-3800
▁continu	-3801
earch	-3802
▁cars	-3803
▁Jack	-3804
▁length	-3805
house	-3806
▁Cr	-3807
ulate	-3808
vision	-3809
▁annual	-3810
▁Life	-3811
▁mat	-3812
▁Gl	-3813
▁Check	-3814
▁claims	-3815
▁Click	-3816
▁sea	-3817
▁sister	-3818
bing	-3819
ronic	-3820
▁trick	-3821
▁govern	-3822
▁passion	-3823
▁Before	-3824
aker	-3825
▁actions	-3826
ums	-3827
▁remark	-3828
▁protection	-3829
▁views	-3830
▁Use	-3831
▁heavy	-3832
▁studies	-3833
▁Law	-3834
ifying	-3835
▁thousands	-3836
ech	-3837
▁closed	-3838
▁sust	-3839
▁anti	-3840
▁surround	-3841
▁showing	-3842
▁measure	-3843
▁decisions	-3844
▁mail	-3845
▁chem	-3846
▁sick	-3847
▁sexual	-3848
▁Very	-3849
▁master	-3850
▁entertain	-3851
▁mission	-3852
▁shut	-3853
▁returned	-3854
▁Council	-3855
▁wedding	-3856
▁married	-3857
▁crowd	-3858
▁satisf	-3859
down	-3860
▁guarant	-3861
wered	-3862
▁IT	-3863
uk	-3864
▁teaching	-3865
▁placed	-3866
▁tree	-3867
▁sen	-3868
▁replace	-3869
▁handle	-3870
dy	-3871
▁extend	-3872
▁Pat	-3873
▁proud	-3874
▁command	-3875
▁opening	-3876
▁grant	-3877
▁century	-3878
▁wis	-3879
▁accur	-3880
▁adding	-3881
▁concerned	-3882
▁paying	-3883
▁debt	-3884
uable	-3885
iforn	-3886
▁methods	-3887
▁dollars	-3888
▁Sw	-3889
rant	-3890
▁Home	-3891
aly	-3892
▁uses	-3893
iders	-3894
fit	-3895
▁Aut	-3896
arc	-3897
▁funny	-3898
▁kick	-3899
▁associated	-3900
▁exciting	-3901
▁ice	-3902
▁traditional	-3903
▁roll	-3904
▁Only	-3905
▁hurt	-3906
lock	-3907
▁happening	-3908
▁snow	-3909
▁homes	-3910
▁farm	-3911
▁requires	-3912
noon	-3913
oph	-3914
▁fuck	-3915
AM	-3916
amb	-3917
▁noticed	-3918
▁none	-3919
▁Court	-3920
▁described	-3921
▁raised	-3922
▁drug	-3923
▁aim	-3924
▁completed	-3925
▁San	-3926
▁liked	-3927
aces	-3928
▁har	-3929
▁IS	-3930
▁scen	-3931
▁plus	-3932
▁filled	-3933
night	-3934
inated	-3935
▁factors	-3936
which	-3937
▁bow	-3938
▁ship	-3939
▁Child	-3940
▁excl	-3941
▁score	-3942
▁walked	-3943
▁Commun	-3944
▁task	-3945
poses	-3946
▁Sen	-3947
▁larger	-3948
venue	-3949
▁ap	-3950
▁changing	-3951
▁mostly	-3952
see	-3953
▁ride	-3954
ray	-3955
▁speaking	-3956
▁lunch	-3957
ulous	-3958
▁Best	-3959
▁European	-3960
amm	-3961
▁coverage	-3962
▁hoping	-3963
▁weap	-3964
▁compared	-3965
▁Ins	-3966
icated	-3967
▁teams	-3968
▁mer	-3969
▁brief	-3970
arently	-3971
▁determine	-3972
nown	-3973
▁arms	-3974
▁double	-3975
▁recipe	-3976
standing	-3977
▁holding	-3978
ulated	-3979
ours	-3980
▁anywhere	-3981
▁During	-3982
▁oppos	-3983
▁Government	-3984
▁adjust	-3985
▁agreement	-3986
▁corner	-3987
▁intellig	-3988
ifornia	-3989
▁status	-3990
▁session	-3991
ext	-3992
yl	-3993
▁Two	-3994
▁ble	-3995
▁policies	-3996
▁dear	-3997
St	-3998
▁teacher	-3999
LE	-4000
istics	-4001
▁tor	-4002
▁construction	-4003
▁desire	-4004
▁freed	-4005
▁Bill	-4006
▁challenges	-4007
▁photograph	-4008
ctors	-4009
▁Canada	-4010
ipping	-4011
▁usual	-4012
▁offering	-4013
▁becomes	-4014
rael	-4015
▁fans	-4016
▁stood	-4017
▁animals	-4018
▁movement	-4019
▁Dan	-4020
rast	-4021
▁assum	-4022
▁critical	-4023
▁impossible	-4024
▁standards	-4025
▁distance	-4026
▁button	-4027
▁minimum	-4028
▁eval	-4029
▁Sci	-4030
▁bull	-4031
itness	-4032
ael	-4033
aced	-4034
hens	-4035
apers	-4036
▁served	-4037
▁shopping	-4038
▁Bra	-4039
▁crazy	-4040
ls	-4041
▁rich	-4042
olf	-4043
▁accompl	-4044
▁seriously	-4045
▁calling	-4046
▁Paul	-4047
▁videos	-4048
▁Obama	-4049
iques	-4050
icy	-4051
gged	-4052
▁technical	-4053
▁alb	-4054
▁answered	-4055
▁established	-4056
men	-4057
▁frame	-4058
▁rain	-4059
▁responsibility	-4060
ounce	-4061
▁missing	-4062
▁Time	-4063
▁earn	-4064
▁advance	-4065
▁International	-4066
▁station	-4067
care	-4068
▁schedule	-4069
ara	-4070
roy	-4071
▁bless	-4072
▁thread	-4073
look	-4074
entially	-4075
izes	-4076
▁Center	-4077
▁somewhere	-4078
▁gonna	-4079
▁Sometimes	-4080
▁afternoon	-4081
▁driver	-4082
▁Its	-4083
▁replied	-4084
▁Ser	-4085
▁fish	-4086
▁beat	-4087
acity	-4088
vest	-4089
▁Book	-4090
▁funds	-4091
▁proceed	-4092
▁pow	-4093
▁obvious	-4094
▁familiar	-4095
▁ideal	-4096
▁teach	-4097
▁Business	-4098
▁Hey	-4099
▁libr	-4100
▁forms	-4101
▁?	-4102
”,	-4103
▁arrived	-4104
▁showed	-4105
▁marriage	-4106
aid	-4107
▁organizations	-4108
ohol	-4109
▁Bel	-4110
▁behavior	-4111
atically	-4112
▁RE	-4113
▁taste	-4114
▁situ	-4115
iation	-4116
▁California	-4117
▁remove	-4118
▁brows	-4119
▁visiting	-4120
▁bright	-4121
▁therap	-4122
▁organis	-4123
▁delic	-4124
▁Wed	-4125
▁circumstances	-4126
▁pun	-4127
tered	-4128
▁enem	-4129
cohol	-4130
▁Direct	-4131
,'	-4132
▁matters	-4133
▁Black	-4134
How	-4135
▁prison	-4136
▁legisl	-4137
▁starts	-4138
▁origin	-4139
▁tim	-4140
▁background	-4141
▁region	-4142
▁Sam	-4143
▁despite	-4144
▁visitors	-4145
.....	-4146
ulf	-4147
▁compar	-4148
itute	-4149
vis	-4150
▁properly	-4151
▁Plan	-4152
▁broken	-4153
oos	-4154
phone	-4155
▁propos	-4156
▁Their	-4157
▁shouldn	-4158
▁birthday	-4159
▁analy	-4160
▁Tom	-4161
▁joy	-4162
▁ang	-4163
▁negative	-4164
cket	-4165
▁electric	-4166
▁explore	-4167
▁selling	-4168
▁eventually	-4169
▁pm	-4170
▁Right	-4171
▁Israel	-4172
isc	-4173
▁surprise	-4174
hington	-4175
▁rap	-4176
▁efficient	-4177
▁wondering	-4178
▁pregn	-4179
▁carried	-4180
usive	-4181
▁virt	-4182
▁values	-4183
ushed	-4184
▁motiv	-4185
▁raise	-4186
▁developing	-4187
▁Service	-4188
AY	-4189
▁purposes	-4190
ios	-4191
overy	-4192
▁structure	-4193
▁files	-4194
▁relationships	-4195
mes	-4196
▁episode	-4197
▁belief	-4198
▁Under	-4199
▁prec	-4200
▁White	-4201
▁delivery	-4202
▁novel	-4203
▁sources	-4204
▁teachers	-4205
ologies	-4206
▁oblig	-4207
enture	-4208
▁sector	-4209
▁conven	-4210
▁Lear	-4211
▁applications	-4212
▁suppose	-4213
▁devices	-4214
irty	-4215
▁classes	-4216
▁Ac	-4217
▁General	-4218
▁demonstr	-4219
wide	-4220
▁chair	-4221
▁missed	-4222
▁confident	-4223
ov	-4224
▁fort	-4225
▁estate	-4226
▁fee	-4227
ald	-4228
▁assign	-4229
cript	-4230
▁stated	-4231
road	-4232
▁secure	-4233
▁assistance	-4234
osure	-4235
▁sympt	-4236
▁impl	-4237
▁rooms	-4238
▁Sub	-4239
▁consequ	-4240
▁Ir	-4241
▁highest	-4242
▁Market	-4243
▁separate	-4244
▁academ	-4245
▁breakfast	-4246
▁announced	-4247
▁County	-4248
EO	-4249
▁sam	-4250
▁favour	-4251
▁battle	-4252
▁bird	-4253
erous	-4254
They	-4255
king	-4256
▁Rec	-4257
▁rise	-4258
duc	-4259
▁facts	-4260
▁forgot	-4261
▁presence	-4262
▁<	-4263
▁talent	-4264
▁ST	-4265
▁David	-4266
▁pleasure	-4267
rees	-4268
▁anx	-4269
▁primary	-4270
▁counter	-4271
▁entry	-4272
▁remains	-4273
▁Washington	-4274
▁agreed	-4275
▁quarter	-4276
▁personally	-4277
uct	-4278
▁picked	-4279
upid	-4280
▁Ass	-4281
ception	-4282
son	-4283
▁complain	-4284
with	-4285
▁beach	-4286
▁spring	-4287
▁laug	-4288
iminal	-4289
▁journal	-4290
estern	-4291
▁theme	-4292
▁worst	-4293
▁searching	-4294
▁suspect	-4295
▁interact	-4296
▁unit	-4297
▁Hello	-4298
▁conference	-4299
iable	-4300
My	-4301
▁Board	-4302
So	-4303
▁clothes	-4304
ev	-4305
▁department	-4306
▁entirely	-4307
▁expand	-4308
▁strange	-4309
▁sight	-4310
▁judge	-4311
▁reviews	-4312
orage	-4313
▁rob	-4314
▁laugh	-4315
▁Americans	-4316
omb	-4317
▁Amaz	-4318
▁tough	-4319
ENT	-4320
AD	-4321
ero	-4322
icing	-4323
▁forced	-4324
▁competition	-4325
ooth	-4326
rough	-4327
▁sports	-4328
anch	-4329
▁slightly	-4330
▁listed	-4331
▁optim	-4332
▁turns	-4333
▁documents	-4334
eal	-4335
▁leader	-4336
etic	-4337
▁considering	-4338
▁poll	-4339
):	-4340
▁smaller	-4341
inc	-4342
▁cris	-4343
▁British	-4344
▁weak	-4345
▁websites	-4346
▁seat	-4347
▁okay	-4348
iration	-4349
▁East	-4350
▁records	-4351
▁anymore	-4352
cription	-4353
▁Still	-4354
▁quot	-4355
.’	-4356
▁wine	-4357
▁greatest	-4358
inct	-4359
▁sav	-4360
▁communities	-4361
▁mechan	-4362
▁Miss	-4363
▁king	-4364
▁establish	-4365
rial	-4366
asy	-4367
ban	-4368
▁vision	-4369
▁neighbor	-4370
aked	-4371
▁valid	-4372
▁French	-4373
▁mort	-4374
▁Church	-4375
▁reasonable	-4376
▁feedback	-4377
▁Christian	-4378
▁Op	-4379
▁Perhaps	-4380
▁shock	-4381
▁solid	-4382
▁answers	-4383
▁shape	-4384
▁enh	-4385
sp	-4386
▁election	-4387
▁crime	-4388
ancing	-4389
▁influence	-4390
▁valuable	-4391
▁resol	-4392
▁Air	-4393
▁Company	-4394
▁desk	-4395
UT	-4396
▁agency	-4397
▁chick	-4398
ii	-4399
▁Bet	-4400
▁twice	-4401
▁award	-4402
▁identify	-4403
▁Net	-4404
▁approx	-4405
▁beauty	-4406
▁Congress	-4407
▁guests	-4408
▁writ	-4409
▁initi	-4410
ham	-4411
▁facilities	-4412
▁Develop	-4413
uries	-4414
▁concerns	-4415
▁dangerous	-4416
▁Big	-4417
vere	-4418
▁eth	-4419
▁largest	-4420
alt	-4421
hips	-4422
▁tonight	-4423
▁tea	-4424
▁appeared	-4425
uman	-4426
▁www	-4427
entle	-4428
▁confidence	-4429
▁Find	-4430
IG	-4431
fficient	-4432
▁Tues	-4433
▁pleased	-4434
rom	-4435
▁till	-4436
▁persons	-4437
▁odd	-4438
▁paint	-4439
▁techniques	-4440
▁Ange	-4441
bu	-4442
▁concern	-4443
wood	-4444
▁loan	-4445
▁importance	-4446
▁Whether	-4447
▁breath	-4448
▁freedom	-4449
▁grab	-4450
▁fellow	-4451
▁Street	-4452
raft	-4453
▁England	-4454
▁bigger	-4455
▁violence	-4456
▁climate	-4457
▁Social	-4458
▁Thurs	-4459
▁suddenly	-4460
▁stream	-4461
ference	-4462
▁kinds	-4463
▁PR	-4464
▁Step	-4465
▁surface	-4466
▁lawy	-4467
▁emp	-4468
ervation	-4469
▁trees	-4470
▁India	-4471
essions	-4472
OS	-4473
▁fashion	-4474
▁batter	-4475
▁compon	-4476
bon	-4477
▁boo	-4478
▁interests	-4479
▁Instead	-4480
▁clin	-4481
▁authority	-4482
▁resist	-4483
▁Commission	-4484
▁discount	-4485
▁seconds	-4486
▁sand	-4487
▁occasion	-4488
▁dad	-4489
▁reference	-4490
▁iP	-4491
▁practices	-4492
▁sustain	-4493
▁volunte	-4494
going	-4495
▁alternative	-4496
▁obviously	-4497
▁Year	-4498
gment	-4499
▁forth	-4500
equ	-4501
▁lady	-4502
iam	-4503
▁turning	-4504
▁flat	-4505
▁failed	-4506
▁manager	-4507
▁arrange	-4508
ommod	-4509
▁posting	-4510
▁closer	-4511
▁cute	-4512
▁conflic	-4513
aming	-4514
▁Services	-4515
▁Super	-4516
▁independent	-4517
▁dogs	-4518
▁minor	-4519
▁realized	-4520
▁Again	-4521
▁belong	-4522
▁spoke	-4523
▁slowly	-4524
free	-4525
▁disp	-4526
▁lucky	-4527
▁intended	-4528
ille	-4529
▁speech	-4530
lim	-4531
▁furn	-4532
▁elements	-4533
▁committed	-4534
▁ment	-4535
▁occup	-4536
▁Word	-4537
▁officer	-4538
▁cab	-4539
raw	-4540
▁disappoint	-4541
▁transl	-4542
▁tired	-4543
▁presented	-4544
ternal	-4545
wr	-4546
▁compre	-4547
known	-4548
orough	-4549
▁summ	-4550
▁restaurant	-4551
estic	-4552
▁complic	-4553
▁Never	-4554
lin	-4555
▁burn	-4556
▁terror	-4557
▁initial	-4558
▁push	-4559
▁Tuesday	-4560
▁Committee	-4561
▁Hall	-4562
iest	-4563
▁funding	-4564
▁meal	-4565
▁liber	-4566
▁About	-4567
▁Michael	-4568
▁pair	-4569
itors	-4570
IP	-4571
oles	-4572
▁Trans	-4573
▁citizens	-4574
▁exchange	-4575
▁drugs	-4576
▁wearing	-4577
uled	-4578
▁Office	-4579
▁notes	-4580
Don	-4581
een	-4582
▁injury	-4583
▁tells	-4584
▁Educ	-4585
▁sugar	-4586
asant	-4587
▁Associ	-4588
urg	-4589
iers	-4590
▁fif	-4591
▁Thursday	-4592
▁chann	-4593
ait	-4594
▁focused	-4595
▁instance	-4596
agraph	-4597
▁context	-4598
▁mir	-4599
abilities	-4600
▁perfectly	-4601
▁Mary	-4602
idden	-4603
▁symptoms	-4604
Do	-4605
▁island	-4606
ught	-4607
▁AM	-4608
▁alcohol	-4609
▁estim	-4610
▁ingred	-4611
▁determined	-4612
▁hasn	-4613
▁named	-4614
utor	-4615
▁feelings	-4616
▁religious	-4617
▁continues	-4618
▁rank	-4619
▁Person	-4620
▁failure	-4621
▁testing	-4622
ipe	-4623
▁signed	-4624
▁recommended	-4625
▁https	-4626
▁fixed	-4627
▁veget	-4628
▁horse	-4629
▁stupid	-4630
▁leaves	-4631
▁removed	-4632
▁weren	-4633
▁Australia	-4634
ica	-4635
▁yell	-4636
▁diagn	-4637
tion	-4638
▁Free	-4639
▁calc	-4640
▁twenty	-4641
▁selection	-4642
▁destroy	-4643
▁signs	-4644
▁Web	-4645
▁auto	-4646
erry	-4647
works	-4648
▁female	-4649
▁fees	-4650
▁pulled	-4651
▁capacity	-4652
eff	-4653
ett	-4654
▁ON	-4655
▁hadn	-4656
▁arrest	-4657
rol	-4658
▁cas	-4659
▁writer	-4660
den	-4661
▁Hel	-4662
▁prove	-4663
▁Wind	-4664
▁accounts	-4665
▁bes	-4666
▁motor	-4667
▁experts	-4668
oman	-4669
▁Twitter	-4670
▁Having	-4671
ifts	-4672
▁lie	-4673
▁operating	-4674
▁bod	-4675
▁adults	-4676
▁restrict	-4677
▁explained	-4678
tenance	-4679
issions	-4680
▁operations	-4681
AP	-4682
▁perspective	-4683
zen	-4684
▁watched	-4685
▁bunch	-4686
▁numerous	-4687
▁argument	-4688
▁Ann	-4689
▁emergency	-4690
▁examples	-4691
▁album	-4692
▁connected	-4693
rary	-4694
▁concl	-4695
▁produced	-4696
pic	-4697
▁delight	-4698
▁choices	-4699
▁radio	-4700
▁measures	-4701
iot	-4702
▁arg	-4703
▁truck	-4704
▁Wednes	-4705
▁talked	-4706
iber	-4707
gery	-4708
▁animal	-4709
eds	-4710
▁district	-4711
vention	-4712
▁accommod	-4713
▁survey	-4714
▁youth	-4715
▁Earth	-4716
rig	-4717
▁follows	-4718
▁employee	-4719
▁cloud	-4720
▁witness	-4721
▁cream	-4722
▁strategies	-4723
▁egg	-4724
ym	-4725
▁prepare	-4726
ushing	-4727
▁depending	-4728
▁Jew	-4729
akers	-4730
▁clim	-4731
▁theory	-4732
▁bound	-4733
▁generation	-4734
▁assume	-4735
porary	-4736
▁moments	-4737
▁abuse	-4738
▁Note	-4739
▁unable	-4740
▁leadership	-4741
bl	-4742
▁Inc	-4743
▁practical	-4744
▁bringing	-4745
fin	-4746
ded	-4747
▁impress	-4748
▁storage	-4749
▁professionals	-4750
▁central	-4751
▁runs	-4752
umn	-4753
▁aid	-4754
▁defend	-4755
▁incor	-4756
oop	-4757
▁Unfortunately	-4758
▁dele	-4759
▁administration	-4760
pet	-4761
arian	-4762
asp	-4763
▁foods	-4764
▁colors	-4765
▁gentle	-4766
▁residents	-4767
▁Rel	-4768
ico	-4769
rie	-4770
▁agent	-4771
▁goods	-4772
▁listening	-4773
▁officials	-4774
▁wealth	-4775
▁scr	-4776
▁promise	-4777
▁operation	-4778
▁Wr	-4779
▁WH	-4780
▁treated	-4781
▁plants	-4782
▁graph	-4783
illy	-4784
▁highlight	-4785
▁entered	-4786
▁faster	-4787
▁tight	-4788
▁hall	-4789
icians	-4790
▁flex	-4791
Why	-4792
odes	-4793
▁director	-4794
▁checking	-4795
▁causes	-4796
ij	-4797
▁fairly	-4798
▁sched	-4799
▁god	-4800
▁football	-4801
▁Wednesday	-4802
▁movies	-4803
▁package	-4804
▁incredible	-4805
▁Happy	-4806
▁songs	-4807
▁tow	-4808
ooper	-4809
erences	-4810
▁forever	-4811
▁swim	-4812
▁admit	-4813
▁scale	-4814
osen	-4815
▁neck	-4816
alse	-4817
box	-4818
rd	-4819
▁Pal	-4820
▁brings	-4821
▁retail	-4822
▁suggestions	-4823
▁sides	-4824
inese	-4825
alled	-4826
▁decades	-4827
▁boat	-4828
▁blogs	-4829
▁suit	-4830
▁fighting	-4831
▁Try	-4832
▁Yet	-4833
▁gather	-4834
▁ast	-4835
▁collabor	-4836
▁emotional	-4837
▁applied	-4838
▁id	-4839
▁hundreds	-4840
▁labor	-4841
▁environmental	-4842
uce	-4843
rog	-4844
▁quote	-4845
EL	-4846
▁accepted	-4847
▁markets	-4848
▁contains	-4849
▁leads	-4850
▁sir	-4851
▁Met	-4852
▁famous	-4853
reak	-4854
▁Know	-4855
she	-4856
▁ju	-4857
▁map	-4858
▁Mor	-4859
▁taught	-4860
que	-4861
▁promote	-4862
▁UN	-4863
▁empt	-4864
▁specifically	-4865
▁react	-4866
olic	-4867
▁models	-4868
▁error	-4869
▁Dec	-4870
▁bedroom	-4871
▁Apple	-4872
ndom	-4873
▁cities	-4874
▁scientific	-4875
▁edge	-4876
owing	-4877
**	-4878
yal	-4879
▁equal	-4880
amily	-4881
▁detailed	-4882
▁Democr	-4883
▁launch	-4884
▁officers	-4885
▁keeps	-4886
▁Back	-4887
ida	-4888
▁constantly	-4889
▁Africa	-4890
▁spl	-4891
▁predict	-4892
kes	-4893
izz	-4894
▁topics	-4895
▁inn	-4896
▁magn	-4897
▁OK	-4898
stood	-4899
VER	-4900
▁Ty	-4901
▁+	-4902
▁alive	-4903
▁bear	-4904
▁Both	-4905
▁mut	-4906
ateful	-4907
▁justice	-4908
▁dealing	-4909
▁hero	-4910
▁corporate	-4911
▁pu	-4912
▁Next	-4913
▁stret	-4914
hop	-4915
▁Cur	-4916
▁losing	-4917
▁Hot	-4918
▁bathroom	-4919
IM	-4920
▁library	-4921
▁Techn	-4922
iency	-4923
▁aspects	-4924
▁Group	-4925
▁evil	-4926
▁Mem	-4927
▁core	-4928
▁bread	-4929
▁sky	-4930
▁delicious	-4931
▁teen	-4932
▁criminal	-4933
antic	-4934
ading	-4935
As	-4936
▁accord	-4937
▁saved	-4938
ship	-4939
▁fuel	-4940
▁bare	-4941
▁stuck	-4942
cel	-4943
▁Jim	-4944
▁loves	-4945
▁thousand	-4946
ibilities	-4947
▁Come	-4948
▁chat	-4949
dr	-4950
▁switch	-4951
▁Remember	-4952
▁regularly	-4953
▁ring	-4954
▁orders	-4955
icial	-4956
▁fault	-4957
anging	-4958
▁submit	-4959
▁employment	-4960
▁explan	-4961
▁Ev	-4962
nel	-4963
▁shit	-4964
while	-4965
outs	-4966
▁uns	-4967
▁News	-4968
▁reply	-4969
▁..	-4970
▁gotten	-4971
iche	-4972
▁chapter	-4973
▁proposed	-4974
▁dedicated	-4975
▁smooth	-4976
agram	-4977
▁proof	-4978
▁approximately	-4979
▁crisis	-4980
▁south	-4981
▁honor	-4982
▁courses	-4983
▁manufacture	-4984
▁Supp	-4985
cipl	-4986
▁temperature	-4987
▁grown	-4988
▁rub	-4989
▁writers	-4990
▁dance	-4991
osis	-4992
▁Care	-4993
▁Play	-4994
▁trail	-4995
▁Should	-4996
▁situations	-4997
▁sufficient	-4998
▁rat	-4999
▁Bank	-5000
▁previously	-5001
▁James	-5002
▁fly	-5003
uine	-5004
▁planned	-5005
▁seeking	-5006
US	-5007
▁paragraph	-5008
▁ends	-5009
▁Mac	-5010
▁combination	-5011
▁Program	-5012
▁rough	-5013
iture	-5014
▁processes	-5015
▁pal	-5016
▁north	-5017
itect	-5018
nding	-5019
▁instit	-5020
rey	-5021
▁investigation	-5022
ula	-5023
▁defined	-5024
▁male	-5025
▁google	-5026
▁meat	-5027
▁careful	-5028
orney	-5029
▁suggested	-5030
illing	-5031
▁maintenance	-5032
▁Could	-5033
▁random	-5034
▁suppl	-5035
▁Think	-5036
ege	-5037
▁everybody	-5038
▁Loc	-5039
▁fruit	-5040
▁George	-5041
▁Val	-5042
▁dy	-5043
▁commitment	-5044
▁Prof	-5045
▁housing	-5046
▁younger	-5047
▁Chinese	-5048
▁license	-5049
▁university	-5050
▁Public	-5051
▁rapid	-5052
hered	-5053
▁milk	-5054
▁decor	-5055
▁informed	-5056
ocolate	-5057
▁household	-5058
▁enjoying	-5059
BC	-5060
▁advertising	-5061
▁affected	-5062
▁believed	-5063
▁Start	-5064
▁Rich	-5065
erves	-5066
law	-5067
▁Wow	-5068
asks	-5069
▁Adm	-5070
▁internal	-5071
pan	-5072
▁millions	-5073
▁updated	-5074
▁ought	-5075
▁guest	-5076
▁charges	-5077
▁massive	-5078
▁Fore	-5079
▁Star	-5080
▁Sur	-5081
▁weird	-5082
▁shoes	-5083
ilos	-5084
life	-5085
▁thinks	-5086
▁concent	-5087
▁apartment	-5088
▁Inter	-5089
hand	-5090
ya	-5091
▁reward	-5092
▁Str	-5093
UR	-5094
▁duty	-5095
▁yeah	-5096
▁educational	-5097
..."	-5098
ivered	-5099
▁PM	-5100
▁guard	-5101
▁Green	-5102
▁recognize	-5103
ixt	-5104
▁smell	-5105
Wh	-5106
gging	-5107
▁planet	-5108
▁carefully	-5109
▁spect	-5110
▁publ	-5111
▁basically	-5112
▁factor	-5113
rage	-5114
▁presentation	-5115
▁=	-5116
iety	-5117
▁iron	-5118
▁Mrs	-5119
semb	-5120
▁format	-5121
OD	-5122
▁menu	-5123
▁dat	-5124
▁maximum	-5125
▁allowing	-5126
cient	-5127
chol	-5128
▁chemical	-5129
▁messages	-5130
▁Indian	-5131
eper	-5132
▁fool	-5133
▁outdo	-5134
pends	-5135
▁kiss	-5136
▁description	-5137
▁Tex	-5138
▁forces	-5139
uclear	-5140
▁quant	-5141
▁somewhat	-5142
▁unf	-5143
▁element	-5144
▁bon	-5145
ems	-5146
▁magic	-5147
▁dropped	-5148
▁instructions	-5149
▁facility	-5150
▁Call	-5151
isted	-5152
▁aside	-5153
iveness	-5154
point	-5155
▁breast	-5156
▁Education	-5157
resp	-5158
Ch	-5159
▁Port	-5160
▁magaz	-5161
▁parking	-5162
cknow	-5163
itate	-5164
hem	-5165
▁La	-5166
▁suc	-5167
▁skill	-5168
▁storm	-5169
▁Mex	-5170
▁hunt	-5171
▁Dist	-5172
▁genuine	-5173
▁passing	-5174
▁publish	-5175
phas	-5176
▁Second	-5177
▁Everyone	-5178
▁grew	-5179
▁pure	-5180
▁fold	-5181
▁participate	-5182
▁flight	-5183
▁Sorry	-5184
▁exhib	-5185
▁annoy	-5186
▁apparently	-5187
▁II	-5188
▁announce	-5189
olly	-5190
▁server	-5191
wing	-5192
▁appearance	-5193
▁senior	-5194
▁vehicles	-5195
▁Being	-5196
▁Prov	-5197
oking	-5198
▁teeth	-5199
▁perman	-5200
▁mistake	-5201
▁Av	-5202
▁hat	-5203
▁Pay	-5204
▁simpl	-5205
▁Sum	-5206
▁fle	-5207
elines	-5208
▁surgery	-5209
▁approved	-5210
▁noted	-5211
▁visual	-5212
▁Mad	-5213
?!	-5214
▁illeg	-5215
ta	-5216
away	-5217
▁describe	-5218
▁advanced	-5219
▁selected	-5220
▁register	-5221
▁river	-5222
▁Finally	-5223
▁illness	-5224
▁repair	-5225
▁amb	-5226
▁vir	-5227
▁religion	-5228
state	-5229
▁chosen	-5230
▁fasc	-5231
▁tro	-5232
▁Information	-5233
▁cleaning	-5234
▁somebody	-5235
▁Mag	-5236
iverse	-5237
▁LO	-5238
▁Looking	-5239
▁roof	-5240
▁comprehens	-5241
!!!!	-5242
ript	-5243
▁Del	-5244
▁rare	-5245
▁false	-5246
▁fulf	-5247
▁regulations	-5248
related	-5249
▁unlike	-5250
▁procedures	-5251
▁artist	-5252
▁tag	-5253
▁resident	-5254
▁convin	-5255
▁Const	-5256
under	-5257
urning	-5258
ructure	-5259
▁stores	-5260
▁buildings	-5261
▁Flor	-5262
▁doors	-5263
unning	-5264
▁spok	-5265
▁Spr	-5266
▁profit	-5267
aration	-5268
field	-5269
▁renew	-5270
▁debate	-5271
▁ordered	-5272
▁dial	-5273
rian	-5274
▁prompt	-5275
▁possibility	-5276
inating	-5277
ius	-5278
▁util	-5279
▁craft	-5280
han	-5281
▁negot	-5282
▁succeed	-5283
▁agencies	-5284
▁critic	-5285
ford	-5286
▁adapt	-5287
▁taxes	-5288
▁lights	-5289
▁heads	-5290
▁Though	-5291
▁gall	-5292
kin	-5293
▁bond	-5294
▁sets	-5295
abled	-5296
▁sport	-5297
▁grateful	-5298
▁nine	-5299
▁thorough	-5300
▁issued	-5301
▁Rob	-5302
▁suffering	-5303
▁retire	-5304
▁centre	-5305
▁effectively	-5306
ups	-5307
▁updates	-5308
top	-5309
▁inspired	-5310
▁ingredients	-5311
ints	-5312
▁gro	-5313
▁System	-5314
orter	-5315
▁Need	-5316
▁instru	-5317
▁tests	-5318
▁flu	-5319
▁vacation	-5320
IL	-5321
▁empty	-5322
▁Section	-5323
▁acknow	-5324
▁Party	-5325
Not	-5326
▁broke	-5327
▁typically	-5328
ilst	-5329
▁Vis	-5330
▁cart	-5331
race	-5332
▁monthly	-5333
▁consumers	-5334
▁immig	-5335
▁tun	-5336
▁somehow	-5337
▁wanting	-5338
Is	-5339
▁letters	-5340
▁nav	-5341
▁cultural	-5342
▁extent	-5343
▁Ter	-5344
▁medium	-5345
▁frequently	-5346
▁sending	-5347
▁Found	-5348
ingly	-5349
▁loud	-5350
▁drinking	-5351
▁flav	-5352
▁square	-5353
▁Research	-5354
▁thick	-5355
icit	-5356
▁upgr	-5357
ville	-5358
▁Det	-5359
▁behavi	-5360
▁terrible	-5361
▁ages	-5362
▁reput	-5363
She	-5364
▁script	-5365
▁bodies	-5366
OP	-5367
▁delivered	-5368
▁supporting	-5369
▁shar	-5370
▁Ant	-5371
...”	-5372
▁relatively	-5373
▁newsp	-5374
▁capable	-5375
▁academic	-5376
tr	-5377
▁hung	-5378
▁Amazon	-5379
iance	-5380
▁tiny	-5381
▁univers	-5382
▁chief	-5383
▁bike	-5384
▁impressed	-5385
▁Such	-5386
▁risks	-5387
essor	-5388
useum	-5389
ago	-5390
▁Anyway	-5391
▁profile	-5392
▁portion	-5393
mosp	-5394
▁understood	-5395
▁discussed	-5396
▁likes	-5397
ien	-5398
▁species	-5399
▁neither	-5400
▁Ben	-5401
▁Gold	-5402
hab	-5403
hone	-5404
▁confirm	-5405
▁curious	-5406
bel	-5407
▁Mart	-5408
▁Lo	-5409
arge	-5410
▁minim	-5411
▁depos	-5412
▁Win	-5413
▁Peter	-5414
istry	-5415
▁institutions	-5416
▁humans	-5417
▁FOR	-5418
▁Management	-5419
▁meetings	-5420
▁exceed	-5421
inate	-5422
▁legs	-5423
▁charged	-5424
▁rom	-5425
▁sin	-5426
▁wond	-5427
▁College	-5428
▁blind	-5429
▁pointed	-5430
▁depends	-5431
▁pursu	-5432
▁introduced	-5433
▁AC	-5434
▁worried	-5435
▁enforce	-5436
▁Women	-5437
gage	-5438
ker	-5439
▁invent	-5440
▁assets	-5441
▁neighborhood	-5442
▁Children	-5443
idays	-5444
▁France	-5445
▁cooking	-5446
▁whis	-5447
oosing	-5448
▁mad	-5449
▁Security	-5450
▁memories	-5451
net	-5452
pal	-5453
▁multi	-5454
▁winning	-5455
reets	-5456
TH	-5457
▁beer	-5458
▁conc	-5459
ograp	-5460
▁Pet	-5461
▁properties	-5462
▁dreams	-5463
▁excess	-5464
▁reader	-5465
▁receiving	-5466
bles	-5467
▁literally	-5468
▁procedure	-5469
▁Custom	-5470
▁pump	-5471
▁dump	-5472
▁expenses	-5473
▁nod	-5474
▁houses	-5475
la	-5476
whel	-5477
cean	-5478
▁consumer	-5479
▁loving	-5480
▁accurate	-5481
▁units	-5482
▁vast	-5483
▁delay	-5484
▁fest	-5485
cking	-5486
fe	-5487
▁everywhere	-5488
▁involve	-5489
▁accordance	-5490
estyle	-5491
encing	-5492
▁compens	-5493
▁knock	-5494
▁liqu	-5495
▁laid	-5496
▁politics	-5497
▁expectations	-5498
▁joined	-5499
▁windows	-5500
▁drivers	-5501
ician	-5502
▁resource	-5503
▁bloggers	-5504
▁satisfied	-5505
▁Old	-5506
prene	-5507
▁necessarily	-5508
ipp	-5509
▁ru	-5510
▁sole	-5511
▁medicine	-5512
▁engage	-5513
▁Texas	-5514
isters	-5515
▁Union	-5516
▁payments	-5517
▁performed	-5518
▁remaining	-5519
▁Jud	-5520
▁incl	-5521
teen	-5522
▁authorities	-5523
▁opposite	-5524
can	-5525
ective	-5526
▁struggle	-5527
abet	-5528
ady	-5529
▁Lu	-5530
▁Long	-5531
rain	-5532
▁reaction	-5533
▁chicken	-5534
▁Sure	-5535
▁Prot	-5536
When	-5537
▁forest	-5538
▁advoc	-5539
▁Secret	-5540
rate	-5541
▁!	-5542
▁reduced	-5543
▁defense	-5544
▁butter	-5545
▁recommendations	-5546
▁Mod	-5547
▁intention	-5548
▁creation	-5549
▁relief	-5550
reprene	-5551
▁Him	-5552
▁concerning	-5553
▁elig	-5554
▁heaven	-5555
▁Club	-5556
anda	-5557
IR	-5558
▁Food	-5559
▁recovery	-5560
▁nobody	-5561
▁harder	-5562
leep	-5563
▁privacy	-5564
▁decent	-5565
▁Human	-5566
▁plastic	-5567
sey	-5568
▁cake	-5569
▁brown	-5570
ander	-5571
yn	-5572
▁surely	-5573
ario	-5574
▁coast	-5575
▁lessons	-5576
▁Island	-5577
▁solve	-5578
ifications	-5579
▁functions	-5580
▁assessment	-5581
▁institution	-5582
▁NE	-5583
▁dating	-5584
anged	-5585
▁routine	-5586
▁revenue	-5587
▁Que	-5588
▁Times	-5589
▁cheese	-5590
▁reject	-5591
▁lean	-5592
▁nurs	-5593
▁carrying	-5594
▁Nothing	-5595
aded	-5596
▁village	-5597
▁greatly	-5598
▁therapy	-5599
▁fields	-5600
▁protected	-5601
▁atmosp	-5602
oe	-5603
CH	-5604
▁coach	-5605
▁incredibly	-5606
▁metal	-5607
▁Follow	-5608
spe	-5609
▁plays	-5610
▁permission	-5611
▁Association	-5612
▁clar	-5613
▁expression	-5614
▁incident	-5615
▁consideration	-5616
agues	-5617
▁inspiration	-5618
▁hardly	-5619
▁improved	-5620
▁attacks	-5621
▁committee	-5622
▁participants	-5623
▁identity	-5624
▁crew	-5625
▁confir	-5626
cles	-5627
▁referred	-5628
▁remote	-5629
▁calm	-5630
▁serving	-5631
ena	-5632
▁weapons	-5633
▁appointment	-5634
inations	-5635
▁everyday	-5636
▁guidance	-5637
cluding	-5638
▁tasks	-5639
▁Florida	-5640
▁chocolate	-5641
tw	-5642
▁whenever	-5643
▁brill	-5644
▁enemy	-5645
▁reform	-5646
▁micro	-5647
▁boost	-5648
’.	-5649
▁pounds	-5650
alley	-5651
▁stars	-5652
lam	-5653
▁guarantee	-5654
▁conscious	-5655
▁expertise	-5656
▁shoulder	-5657
▁begins	-5658
▁datab	-5659
▁provider	-5660
▁bother	-5661
▁frustr	-5662
▁letting	-5663
▁principles	-5664
▁purchased	-5665
▁walls	-5666
▁Design	-5667
▁Ken	-5668
▁bottle	-5669
▁hes	-5670
▁administr	-5671
▁sentence	-5672
▁staying	-5673
made	-5674
▁”	-5675
▁premium	-5676
hus	-5677
▁substant	-5678
▁Plus	-5679
▁murder	-5680
ography	-5681
▁elimin	-5682
▁spiritual	-5683
▁emphas	-5684
vin	-5685
▁artists	-5686
ashed	-5687
▁automatically	-5688
▁stands	-5689
▁BE	-5690
▁repeated	-5691
▁anybody	-5692
▁flowers	-5693
▁cro	-5694
▁recru	-5695
▁television	-5696
▁overwhel	-5697
▁favourite	-5698
craft	-5699
▁trib	-5700
▁Ira	-5701
▁papers	-5702
▁commission	-5703
▁competitive	-5704
▁banks	-5705
▁nom	-5706
▁registered	-5707
▁volume	-5708
orable	-5709
▁normally	-5710
anta	-5711
▁Att	-5712
PS	-5713
▁doctors	-5714
▁researc	-5715
▁tall	-5716
ilty	-5717
▁entit	-5718
▁Everything	-5719
▁tone	-5720
▁improvement	-5721
▁supported	-5722
▁falling	-5723
▁registration	-5724
rist	-5725
▁Bro	-5726
uration	-5727
ores	-5728
▁awareness	-5729
▁Frank	-5730
▁suffer	-5731
▁Ret	-5732
▁Sun	-5733
▁advis	-5734
hors	-5735
▁transform	-5736
▁AS	-5737
▁Cle	-5738
▁EU	-5739
▁architect	-5740
press	-5741
▁Rober	-5742
▁accomplish	-5743
aped	-5744
iat	-5745
▁bookmarked	-5746
▁DO	-5747
▁ticket	-5748
▁appeal	-5749
TM	-5750
▁Bob	-5751
▁dism	-5752
athy	-5753
▁Lou	-5754
▁habit	-5755
▁Jour	-5756
▁suitable	-5757
▁dish	-5758
uel	-5759
▁philos	-5760
▁cutting	-5761
▁Science	-5762
▁blogging	-5763
▁wake	-5764
▁facing	-5765
▁shooting	-5766
▁Development	-5767
▁tickets	-5768
▁existence	-5769
▁pleasant	-5770
▁immediate	-5771
IF	-5772
▁newslet	-5773
▁Saf	-5774
▁conflict	-5775
▁salt	-5776
▁sty	-5777
roid	-5778
▁hyp	-5779
▁airport	-5780
▁Glo	-5781
▁mode	-5782
orgeous	-5783
▁engaged	-5784
▁construct	-5785
▁exception	-5786
▁lies	-5787
▁stone	-5788
▁Iraq	-5789
▁infrast	-5790
▁category	-5791
▁fingers	-5792
ilding	-5793
arrow	-5794
▁Give	-5795
▁affordable	-5796
▁Rock	-5797
▁shel	-5798
▁PC	-5799
▁streets	-5800
▁comprehensive	-5801
▁phr	-5802
▁bell	-5803
▁Top	-5804
▁van	-5805
▁providers	-5806
▁Sol	-5807
▁wise	-5808
unction	-5809
EM	-5810
▁escape	-5811
▁linked	-5812
rab	-5813
IV	-5814
▁Tre	-5815
▁san	-5816
ials	-5817
▁Grand	-5818
▁processing	-5819
▁figures	-5820
pected	-5821
▁Germany	-5822
▁nuclear	-5823
section	-5824
▁rental	-5825
▁Family	-5826
▁inqu	-5827
ef	-5828
▁deals	-5829
itam	-5830
▁Things	-5831
▁identified	-5832
cont	-5833
▁plain	-5834
▁extensive	-5835
▁penal	-5836
▁technologies	-5837
ighter	-5838
▁installed	-5839
▁Open	-5840
▁grade	-5841
▁vary	-5842
ogue	-5843
uting	-5844
▁tail	-5845
▁definition	-5846
▁hire	-5847
▁Hist	-5848
▁domestic	-5849
▁Tell	-5850
▁Da	-5851
urse	-5852
▁browser	-5853
▁attitude	-5854
▁Therefore	-5855
▁cried	-5856
▁forum	-5857
▁Windows	-5858
▁enable	-5859
▁laun	-5860
▁degrees	-5861
▁Alex	-5862
ias	-5863
ga	-5864
▁chart	-5865
▁motion	-5866
▁decade	-5867
▁satisfact	-5868
▁Contin	-5869
ket	-5870
▁visited	-5871
outhern	-5872
▁surprising	-5873
umber	-5874
rim	-5875
▁lesson	-5876
▁classic	-5877
▁significantly	-5878
host	-5879
ado	-5880
▁colour	-5881
▁Hol	-5882
▁checked	-5883
▁occurred	-5884
▁stayed	-5885
▁constant	-5886
▁tears	-5887
rics	-5888
▁Bush	-5889
▁amounts	-5890
▁Class	-5891
▁experiment	-5892
▁»	-5893
▁regardless	-5894
▁Bible	-5895
▁sessions	-5896
oor	-5897
▁precise	-5898
▁German	-5899
▁cere	-5900
▁arrive	-5901
▁celebrate	-5902
▁Real	-5903
▁oh	-5904
▁chose	-5905
▁Despite	-5906
▁Without	-5907
▁hide	-5908
▁Federal	-5909
▁Okay	-5910
▁spons	-5911
▁mountain	-5912
▁merely	-5913
▁consistent	-5914
▁vital	-5915
For	-5916
▁decre	-5917
▁noise	-5918
▁severe	-5919
▁mood	-5920
▁twe	-5921
▁Fire	-5922
▁consequences	-5923
▁adventure	-5924
▁acting	-5925
▁gifts	-5926
▁blame	-5927
▁reporting	-5928
▁Franc	-5929
▁candidates	-5930
aren	-5931
pret	-5932
▁candidate	-5933
▁saving	-5934
▁victim	-5935
elf	-5936
hetic	-5937
▁essay	-5938
▁Mike	-5939
▁complicated	-5940
▁lifestyle	-5941
▁closely	-5942
▁challenging	-5943
▁Through	-5944
gun	-5945
▁wheel	-5946
istan	-5947
▁drawing	-5948
▁electronic	-5949
▁opinions	-5950
▁undert	-5951
▁Really	-5952
▁negoti	-5953
▁spr	-5954
▁executive	-5955
▁settings	-5956
▁Sing	-5957
▁infrastructure	-5958
urt	-5959
▁Father	-5960
▁combined	-5961
▁enhance	-5962
▁statements	-5963
tra	-5964
▁restaurants	-5965
▁Project	-5966
rors	-5967
▁legislation	-5968
▁transm	-5969
▁convenient	-5970
▁extended	-5971
ALL	-5972
▁wire	-5973
ether	-5974
▁recall	-5975
▁locations	-5976
▁der	-5977
ads	-5978
▁vacc	-5979
▁Learn	-5980
▁positions	-5981
▁illegal	-5982
▁agents	-5983
▁withd	-5984
▁incorpor	-5985
▁Vol	-5986
▁chances	-5987
▁Power	-5988
▁List	-5989
icon	-5990
▁savings	-5991
▁vul	-5992
▁differences	-5993
nda	-5994
▁Main	-5995
▁angry	-5996
▁draft	-5997
ching	-5998
▁upper	-5999
▁trading	-6000
▁reliable	-6001
▁Put	-6002
▁blank	-6003
▁Cap	-6004
bered	-6005
▁guilty	-6006
▁explanation	-6007
▁Hill	-6008
eration	-6009
▁hopefully	-6010
▁revealed	-6011
▁prote	-6012
▁fro	-6013
▁smiled	-6014
▁schol	-6015
▁council	-6016
▁consent	-6017
▁victims	-6018
▁disag	-6019
▁apps	-6020
▁wid	-6021
▁rose	-6022
▁resolution	-6023
cribe	-6024
▁emails	-6025
▁anxiety	-6026
▁panel	-6027
▁hidden	-6028
▁route	-6029
▁cells	-6030
▁scheme	-6031
▁conclusion	-6032
▁Special	-6033
▁Organ	-6034
▁ath	-6035
▁remem	-6036
▁SH	-6037
▁hole	-6038
▁possess	-6039
▁intelligence	-6040
▁champ	-6041
▁battery	-6042
▁cycle	-6043
▁default	-6044
▁SO	-6045
▁enthus	-6046
met	-6047
▁atmosphere	-6048
▁dram	-6049
lle	-6050
▁trend	-6051
▁desper	-6052
win	-6053
▁typical	-6054
▁cooper	-6055
▁Leg	-6056
▁editor	-6057
page	-6058
ette	-6059
▁loans	-6060
▁insight	-6061
▁Stand	-6062
▁discipl	-6063
▁invited	-6064
osh	-6065
▁mile	-6066
▁investors	-6067
▁Mal	-6068
▁flag	-6069
fol	-6070
arsh	-6071
ked	-6072
reens	-6073
▁historical	-6074
▁Police	-6075
▁ease	-6076
▁landsc	-6077
prise	-6078
▁meals	-6079
site	-6080
▁chest	-6081
rier	-6082
▁Russia	-6083
cher	-6084
▁pra	-6085
▁Carol	-6086
ployment	-6087
▁root	-6088
▁retain	-6089
▁killing	-6090
▁Water	-6091
▁gorgeous	-6092
▁shift	-6093
▁entr	-6094
▁approval	-6095
lor	-6096
▁Code	-6097
▁Kore	-6098
▁CH	-6099
▁contribute	-6100
▁happiness	-6101
▁conclud	-6102
▁Mat	-6103
earing	-6104
▁cabin	-6105
▁external	-6106
orthern	-6107
▁figured	-6108
▁alt	-6109
▁industrial	-6110
oma	-6111
▁Central	-6112
▁Minister	-6113
orters	-6114
▁gender	-6115
▁symb	-6116
▁coord	-6117
▁trave	-6118
▁impressive	-6119
▁nerv	-6120
▁pocket	-6121
▁pill	-6122
▁Jer	-6123
▁trig	-6124
▁authors	-6125
liament	-6126
)(	-6127
bits	-6128
▁monit	-6129
oned	-6130
itz	-6131
▁shout	-6132
▁bat	-6133
▁Dad	-6134
▁ok	-6135
▁communicate	-6136
list	-6137
▁height	-6138
▁covers	-6139
▁lying	-6140
▁warrant	-6141
estion	-6142
▁contem	-6143
▁Camp	-6144
All	-6145
-)	-6146
▁certific	-6147
▁counsel	-6148
▁informative	-6149
▁pin	-6150
▁ending	-6151
'.	-6152
ownt	-6153
▁shares	-6154
▁ALL	-6155
▁choosing	-6156
▁injuries	-6157
........	-6158
▁flood	-6159
▁intent	-6160
▁diss	-6161
▁entreprene	-6162
this	-6163
atoes	-6164
▁prospect	-6165
▁brilliant	-6166
▁Three	-6167
▁minds	-6168
▁powers	-6169
▁Steve	-6170
▁contest	-6171
▁Joe	-6172
▁wet	-6173
▁input	-6174
▁password	-6175
long	-6176
▁Lib	-6177
▁pil	-6178
▁Mo	-6179
▁terr	-6180
▁depth	-6181
▁recorded	-6182
liance	-6183
ications	-6184
▁Francis	-6185
▁unw	-6186
▁recognized	-6187
▁proven	-6188
▁Little	-6189
▁lawyer	-6190
▁USA	-6191
▁Community	-6192
▁Pen	-6193
▁Soci	-6194
▁clothing	-6195
apping	-6196
▁causing	-6197
▁faces	-6198
▁warning	-6199
cons	-6200
▁whilst	-6201
▁Mel	-6202
▁Data	-6203
▁Scott	-6204
.[	-6205
▁’	-6206
▁Chic	-6207
atures	-6208
▁unus	-6209
▁dynam	-6210
▁lit	-6211
▁dates	-6212
▁Down	-6213
▁sequ	-6214
▁mistakes	-6215
isation	-6216
▁Students	-6217
orders	-6218
▁trained	-6219
▁fourth	-6220
▁label	-6221
isher	-6222
ERE	-6223
▁lapt	-6224
▁naturally	-6225
▁Sl	-6226
acter	-6227
▁Div	-6228
▁Vir	-6229
▁chain	-6230
▁reputation	-6231
▁ultimately	-6232
▁stead	-6233
▁flying	-6234
▁tip	-6235
▁lux	-6236
▁ven	-6237
▁illustr	-6238
▁applicable	-6239
rical	-6240
▁improving	-6241
then	-6242
▁limits	-6243
▁compare	-6244
▁encoun	-6245
▁holds	-6246
▁Sil	-6247
nic	-6248
▁ongoing	-6249
▁conducted	-6250
▁Mom	-6251
▁stom	-6252
▁operate	-6253
▁Charl	-6254
▁shipping	-6255
racy	-6256
▁subsequ	-6257
atural	-6258
▁believes	-6259
▁Western	-6260
▁Mil	-6261
▁smoke	-6262
etime	-6263
rad	-6264
▁correctly	-6265
iel	-6266
▁spin	-6267
▁hopes	-6268
▁navig	-6269
▁boss	-6270
▁permanent	-6271
▁furniture	-6272
▁pace	-6273
▁behalf	-6274
uh	-6275
▁shower	-6276
▁army	-6277
▁acts	-6278
▁Offic	-6279
▁subjects	-6280
ml	-6281
▁finger	-6282
RA	-6283
?)	-6284
▁Roy	-6285
▁bookmarks	-6286
▁drawn	-6287
▁AP	-6288
▁exposure	-6289
▁hom	-6290
acing	-6291
▁thin	-6292
ris	-6293
icide	-6294
▁Phil	-6295
vy	-6296
▁tact	-6297
▁outstanding	-6298
▁wishes	-6299
▁Master	-6300
▁gay	-6301
SS	-6302
▁attorney	-6303
▁colleagues	-6304
▁Further	-6305
sm	-6306
▁sleeping	-6307
▁Tim	-6308
oster	-6309
▁difficulty	-6310
▁guidelines	-6311
▁Form	-6312
CE	-6313
ILL	-6314
▁jack	-6315
▁African	-6316
agon	-6317
▁Using	-6318
▁latter	-6319
▁eld	-6320
▁entertainment	-6321
ensions	-6322
date	-6323
▁Way	-6324
▁remained	-6325
▁hosting	-6326
▁holidays	-6327
ogether	-6328
▁dust	-6329
add	-6330
▁criter	-6331
▁laughed	-6332
▁distribution	-6333
▁plane	-6334
▁owned	-6335
▁scream	-6336
▁dim	-6337
illa	-6338
▁recipes	-6339
▁breaking	-6340
▁granted	-6341
▁silence	-6342
▁inches	-6343
▁deserve	-6344
▁defe	-6345
▁foundation	-6346
▁tab	-6347
haust	-6348
▁scheduled	-6349
▁sharp	-6350
▁)	-6351
ari	-6352
udd	-6353
▁upcoming	-6354
anna	-6355
▁Sal	-6356
uts	-6357
▁Nor	-6358
▁Bay	-6359
▁percentage	-6360
▁blow	-6361
respond	-6362
real	-6363
tle	-6364
▁ridic	-6365
▁tech	-6366
angers	-6367
▁organized	-6368
iversary	-6369
▁plate	-6370
edy	-6371
lines	-6372
▁vulner	-6373
▁headed	-6374
▁implementation	-6375
▁universe	-6376
▁hook	-6377
▁Exper	-6378
▁narrow	-6379
▁config	-6380
▁shots	-6381
▁submitted	-6382
▁database	-6383
▁grass	-6384
▁Japanese	-6385
▁stronger	-6386
▁solar	-6387
▁Enjoy	-6388
▁rot	-6389
▁anticip	-6390
▁attached	-6391
▁Chris	-6392
▁asks	-6393
▁Mother	-6394
▁entitled	-6395
▁membership	-6396
▁Instagram	-6397
▁Vict	-6398
▁Report	-6399
▁tradition	-6400
▁programme	-6401
▁Thom	-6402
▁ped	-6403
____	-6404
▁Mean	-6405
▁tack	-6406
▁returns	-6407
▁Jul	-6408
▁successfully	-6409
holders	-6410
▁lock	-6411
▁moral	-6412
burg	-6413
▁lately	-6414
▁estimated	-6415
▁appreciated	-6416
▁ads	-6417
▁sample	-6418
▁mixed	-6419
pay	-6420
▁deeply	-6421
▁tutor	-6422
▁county	-6423
▁regul	-6424
abetes	-6425
▁AT	-6426
▁patterns	-6427
▁objects	-6428
▁Gree	-6429
▁employer	-6430
▁recover	-6431
▁photograp	-6432
theless	-6433
▁unex	-6434
▁Want	-6435
▁confused	-6436
alks	-6437
▁admitted	-6438
▁obtained	-6439
▁depression	-6440
ona	-6441
▁plot	-6442
pass	-6443
▁puts	-6444
▁joint	-6445
▁lips	-6446
▁ID	-6447
▁hanging	-6448
▁shame	-6449
born	-6450
▁honestly	-6451
▁Chicago	-6452
▁Aff	-6453
▁Enter	-6454
▁eligible	-6455
they	-6456
▁suggests	-6457
oses	-6458
▁Review	-6459
▁Max	-6460
▁nights	-6461
▁supplies	-6462
▁Has	-6463
▁engineering	-6464
ugg	-6465
▁Help	-6466
ache	-6467
▁bul	-6468
ros	-6469
▁researchers	-6470
▁wra	-6471
▁survive	-6472
▁healthcare	-6473
▁Ah	-6474
rets	-6475
▁mal	-6476
▁rail	-6477
▁outdoor	-6478
▁Actually	-6479
▁Paris	-6480
▁priority	-6481
▁Men	-6482
▁ben	-6483
▁ec	-6484
▁Lead	-6485
ston	-6486
▁heading	-6487
acle	-6488
▁Mer	-6489
▁originally	-6490
bled	-6491
ste	-6492
pir	-6493
▁cookies	-6494
▁studying	-6495
ppy	-6496
▁components	-6497
▁magazine	-6498
▁proposal	-6499
▁lol	-6500
▁Econom	-6501
▁increases	-6502
▁excuse	-6503
▁Tur	-6504
▁OR	-6505
▁Insurance	-6506
▁Watch	-6507
▁classroom	-6508
▁Los	-6509
▁Invest	-6510
▁promised	-6511
▁Harry	-6512
▁outcome	-6513
arn	-6514
▁ancient	-6515
pat	-6516
▁Administ	-6517
▁Journal	-6518
eting	-6519
rition	-6520
adow	-6521
icted	-6522
▁increasingly	-6523
▁yellow	-6524
UN	-6525
▁provisions	-6526
▁Mexico	-6527
▁studio	-6528
▁films	-6529
▁bridge	-6530
▁pregnant	-6531
▁rising	-6532
Now	-6533
▁Director	-6534
fall	-6535
▁Senate	-6536
▁painting	-6537
TER	-6538
▁Girl	-6539
▁continuing	-6540
▁achieved	-6541
▁Four	-6542
▁exists	-6543
▁audio	-6544
▁damn	-6545
▁innoc	-6546
▁expressed	-6547
▁technique	-6548
▁Es	-6549
▁formal	-6550
▁launched	-6551
▁talks	-6552
▁purs	-6553
▁dollar	-6554
▁bags	-6555
▁NO	-6556
▁Ok	-6557
ATION	-6558
onym	-6559
pack	-6560
▁forgotten	-6561
amental	-6562
▁claimed	-6563
▁Holy	-6564
person	-6565
▁accessible	-6566
▁mainly	-6567
▁finds	-6568
▁nervous	-6569
▁sem	-6570
▁Def	-6571
▁District	-6572
otic	-6573
▁compe	-6574
▁basket	-6575
▁Cath	-6576
▁brands	-6577
orne	-6578
▁generate	-6579
▁alle	-6580
▁distinct	-6581
endar	-6582
▁fabric	-6583
▁Always	-6584
▁attrib	-6585
▁Span	-6586
▁Online	-6587
profit	-6588
▁bills	-6589
▁Show	-6590
▁vib	-6591
▁enforcement	-6592
uated	-6593
▁Spirit	-6594
eless	-6595
▁rein	-6596
esides	-6597
▁replaced	-6598
▁sake	-6599
▁traveling	-6600
▁Id	-6601
▁zero	-6602
▁disagree	-6603
▁avo	-6604
▁conserv	-6605
▁dining	-6606
▁golf	-6607
▁Policy	-6608
▁evol	-6609
▁adequ	-6610
TS	-6611
▁pharm	-6612
▁sauce	-6613
▁networks	-6614
▁driven	-6615
▁transition	-6616
▁Interest	-6617
▁pod	-6618
▁argue	-6619
▁Sch	-6620
▁wound	-6621
▁butt	-6622
▁scan	-6623
▁encouraged	-6624
▁relation	-6625
▁cow	-6626
▁dont	-6627
▁scientists	-6628
▁Smith	-6629
comm	-6630
▁exhaust	-6631
▁potentially	-6632
hent	-6633
ptions	-6634
▁Phot	-6635
▁Medic	-6636
▁Brown	-6637
▁channel	-6638
▁affili	-6639
rip	-6640
▁qualified	-6641
▁veter	-6642
oration	-6643
▁transportation	-6644
▁scar	-6645
▁Lab	-6646
▁fraud	-6647
▁Bas	-6648
▁sees	-6649
▁strongly	-6650
▁Creat	-6651
▁Sar	-6652
▁collected	-6653
Tube	-6654
▁prayer	-6655
▁personality	-6656
▁Priv	-6657
▁Expl	-6658
▁mand	-6659
soft	-6660
achel	-6661
aud	-6662
water	-6663
▁sacr	-6664
▁suffered	-6665
▁retirement	-6666
▁surf	-6667
▁Wall	-6668
▁engagement	-6669
inent	-6670
ords	-6671
itar	-6672
▁Pri	-6673
▁CD	-6674
ieve	-6675
▁Sir	-6676
asters	-6677
▁Set	-6678
▁relating	-6679
▁Mass	-6680
comes	-6681
▁impression	-6682
▁flash	-6683
loc	-6684
xy	-6685
▁emotions	-6686
▁aband	-6687
▁strict	-6688
▁row	-6689
sters	-6690
zing	-6691
▁voc	-6692
▁barely	-6693
▁crucial	-6694
igned	-6695
IA	-6696
▁Elect	-6697
▁specified	-6698
rency	-6699
▁surrounding	-6700
▁confirmed	-6701
▁bowl	-6702
eline	-6703
▁nose	-6704
▁Consider	-6705
▁comparison	-6706
▁stamp	-6707
▁explains	-6708
being	-6709
▁provision	-6710
▁interpret	-6711
▁filed	-6712
▁River	-6713
▁carbon	-6714
▁upload	-6715
▁Sk	-6716
▁destination	-6717
▁stro	-6718
LY	-6719
▁Cre	-6720
▁hearts	-6721
▁ladies	-6722
);	-6723
ria	-6724
▁west	-6725
oga	-6726
▁Boy	-6727
orses	-6728
ulture	-6729
▁Thus	-6730
▁Institute	-6731
▁moves	-6732
▁stomach	-6733
▁winner	-6734
▁Article	-6735
▁Non	-6736
oured	-6737
▁tempt	-6738
▁criteria	-6739
▁Blue	-6740
▁designs	-6741
▁Team	-6742
▁drag	-6743
▁Robert	-6744
▁correspond	-6745
▁moon	-6746
▁tested	-6747
▁monitor	-6748
Sh	-6749
▁legit	-6750
▁iPhone	-6751
▁Bre	-6752
▁Applic	-6753
▁yard	-6754
▁liquid	-6755
cers	-6756
▁telephone	-6757
▁silver	-6758
▁pushed	-6759
%.	-6760
▁Russian	-6761
▁machines	-6762
▁Mill	-6763
ka	-6764
▁rarely	-6765
▁settle	-6766
▁ignore	-6767
▁privile	-6768
▁childhood	-6769
▁Something	-6770
apes	-6771
▁elected	-6772
▁sustainable	-6773
▁efficiency	-6774
▁beneficial	-6775
▁phase	-6776
▁drinks	-6777
▁Global	-6778
▁campus	-6779
▁mel	-6780
▁discl	-6781
▁mortgage	-6782
▁YouTube	-6783
▁desired	-6784
▁cock	-6785
▁soldiers	-6786
▁nearby	-6787
▁gym	-6788
▁amend	-6789
▁equival	-6790
▁prosec	-6791
▁strike	-6792
▁birds	-6793
EST	-6794
▁tables	-6795
▁Micro	-6796
▁shook	-6797
▁struck	-6798
▁elev	-6799
▁organic	-6800
umbled	-6801
▁managing	-6802
▁requests	-6803
arrass	-6804
▁formed	-6805
▁Islam	-6806
▁Society	-6807
ishes	-6808
ceived	-6809
▁struggling	-6810
▁stake	-6811
▁Mount	-6812
▁arts	-6813
▁transp	-6814
▁attractive	-6815
anges	-6816
▁fucking	-6817
▁Canadian	-6818
▁wisdom	-6819
▁instant	-6820
▁myst	-6821
▁Hon	-6822
▁border	-6823
▁fir	-6824
▁installation	-6825
▁acid	-6826
enger	-6827
including	-6828
▁raising	-6829
▁convention	-6830
’,	-6831
class	-6832
▁divor	-6833
▁emotion	-6834
▁communications	-6835
▁Middle	-6836
▁courage	-6837
▁lets	-6838
▁repeat	-6839
ruption	-6840
▁fitness	-6841
▁dip	-6842
▁philosop	-6843
▁shops	-6844
car	-6845
▁Sand	-6846
▁loose	-6847
,’	-6848
▁intellect	-6849
▁Test	-6850
ingu	-6851
▁Too	-6852
▁Republican	-6853
▁muscle	-6854
▁domain	-6855
iments	-6856
ugs	-6857
▁innovative	-6858
To	-6859
ora	-6860
▁sorts	-6861
▁Disc	-6862
▁sensitive	-6863
▁mg	-6864
▁Cost	-6865
▁mig	-6866
sembly	-6867
aze	-6868
cue	-6869
▁Bab	-6870
aks	-6871
▁babies	-6872
▁healing	-6873
▁rely	-6874
iger	-6875
▁adopted	-6876
▁regards	-6877
▁distur	-6878
▁swimming	-6879
▁regret	-6880
gen	-6881
oil	-6882
▁facil	-6883
▁grace	-6884
▁declared	-6885
▁weekly	-6886
▁Hotel	-6887
▁Author	-6888
▁managers	-6889
▁joke	-6890
umes	-6891
▁nations	-6892
iner	-6893
▁downt	-6894
ancial	-6895
▁Capt	-6896
▁Trust	-6897
▁performing	-6898
▁symbol	-6899
▁innovation	-6900
ada	-6901
▁returning	-6902
▁plu	-6903
rants	-6904
▁agric	-6905
imp	-6906
uling	-6907
▁elsewhere	-6908
▁Den	-6909
bell	-6910
onom	-6911
▁Contact	-6912
▁AD	-6913
▁grat	-6914
ocracy	-6915
▁licens	-6916
▁observed	-6917
▁stim	-6918
▁du	-6919
sw	-6920
stream	-6921
▁protein	-6922
Let	-6923
MS	-6924
▁fundamental	-6925
arters	-6926
iends	-6927
▁trem	-6928
▁Engine	-6929
▁boxes	-6930
▁involves	-6931
▁punish	-6932
▁pic	-6933
pending	-6934
nect	-6935
bably	-6936
▁convinced	-6937
ae	-6938
▁borrow	-6939
cribed	-6940
▁diseases	-6941
▁phen	-6942
▁suspic	-6943
▁pit	-6944
▁preparing	-6945
GE	-6946
elcome	-6947
▁closing	-6948
▁inner	-6949
▁attended	-6950
▁permit	-6951
▁categories	-6952
▁upset	-6953
▁pregnancy	-6954
▁fabulous	-6955
▁participation	-6956
▁Iran	-6957
▁Spring	-6958
▁sheet	-6959
▁dying	-6960
▁unusual	-6961
▁compensation	-6962
▁Agree	-6963
▁fishing	-6964
▁unknown	-6965
anted	-6966
aser	-6967
▁hospit	-6968
ppers	-6969
▁lists	-6970
▁relative	-6971
▁finance	-6972
▁apolog	-6973
▁zone	-6974
▁visible	-6975
▁Card	-6976
▁largely	-6977
▁computers	-6978
▁Light	-6979
▁anger	-6980
level	-6981
▁deeper	-6982
▁assault	-6983
▁PS	-6984
even	-6985
▁Tor	-6986
▁contents	-6987
▁requirement	-6988
▁adds	-6989
aimed	-6990
▁eggs	-6991
▁Ask	-6992
▁regional	-6993
▁recording	-6994
▁trends	-6995
PR	-6996
▁precious	-6997
▁obst	-6998
▁spaces	-6999
▁riding	-7000
▁embarrass	-7001
▁picking	-7002
Al	-7003
▁newspaper	-7004
▁organisation	-7005
▁Academ	-7006
ota	-7007
▁spell	-7008
▁Ire	-7009
?'	-7010
inks	-7011
▁liability	-7012
▁clinical	-7013
▁Britain	-7014
▁vegetables	-7015
▁Beaut	-7016
▁reaching	-7017
▁Road	-7018
▁Angeles	-7019
ulating	-7020
greg	-7021
▁widely	-7022
▁roads	-7023
▁pride	-7024
▁encounter	-7025
resents	-7026
▁bonus	-7027
essel	-7028
▁capture	-7029
▁eager	-7030
ola	-7031
viously	-7032
▁ears	-7033
▁·	-7034
▁steel	-7035
▁exposed	-7036
▁McC	-7037
amil	-7038
▁equally	-7039
▁versions	-7040
▁duties	-7041
▁aggress	-7042
▁Sign	-7043
▁wash	-7044
giving	-7045
▁Nice	-7046
▁diverse	-7047
uction	-7048
▁quotes	-7049
▁injured	-7050
▁faced	-7051
▁templ	-7052
▁loyal	-7053
▁governments	-7054
des	-7055
rence	-7056
iform	-7057
assion	-7058
▁Dig	-7059
▁compliance	-7060
owed	-7061
▁falls	-7062
▁~	-7063
▁consumption	-7064
▁lifetime	-7065
▁mini	-7066
▁Stay	-7067
▁pretend	-7068
▁Congr	-7069
▁Anyone	-7070
▁absence	-7071
▁concepts	-7072
▁protest	-7073
▁gig	-7074
▁revolution	-7075
▁Secretary	-7076
▁Clint	-7077
berg	-7078
▁sizes	-7079
▁cos	-7080
▁Press	-7081
▁cuts	-7082
▁addressed	-7083
▁Virgin	-7084
step	-7085
▁phones	-7086
nergy	-7087
▁reb	-7088
▁opposed	-7089
omed	-7090
▁gear	-7091
acks	-7092
▁preparation	-7093
uls	-7094
▁unexpected	-7095
▁contribution	-7096
▁ordinary	-7097
▁arrested	-7098
▁End	-7099
▁Walk	-7100
▁satisfaction	-7101
▁weapon	-7102
▁ocean	-7103
▁settled	-7104
there	-7105
▁Resp	-7106
▁strategic	-7107
▁Spanish	-7108
▁manufacturing	-7109
▁Beach	-7110
▁Fall	-7111
▁giant	-7112
▁intense	-7113
▁Scot	-7114
▁awful	-7115
▁Lake	-7116
▁withdraw	-7117
gers	-7118
▁laptop	-7119
heart	-7120
▁spa	-7121
▁league	-7122
▁monitoring	-7123
BS	-7124
▁Atl	-7125
inking	-7126
▁uncle	-7127
▁horses	-7128
▁urban	-7129
▁worldwide	-7130
raction	-7131
▁temporary	-7132
▁electricity	-7133
▁native	-7134
▁Gen	-7135
▁stopping	-7136
▁Rev	-7137
▁NY	-7138
▁expecting	-7139
▁Jeff	-7140
iece	-7141
PA	-7142
▁marked	-7143
▁scholars	-7144
▁compos	-7145
uous	-7146
▁Wood	-7147
▁Besides	-7148
▁guns	-7149
rete	-7150
▁signal	-7151
▁Dra	-7152
▁thirty	-7153
▁entering	-7154
▁jail	-7155
ipt	-7156
▁raw	-7157
▁disappointed	-7158
▁reduction	-7159
atin	-7160
▁Asia	-7161
......	-7162
▁split	-7163
▁thrown	-7164
▁judgment	-7165
eries	-7166
▁Oper	-7167
▁replacement	-7168
▁fallen	-7169
▁requested	-7170
▁refused	-7171
▁objective	-7172
▁behaviour	-7173
▁smoking	-7174
▁Ry	-7175
▁conver	-7176
▁vitam	-7177
▁Son	-7178
▁Chapter	-7179
▁flexible	-7180
▁laughing	-7181
▁SU	-7182
▁disaster	-7183
▁gate	-7184
▁Talk	-7185
▁wave	-7186
▁reducing	-7187
▁LOVE	-7188
▁Foundation	-7189
ensity	-7190
▁Cy	-7191
▁intelligent	-7192
].	-7193
rid	-7194
quality	-7195
▁wondered	-7196
▁ange	-7197
uing	-7198
▁represents	-7199
CC	-7200
▁Product	-7201
▁tons	-7202
▁thro	-7203
▁alleged	-7204
inger	-7205
▁Town	-7206
▁photography	-7207
▁Rights	-7208
merce	-7209
▁habits	-7210
▁equivalent	-7211
▁east	-7212
ita	-7213
▁shirt	-7214
▁athlet	-7215
active	-7216
ulty	-7217
▁IM	-7218
▁victory	-7219
▁Hy	-7220
▁gained	-7221
▁musical	-7222
verty	-7223
▁evolution	-7224
▁scenes	-7225
▁Chief	-7226
▁Young	-7227
▁remarkable	-7228
▁rapidly	-7229
irts	-7230
▁Cond	-7231
▁poverty	-7232
▁WE	-7233
▁Much	-7234
▁indicate	-7235
▁Louis	-7236
▁Fair	-7237
▁Queen	-7238
▁spoken	-7239
▁gap	-7240
▁tox	-7241
▁sne	-7242
▁vessel	-7243
▁earned	-7244
▁authent	-7245
▁Adv	-7246
▁arrival	-7247
cling	-7248
▁workshop	-7249
▁era	-7250
▁Fund	-7251
eping	-7252
igan	-7253
▁applies	-7254
hour	-7255
▁controlled	-7256
▁Medical	-7257
▁Money	-7258
▁dispos	-7259
▁Feel	-7260
▁principle	-7261
▁narr	-7262
lessly	-7263
oted	-7264
icate	-7265
▁toile	-7266
▁resulting	-7267
▁edition	-7268
▁Media	-7269
ashing	-7270
▁vend	-7271
▁seats	-7272
▁cheaper	-7273
▁League	-7274
▁resort	-7275
▁coal	-7276
▁periods	-7277
lym	-7278
OC	-7279
▁Land	-7280
▁destroyed	-7281
▁output	-7282
▁applying	-7283
▁Kind	-7284
▁horrible	-7285
▁absor	-7286
▁pitch	-7287
▁invite	-7288
▁spark	-7289
▁primarily	-7290
who	-7291
uten	-7292
▁firms	-7293
pel	-7294
▁Had	-7295
▁tort	-7296
▁screw	-7297
▁joining	-7298
▁extraord	-7299
erate	-7300
▁introduce	-7301
▁Exec	-7302
▁bars	-7303
rated	-7304
ifies	-7305
▁;)	-7306
▁Mot	-7307
▁dismiss	-7308
▁calendar	-7309
▁union	-7310
▁toler	-7311
gent	-7312
making	-7313
▁oven	-7314
▁treatments	-7315
rum	-7316
ultural	-7317
▁poet	-7318
▁proved	-7319
▁Music	-7320
▁dozen	-7321
▁Bur	-7322
▁responses	-7323
▁Ill	-7324
lose	-7325
▁contrast	-7326
icks	-7327
west	-7328
▁clock	-7329
▁copies	-7330
▁improvements	-7331
▁silly	-7332
ESS	-7333
▁packed	-7334
▁Conf	-7335
▁Account	-7336
▁lift	-7337
▁hyper	-7338
▁offices	-7339
ikes	-7340
▁Ital	-7341
▁trips	-7342
▁Place	-7343
Yeah	-7344
▁sooner	-7345
▁voting	-7346
▁Justice	-7347
▁prohib	-7348
▁cott	-7349
▁ye	-7350
actions	-7351
▁History	-7352
▁Martin	-7353
atre	-7354
▁View	-7355
▁territ	-7356
▁covering	-7357
▁icon	-7358
▁margin	-7359
▁scared	-7360
▁Head	-7361
▁proport	-7362
▁cous	-7363
▁silent	-7364
▁directed	-7365
▁sli	-7366
▁Bell	-7367
▁Night	-7368
▁developers	-7369
▁singing	-7370
▁pushing	-7371
oral	-7372
▁stir	-7373
▁stored	-7374
▁beliefs	-7375
▁AR	-7376
▁distract	-7377
▁je	-7378
▁sear	-7379
▁Ireland	-7380
aste	-7381
worth	-7382
▁Sup	-7383
▁Doctor	-7384
▁Fig	-7385
▁attempts	-7386
▁crash	-7387
▁diabetes	-7388
▁rum	-7389
▁ske	-7390
▁math	-7391
▁THAT	-7392
▁remembered	-7393
yes	-7394
▁define	-7395
▁tank	-7396
▁employers	-7397
▁phenomen	-7398
▁Er	-7399
Be	-7400
▁rice	-7401
▁Technology	-7402
oston	-7403
htt	-7404
▁Richard	-7405
▁fascinating	-7406
atulations	-7407
▁Ep	-7408
▁introduction	-7409
▁uncom	-7410
▁certificate	-7411
▁Victor	-7412
▁involving	-7413
▁volunteers	-7414
▁Hopefully	-7415
uality	-7416
▁expans	-7417
gl	-7418
amber	-7419
▁instrument	-7420
▁anniversary	-7421
▁THIS	-7422
ensus	-7423
▁graduate	-7424
▁sections	-7425
▁rating	-7426
▁yards	-7427
ographic	-7428
▁stable	-7429
▁garage	-7430
rem	-7431
ports	-7432
▁fiction	-7433
▁virtual	-7434
▁burning	-7435
athered	-7436
REE	-7437
▁importantly	-7438
▁demands	-7439
▁occurs	-7440
▁Rest	-7441
ubs	-7442
front	-7443
▁Unt	-7444
▁Sher	-7445
▁brothers	-7446
▁roles	-7447
',	-7448
▁hun	-7449
Just	-7450
▁Dar	-7451
▁expense	-7452
▁entrance	-7453
▁Ber	-7454
▁alarm	-7455
▁publication	-7456
▁hardware	-7457
▁Squ	-7458
▁fortun	-7459
▁hill	-7460
weet	-7461
▁syn	-7462
▁crack	-7463
▁manual	-7464
ixture	-7465
▁nodded	-7466
On	-7467
▁overcome	-7468
▁string	-7469
▁complaint	-7470
▁column	-7471
called	-7472
▁Haw	-7473
pered	-7474
▁creates	-7475
lla	-7476
▁annoying	-7477
▁breaks	-7478
▁Mont	-7479
adays	-7480
▁employed	-7481
▁circle	-7482
▁programming	-7483
▁fewer	-7484
▁contained	-7485
▁ultimate	-7486
▁Hen	-7487
▁Turn	-7488
▁thoroughly	-7489
▁grocer	-7490
▁drove	-7491
▁oppon	-7492
▁portfol	-7493
elve	-7494
▁supplement	-7495
▁recon	-7496
▁maintaining	-7497
▁rig	-7498
▁flour	-7499
jo	-7500
▁Lee	-7501
▁personnel	-7502
▁Army	-7503
▁Catholic	-7504
▁pink	-7505
▁conversations	-7506
▁dent	-7507
▁honey	-7508
▁experiencing	-7509
▁Someone	-7510
▁printed	-7511
▁vs	-7512
▁humor	-7513
live	-7514
▁enorm	-7515
▁locked	-7516
▁Financial	-7517
▁Ext	-7518
▁CO	-7519
month	-7520
▁Week	-7521
▁superior	-7522
▁exclusive	-7523
dis	-7524
▁Support	-7525
cause	-7526
▁evaluation	-7527
▁purchasing	-7528
▁minister	-7529
otes	-7530
Then	-7531
▁attending	-7532
▁differently	-7533
▁combat	-7534
▁asleep	-7535
▁detect	-7536
▁handling	-7537
▁Ver	-7538
plete	-7539
▁deposit	-7540
▁focusing	-7541
▁industries	-7542
▁Je	-7543
▁component	-7544
▁engaging	-7545
▁advent	-7546
▁isol	-7547
ican	-7548
▁Cra	-7549
▁quit	-7550
▁unfortunately	-7551
▁hits	-7552
▁stunning	-7553
▁advise	-7554
▁substance	-7555
nings	-7556
An	-7557
▁rural	-7558
▁preferred	-7559
▁Ten	-7560
▁medication	-7561
▁excite	-7562
▁tong	-7563
▁investments	-7564
▁waited	-7565
▁surve	-7566
▁painful	-7567
▁passionate	-7568
▁Search	-7569
da	-7570
▁Wonder	-7571
▁discussions	-7572
▁arguments	-7573
▁juice	-7574
▁MS	-7575
▁partnership	-7576
lements	-7577
▁essentially	-7578
▁deck	-7579
▁scope	-7580
▁scenario	-7581
BA	-7582
▁Heart	-7583
▁marry	-7584
▁rear	-7585
▁abilities	-7586
eem	-7587
bar	-7588
usions	-7589
▁representative	-7590
▁presents	-7591
▁Energy	-7592
gines	-7593
▁Constitution	-7594
▁stepped	-7595
▁grounds	-7596
NA	-7597
II	-7598
▁supports	-7599
uana	-7600
▁aged	-7601
ustration	-7602
▁followers	-7603
▁Cat	-7604
ller	-7605
ureau	-7606
▁walks	-7607
▁index	-7608
▁stretch	-7609
erent	-7610
▁Hard	-7611
▁phrase	-7612
▁dressed	-7613
▁reminded	-7614
Ex	-7615
▁comprom	-7616
▁literature	-7617
kins	-7618
asty	-7619
▁visits	-7620
▁Rad	-7621
VD	-7622
▁spir	-7623
▁platforms	-7624
oes	-7625
▁ensuring	-7626
▁threw	-7627
friendly	-7628
▁vent	-7629
▁hoped	-7630
▁sought	-7631
▁marks	-7632
▁mountains	-7633
▁Prin	-7634
▁reveal	-7635
▁heavily	-7636
▁Australian	-7637
▁Boston	-7638
▁physically	-7639
▁statistics	-7640
▁blessed	-7641
ca	-7642
▁permitted	-7643
▁Whatever	-7644
▁kinda	-7645
bted	-7646
▁uniform	-7647
hot	-7648
▁consultation	-7649
▁grasp	-7650
▁thankful	-7651
▁intend	-7652
▁Marketing	-7653
▁connections	-7654
▁chronic	-7655
▁rac	-7656
▁refuge	-7657
▁lect	-7658
▁mob	-7659
eding	-7660
▁tracks	-7661
▁engines	-7662
▁Arab	-7663
▁abroad	-7664
▁refuse	-7665
▁producing	-7666
▁coat	-7667
▁blocks	-7668
▁haz	-7669
▁Santa	-7670
▁tremend	-7671
▁Thomas	-7672
▁cats	-7673
▁recognition	-7674
▁nail	-7675
▁Francisco	-7676
emon	-7677
▁cig	-7678
▁unlikely	-7679
after	-7680
icked	-7681
▁Tax	-7682
▁agenda	-7683
▁volunteer	-7684
▁Jose	-7685
ki	-7686
▁Fun	-7687
▁Full	-7688
▁directions	-7689
fits	-7690
▁Personal	-7691
▁subsequent	-7692
▁Meanwhile	-7693
▁landscape	-7694
case	-7695
eness	-7696
▁Govern	-7697
▁outs	-7698
Press	-7699
▁Getting	-7700
icking	-7701
▁ignor	-7702
▁spots	-7703
▁Dev	-7704
▁boring	-7705
▁spare	-7706
▁Live	-7707
col	-7708
▁alter	-7709
▁Conference	-7710
arents	-7711
▁outcomes	-7712
ava	-7713
▁mirror	-7714
▁transaction	-7715
▁resolve	-7716
owned	-7717
▁shr	-7718
cend	-7719
ervations	-7720
▁drunk	-7721
▁tent	-7722
▁equipped	-7723
mind	-7724
▁serves	-7725
▁Change	-7726
▁approaches	-7727
▁featured	-7728
▁pipe	-7729
▁residential	-7730
▁buyers	-7731
ortion	-7732
ATE	-7733
▁infection	-7734
▁explos	-7735
▁inev	-7736
▁stages	-7737
▁accused	-7738
ORE	-7739
▁Valley	-7740
▁errors	-7741
▁fits	-7742
▁shoulders	-7743
▁framework	-7744
▁safely	-7745
▁extension	-7746
▁Italy	-7747
▁uncertain	-7748
▁fancy	-7749
▁Jon	-7750
▁findings	-7751
ERS	-7752
esty	-7753
looking	-7754
▁tries	-7755
aping	-7756
▁Dam	-7757
iped	-7758
▁comply	-7759
AA	-7760
▁upgrade	-7761
▁asset	-7762
▁Exam	-7763
▁Continue	-7764
erving	-7765
▁Captain	-7766
boy	-7767
▁prize	-7768
▁exploring	-7769
ijuana	-7770
▁Wal	-7771
lands	-7772
▁imper	-7773
▁voters	-7774
▁Sever	-7775
▁Far	-7776
▁channels	-7777
▁layer	-7778
▁Color	-7779
▁Arch	-7780
▁hyd	-7781
FL	-7782
UL	-7783
▁suicide	-7784
azz	-7785
gypt	-7786
▁Blo	-7787
▁pulling	-7788
▁SEO	-7789
▁Cook	-7790
▁luxury	-7791
▁IP	-7792
▁YOUR	-7793
▁Environment	-7794
▁AL	-7795
UST	-7796
Every	-7797
▁enjoyable	-7798
ceive	-7799
▁soil	-7800
▁writes	-7801
▁Lady	-7802
▁Supreme	-7803
▁Indust	-7804
▁constitution	-7805
some	-7806
▁Microsoft	-7807
▁summary	-7808
▁workplace	-7809
▁crossed	-7810
▁commonly	-7811
▁responded	-7812
▁crimes	-7813
oty	-7814
▁elder	-7815
▁Centre	-7816
▁bankrupt	-7817
oked	-7818
▁merch	-7819
mother	-7820
▁Game	-7821
▁contracts	-7822
▁refund	-7823
ped	-7824
One	-7825
▁investing	-7826
▁Aud	-7827
▁appointed	-7828
▁Clinton	-7829
▁disorder	-7830
▁ridiculous	-7831
▁filter	-7832
▁Log	-7833
▁promotion	-7834
▁objectives	-7835
▁diam	-7836
▁Italian	-7837
▁cable	-7838
▁keyword	-7839
▁hungry	-7840
fortable	-7841
weight	-7842
izza	-7843
▁jew	-7844
▁Pan	-7845
▁murd	-7846
▁touched	-7847
SA	-7848
▁lighting	-7849
▁....	-7850
nament	-7851
▁unem	-7852
ighed	-7853
▁recy	-7854
▁Dean	-7855
▁Sarah	-7856
▁Posted	-7857
▁bug	-7858
riers	-7859
▁languages	-7860
▁ow	-7861
▁fur	-7862
▁complaints	-7863
▁organisations	-7864
▁CEO	-7865
▁Summer	-7866
▁Republicans	-7867
▁jun	-7868
van	-7869
▁Liber	-7870
▁quietly	-7871
▁Current	-7872
▁tooth	-7873
[...]	-7874
hh	-7875
ini	-7876
▁Kat	-7877
???	-7878
ummy	-7879
▁casual	-7880
▁utter	-7881
▁maintained	-7882
▁Order	-7883
▁crap	-7884
rection	-7885
▁param	-7886
▁Buy	-7887
▁assigned	-7888
BI	-7889
.]	-7890
▁surrounded	-7891
▁puzz	-7892
▁decline	-7893
inder	-7894
▁beside	-7895
▁enemies	-7896
▁lun	-7897
▁dirty	-7898
▁Unless	-7899
▁talented	-7900
▁farmers	-7901
▁passage	-7902
lers	-7903
▁bone	-7904
▁demonstrate	-7905
▁gathered	-7906
▁voted	-7907
▁resistance	-7908
▁tied	-7909
▁lake	-7910
▁Fed	-7911
▁instruction	-7912
▁currency	-7913
▁indicated	-7914
▁Small	-7915
▁formula	-7916
lets	-7917
▁flaw	-7918
▁Jewish	-7919
DA	-7920
foot	-7921
▁substantial	-7922
▁controvers	-7923
▁CON	-7924
don	-7925
▁insure	-7926
▁vulnerable	-7927
▁mystery	-7928
iry	-7929
▁Luck	-7930
▁handed	-7931
▁pref	-7932
▁Until	-7933
grad	-7934
iking	-7935
▁Civil	-7936
▁Egypt	-7937
mit	-7938
▁handy	-7939
▁Below	-7940
▁SP	-7941
▁initiative	-7942
ibl	-7943
mony	-7944
html	-7945
▁tiss	-7946
▁Stat	-7947
▁Members	-7948
▁booking	-7949
▁Say	-7950
▁coup	-7951
▁William	-7952
▁Agreement	-7953
▁tape	-7954
▁yield	-7955
▁Welcome	-7956
▁courts	-7957
▁elections	-7958
▁lob	-7959
▁kit	-7960
iate	-7961
▁meaningful	-7962
good	-7963
▁shortly	-7964
from	-7965
itty	-7966
ashes	-7967
▁Roman	-7968
▁plugin	-7969
Good	-7970
▁Pot	-7971
▁interior	-7972
▁greet	-7973
▁association	-7974
▁contributions	-7975
▁Matt	-7976
▁guitar	-7977
▁displayed	-7978
▁Aw	-7979
▁possession	-7980
▁charity	-7981
▁rush	-7982
▁acceptable	-7983
iscal	-7984
▁Indeed	-7985
▁Network	-7986
▁Rom	-7987
aret	-7988
▁Tem	-7989
▁pursue	-7990
ifted	-7991
▁opposition	-7992
▁tie	-7993
▁Excellent	-7994
▁begun	-7995
itionally	-7996
▁ME	-7997
acles	-7998
▁creativity	-7999
Are	-8000
▁excitement	-8001
▁dynamic	-8002
▁filling	-8003
▁Adam	-8004
▁philosophy	-8005
▁Cross	-8006
eties	-8007
▁ate	-8008
▁bub	-8009
▁drama	-8010
▁dental	-8011
▁SE	-8012
olen	-8013
▁Nov	-8014
▁interviews	-8015
▁Dom	-8016
aa	-8017
▁Executive	-8018
apse	-8019
▁ain	-8020
▁Select	-8021
▁throwing	-8022
▁losses	-8023
▁publishing	-8024
▁ham	-8025
▁professor	-8026
▁implemented	-8027
bage	-8028
aved	-8029
▁massage	-8030
▁controls	-8031
▁intellectual	-8032
CT	-8033
redit	-8034
ologist	-8035
▁prime	-8036
▁violent	-8037
▁troops	-8038
▁dishes	-8039
▁promoting	-8040
▁darkness	-8041
aybe	-8042
mond	-8043
DF	-8044
▁scary	-8045
▁fake	-8046
▁documentation	-8047
▁ho	-8048
Thank	-8049
▁inspect	-8050
▁innocent	-8051
▁cheer	-8052
etary	-8053
▁Share	-8054
▁productive	-8055
▁Kim	-8056
icity	-8057
▁Gar	-8058
▁Mur	-8059
▁fired	-8060
elly	-8061
▁lawyers	-8062
▁interface	-8063
▁Democrats	-8064
▁Zeal	-8065
▁caring	-8066
▁profits	-8067
▁soup	-8068
▁Simply	-8069
▁loads	-8070
▁possibilities	-8071
▁overwhelming	-8072
IGH	-8073
▁assured	-8074
▁Table	-8075
▁Nob	-8076
days	-8077
orted	-8078
▁relate	-8079
▁glance	-8080
ifting	-8081
LD	-8082
▁adequate	-8083
AK	-8084
▁newly	-8085
rapy	-8086
▁usage	-8087
▁salary	-8088
▁precisely	-8089
▁jur	-8090
▁encouraging	-8091
▁goss	-8092
Fi	-8093
bor	-8094
engers	-8095
▁badly	-8096
▁evident	-8097
▁HA	-8098
inity	-8099
▁traum	-8100
▁neat	-8101
roduct	-8102
▁historic	-8103
▁politicians	-8104
▁Ever	-8105
▁generations	-8106
▁Manager	-8107
▁containing	-8108
▁Nav	-8109
▁incent	-8110
▁ours	-8111
seless	-8112
aha	-8113
▁Given	-8114
▁Point	-8115
▁reception	-8116
▁Blog	-8117
▁considerable	-8118
▁damaged	-8119
▁principal	-8120
▁Especially	-8121
asts	-8122
▁Tour	-8123
▁Royal	-8124
▁Self	-8125
▁stairs	-8126
usal	-8127
▁Looks	-8128
▁pig	-8129
▁ownership	-8130
gly	-8131
▁Pract	-8132
bre	-8133
▁dancing	-8134
istent	-8135
▁hiring	-8136
▁`	-8137
▁concrete	-8138
▁bench	-8139
▁penalty	-8140
▁affairs	-8141
▁besides	-8142
celer	-8143
▁generous	-8144
▁beneath	-8145
war	-8146
▁WordPress	-8147
▁deaths	-8148
▁Customer	-8149
▁nicely	-8150
▁Wi	-8151
▁patience	-8152
po	-8153
▁transactions	-8154
▁designer	-8155
▁genuinely	-8156
▁Holly	-8157
▁LOL	-8158
astern	-8159
rome	-8160
▁Jane	-8161
▁branch	-8162
▁breathing	-8163
▁residence	-8164
acific	-8165
▁Di	-8166
▁hunting	-8167
▁fright	-8168
▁Hosp	-8169
▁knife	-8170
▁pointing	-8171
▁TR	-8172
▁portfolio	-8173
Re	-8174
▁opens	-8175
▁Fortun	-8176
▁Control	-8177
▁compat	-8178
urable	-8179
▁Event	-8180
▁burst	-8181
▁stops	-8182
▁acknowled	-8183
yard	-8184
ormal	-8185
▁wished	-8186
▁Zealand	-8187
▁blogger	-8188
▁edit	-8189
▁^	-8190
▁seasons	-8191
▁podcast	-8192
▁disg	-8193
▁testim	-8194
▁keen	-8195
▁secrets	-8196
lishing	-8197
▁division	-8198
mates	-8199
▁cancell	-8200
▁rolling	-8201
rick	-8202
▁amongst	-8203
▁discussing	-8204
▁examine	-8205
▁Several	-8206
▁HE	-8207
▁suggestion	-8208
agers	-8209
zed	-8210
▁cameras	-8211
ideo	-8212
▁participating	-8213
▁Regard	-8214
▁keys	-8215
▁accommodation	-8216
▁Spain	-8217
▁enterprise	-8218
df	-8219
kind	-8220
▁Ell	-8221
▁availability	-8222
▁disability	-8223
▁dose	-8224
▁nurse	-8225
▁drew	-8226
▁Sales	-8227
▁Museum	-8228
▁smiling	-8229
udes	-8230
ument	-8231
▁humanity	-8232
▁Comment	-8233
▁addresses	-8234
▁bored	-8235
▁Carolina	-8236
▁Sus	-8237
▁Ma	-8238
▁toys	-8239
▁examination	-8240
uke	-8241
▁Treat	-8242
power	-8243
▁delighted	-8244
▁scratch	-8245
▁Lim	-8246
▁initially	-8247
lyn	-8248
▁Reading	-8249
▁lone	-8250
▁neighbors	-8251
▁constit	-8252
father	-8253
▁occasionally	-8254
▁Equ	-8255
▁accounting	-8256
▁removal	-8257
▁DE	-8258
▁bacter	-8259
▁worthy	-8260
▁extract	-8261
▁worker	-8262
▁Sky	-8263
necess	-8264
berry	-8265
▁:-)	-8266
▁throat	-8267
▁trusted	-8268
▁Charles	-8269
▁beings	-8270
ented	-8271
▁mild	-8272
▁advantages	-8273
▁Johns	-8274
eav	-8275
erk	-8276
▁EX	-8277
▁swing	-8278
▁clicking	-8279
ckets	-8280
▁Diff	-8281
ITH	-8282
isk	-8283
▁bomb	-8284
▁shell	-8285
▁armed	-8286
▁Eff	-8287
▁weakness	-8288
▁difficulties	-8289
▁reven	-8290
▁Olym	-8291
▁inch	-8292
▁Corpor	-8293
▁structures	-8294
▁enormous	-8295
▁interrupt	-8296
▁reminds	-8297
▁mixture	-8298
▁festival	-8299
▁acknowledge	-8300
▁deliber	-8301
▁aircraft	-8302
▁Age	-8303
▁votes	-8304
ulum	-8305
▁Common	-8306
aund	-8307
▁aimed	-8308
Can	-8309
uty	-8310
▁accompan	-8311
▁Local	-8312
▁Glad	-8313
▁receipt	-8314
▁explo	-8315
orse	-8316
▁mere	-8317
▁crying	-8318
▁coaching	-8319
cuit	-8320
▁electrical	-8321
▁immigration	-8322
▁characteristics	-8323
▁divided	-8324
▁meets	-8325
▁estimate	-8326
jud	-8327
arest	-8328
eared	-8329
▁Rose	-8330
▁rolled	-8331
▁divorce	-8332
▁Access	-8333
▁Cup	-8334
▁Ms	-8335
▁Working	-8336
onymous	-8337
▁discovery	-8338
▁flower	-8339
Your	-8340
▁hey	-8341
▁exclud	-8342
herent	-8343
▁Page	-8344
▁nutrition	-8345
▁preced	-8346
cut	-8347
▁Season	-8348
rug	-8349
▁generated	-8350
Americ	-8351
▁Travel	-8352
▁toilet	-8353
▁ya	-8354
▁Webs	-8355
▁tap	-8356
▁COM	-8357
▁tracking	-8358
▁regions	-8359
▁manip	-8360
▁expansion	-8361
▁compr	-8362
▁afterwards	-8363
agger	-8364
▁grin	-8365
pot	-8366
▁glasses	-8367
▁orient	-8368
▁collaboration	-8369
bour	-8370
▁Korea	-8371
▁fed	-8372
unicip	-8373
▁vice	-8374
▁Cast	-8375
itage	-8376
▁divide	-8377
▁mac	-8378
▁secondary	-8379
inter	-8380
▁stations	-8381
▁regulation	-8382
bert	-8383
▁loaded	-8384
▁pants	-8385
Hey	-8386
▁Tit	-8387
▁exercises	-8388
bra	-8389
▁($	-8390
▁Lin	-8391
▁captain	-8392
▁recruit	-8393
▁officially	-8394
▁waters	-8395
▁muscles	-8396
▁arrangements	-8397
▁Android	-8398
▁Dave	-8399
▁confusion	-8400
▁adopt	-8401
▁DVD	-8402
idding	-8403
▁specialist	-8404
▁styles	-8405
▁pilot	-8406
▁completion	-8407
ethe	-8408
gend	-8409
▁convince	-8410
▁actively	-8411
TA	-8412
▁pics	-8413
essed	-8414
▁flavor	-8415
▁worship	-8416
▁contrary	-8417
▁tongue	-8418
▁Gab	-8419
▁Ent	-8420
▁uncomfortable	-8421
▁layout	-8422
▁Fil	-8423
▁Administration	-8424
▁bot	-8425
▁baking	-8426
▁bold	-8427
▁downtown	-8428
Who	-8429
charge	-8430
▁Probably	-8431
▁superb	-8432
▁destruction	-8433
vi	-8434
ront	-8435
DS	-8436
ften	-8437
▁brave	-8438
▁logic	-8439
▁corn	-8440
▁referring	-8441
▁prayers	-8442
▁Sn	-8443
▁romantic	-8444
clock	-8445
▁extraordinary	-8446
run	-8447
▁Safety	-8448
opy	-8449
▁myster	-8450
▁manif	-8451
▁diversity	-8452
mar	-8453
▁Christians	-8454
▁Sounds	-8455
▁peaceful	-8456
▁infect	-8457
▁lowest	-8458
▁studied	-8459
▁attempting	-8460
▁bits	-8461
▁consistently	-8462
▁persu	-8463
▁settlement	-8464
▁laz	-8465
▁episodes	-8466
▁faculty	-8467
▁packages	-8468
▁setup	-8469
▁administrative	-8470
▁checks	-8471
▁deem	-8472
cific	-8473
▁Better	-8474
▁hob	-8475
▁orange	-8476
At	-8477
essional	-8478
▁clever	-8479
▁Must	-8480
▁Virginia	-8481
▁broadcast	-8482
stairs	-8483
child	-8484
▁Academy	-8485
▁''	-8486
▁Gal	-8487
▁endeav	-8488
▁integrated	-8489
▁→	-8490
▁inspiring	-8491
▁convey	-8492
▁bid	-8493
▁Donald	-8494
utors	-8495
eer	-8496
%)	-8497
▁imagination	-8498
▁interaction	-8499
▁Grow	-8500
▁retired	-8501
SE	-8502
▁apple	-8503
ifice	-8504
▁horm	-8505
ECT	-8506
▁powder	-8507
▁DC	-8508
▁Key	-8509
▁Room	-8510
▁seed	-8511
▁golden	-8512
▁threats	-8513
bow	-8514
▁campaigns	-8515
ourse	-8516
▁reserve	-8517
▁Coast	-8518
▁Learning	-8519
▁Parliament	-8520
▁relaxing	-8521
▁stolen	-8522
phones	-8523
▁concert	-8524
▁speaker	-8525
ye	-8526
▁venture	-8527
▁overse	-8528
▁horror	-8529
books	-8530
▁Stop	-8531
▁advertise	-8532
▁forecast	-8533
▁myth	-8534
▁instantly	-8535
▁Question	-8536
▁Choose	-8537
Our	-8538
pire	-8539
Of	-8540
▁burden	-8541
▁Bow	-8542
▁bite	-8543
▁Eve	-8544
acher	-8545
inding	-8546
uster	-8547
▁seeds	-8548
▁Fest	-8549
▁tear	-8550
▁GO	-8551
▁immune	-8552
▁goodness	-8553
▁dumb	-8554
otal	-8555
▁horiz	-8556
▁ships	-8557
▁consists	-8558
▁promises	-8559
▁apparent	-8560
▁calories	-8561
▁accomplished	-8562
▁dialogue	-8563
▁ceremony	-8564
▁😉	-8565
▁gut	-8566
▁holes	-8567
iev	-8568
▁dil	-8569
▁Sad	-8570
pection	-8571
▁Link	-8572
iki	-8573
▁toss	-8574
▁titles	-8575
▁spite	-8576
hops	-8577
▁banking	-8578
▁restrictions	-8579
iors	-8580
▁Mid	-8581
cience	-8582
minute	-8583
▁signing	-8584
▁hitting	-8585
▁troubles	-8586
GB	-8587
ras	-8588
▁hotels	-8589
▁weblog	-8590
▁obligations	-8591
▁Building	-8592
orial	-8593
ardens	-8594
▁Guard	-8595
ployed	-8596
asting	-8597
ificial	-8598
omy	-8599
▁Disney	-8600
ouch	-8601
▁eliminate	-8602
▁logo	-8603
nis	-8604
▁voices	-8605
▁subsid	-8606
▁rational	-8607
▁intim	-8608
post	-8609
bling	-8610
aunt	-8611
acular	-8612
▁alloc	-8613
dep	-8614
▁describes	-8615
▁Ra	-8616
▁sword	-8617
▁admin	-8618
▁compassion	-8619
interest	-8620
▁frustrating	-8621
zes	-8622
isms	-8623
char	-8624
▁sweat	-8625
aning	-8626
▁emissions	-8627
ref	-8628
▁unp	-8629
▁Jackson	-8630
umin	-8631
▁virtually	-8632
▁protecting	-8633
▁Wild	-8634
▁motivation	-8635
▁nowhere	-8636
▁Bud	-8637
▁represented	-8638
._	-8639
isa	-8640
▁convenience	-8641
apos	-8642
▁gang	-8643
▁territory	-8644
only	-8645
▁newsletters	-8646
▁shake	-8647
health	-8648
▁gathering	-8649
▁nuts	-8650
\\	-8651
▁guaranteed	-8652
▁Either	-8653
oir	-8654
▁Based	-8655
▁couples	-8656
▁twelve	-8657
▁amazed	-8658
▁fruits	-8659
▁ARE	-8660
▁Certain	-8661
▁Jews	-8662
ghan	-8663
▁marijuana	-8664
▁yoga	-8665
▁inject	-8666
▁Force	-8667
▁Create	-8668
▁batt	-8669
▁Pass	-8670
▁aims	-8671
▁exceptional	-8672
▁Dark	-8673
▁roughly	-8674
never	-8675
▁conservative	-8676
▁gross	-8677
▁editing	-8678
rich	-8679
▁survival	-8680
▁tender	-8681
▁array	-8682
▁dies	-8683
▁reminder	-8684
▁pup	-8685
▁baseball	-8686
▁viewing	-8687
▁landing	-8688
▁democracy	-8689
▁spouse	-8690
▁Est	-8691
▁clubs	-8692
▁Champ	-8693
acon	-8694
▁distingu	-8695
Pro	-8696
▁Prime	-8697
▁skilled	-8698
▁productivity	-8699
▁neut	-8700
▁integrity	-8701
▁Prom	-8702
urd	-8703
▁Ron	-8704
▁Bad	-8705
▁attach	-8706
▁copyright	-8707
▁Jones	-8708
▁resolved	-8709
▁functional	-8710
zil	-8711
utch	-8712
▁handful	-8713
▁boards	-8714
▁chap	-8715
▁unnecess	-8716
▁Sea	-8717
▁hack	-8718
▁Library	-8719
▁listened	-8720
▁targeted	-8721
▁surge	-8722
bi	-8723
rolled	-8724
ran	-8725
▁Kingdom	-8726
etch	-8727
world	-8728
▁explaining	-8729
▁Living	-8730
Read	-8731
▁wherever	-8732
▁heal	-8733
aughters	-8734
▁compete	-8735
▁thy	-8736
▁drives	-8737
▁boot	-8738
▁interf	-8739
▁occasions	-8740
afe	-8741
▁enthusi	-8742
OK	-8743
▁celebration	-8744
▁inex	-8745
▁museum	-8746
▁poison	-8747
▁announcement	-8748
za	-8749
▁Death	-8750
▁motivated	-8751
itis	-8752
▁entertaining	-8753
▁tub	-8754
▁comparable	-8755
▁photographs	-8756
▁buff	-8757
▁Mind	-8758
▁Andrew	-8759
▁Lind	-8760
▁emphasis	-8761
▁citizen	-8762
▁speaks	-8763
▁strengthen	-8764
▁cha	-8765
▁shadow	-8766
▁Making	-8767
▁trigger	-8768
▁targets	-8769
lined	-8770
▁venue	-8771
▁Cam	-8772
▁worn	-8773
▁screens	-8774
mo	-8775
▁FREE	-8776
▁Got	-8777
stone	-8778
▁giveaway	-8779
vity	-8780
▁knee	-8781
▁frequent	-8782
ested	-8783
▁architecture	-8784
▁enabled	-8785
▁girlfriend	-8786
▁pricing	-8787
▁Proper	-8788
▁entrepreneurs	-8789
▁niche	-8790
▁dare	-8791
▁Columb	-8792
▁Brian	-8793
▁dumpster	-8794
▁Taking	-8795
▁gentleman	-8796
▁Fred	-8797
▁entity	-8798
▁minimal	-8799
iser	-8800
▁steady	-8801
▁allerg	-8802
ANT	-8803
▁Training	-8804
▁wanna	-8805
hemat	-8806
▁incom	-8807
▁Sav	-8808
etheless	-8809
oooo	-8810
▁processed	-8811
▁ash	-8812
▁dipl	-8813
▁//	-8814
▁Ref	-8815
▁anxious	-8816
▁Southern	-8817
▁passes	-8818
▁workout	-8819
▁Space	-8820
▁Obviously	-8821
▁Tri	-8822
▁gaming	-8823
▁desperate	-8824
▁lin	-8825
▁warned	-8826
▁Guide	-8827
▁respective	-8828
▁dealt	-8829
▁moist	-8830
ospel	-8831
▁founded	-8832
▁Stan	-8833
▁semi	-8834
▁temperatures	-8835
▁fiscal	-8836
▁liberal	-8837
▁matches	-8838
▁physician	-8839
▁affects	-8840
▁insights	-8841
▁ghost	-8842
HS	-8843
▁diagnosis	-8844
▁quantity	-8845
▁suck	-8846
▁Scotland	-8847
▁neglect	-8848
▁unto	-8849
▁gently	-8850
liers	-8851
▁Ryan	-8852
▁instances	-8853
▁cin	-8854
▁heating	-8855
...)	-8856
enth	-8857
▁gotta	-8858
▁Thanksgiving	-8859
▁qualify	-8860
▁Dog	-8861
▁assumed	-8862
▁perf	-8863
▁knees	-8864
▁Digital	-8865
▁Tony	-8866
▁deadline	-8867
agine	-8868
▁manufacturer	-8869
▁Among	-8870
iary	-8871
asion	-8872
▁equity	-8873
isd	-8874
▁fifty	-8875
▁publicly	-8876
iano	-8877
▁Jen	-8878
▁adoption	-8879
▁curric	-8880
▁printing	-8881
▁beans	-8882
vation	-8883
▁entries	-8884
loved	-8885
▁criticism	-8886
RI	-8887
http	-8888
ropri	-8889
▁compliment	-8890
▁networking	-8891
▁representatives	-8892
AB	-8893
▁Sat	-8894
▁fought	-8895
▁sisters	-8896
anes	-8897
▁Less	-8898
▁universities	-8899
▁Clear	-8900
▁tremendous	-8901
▁lip	-8902
▁Going	-8903
▁Minist	-8904
▁movements	-8905
▁warming	-8906
▁Fact	-8907
▁grave	-8908
▁Phys	-8909
▁developer	-8910
▁soph	-8911
urches	-8912
▁jumped	-8913
▁Following	-8914
▁Arts	-8915
▁legitimate	-8916
▁resume	-8917
▁Michigan	-8918
erted	-8919
▁welf	-8920
▁colon	-8921
▁staring	-8922
▁ANY	-8923
aire	-8924
RL	-8925
▁Ide	-8926
▁bom	-8927
ends	-8928
▁refere	-8929
▁dependent	-8930
▁Short	-8931
--"	-8932
▁wins	-8933
urities	-8934
▁travelling	-8935
▁welfare	-8936
▁alert	-8937
▁porn	-8938
bie	-8939
▁pound	-8940
▁magical	-8941
▁EN	-8942
▁fails	-8943
▁awards	-8944
oween	-8945
▁Ha	-8946
▁trash	-8947
othe	-8948
oding	-8949
igation	-8950
▁maxim	-8951
▁tutorial	-8952
▁flexibility	-8953
arer	-8954
▁listing	-8955
▁Requ	-8956
gain	-8957
zer	-8958
▁cure	-8959
▁delivering	-8960
▁Hand	-8961
▁pets	-8962
▁tricks	-8963
▁rescue	-8964
▁shelter	-8965
▁cousin	-8966
▁stumbled	-8967
▁hiding	-8968
fire	-8969
owers	-8970
▁establishment	-8971
▁Nations	-8972
▁deny	-8973
▁timely	-8974
▁spray	-8975
▁acquired	-8976
▁prescription	-8977
▁ignored	-8978
▁magnific	-8979
▁salad	-8980
▁peak	-8981
▁Apparently	-8982
▁passengers	-8983
ds	-8984
▁recre	-8985
▁Nick	-8986
tery	-8987
▁woods	-8988
▁Johnson	-8989
▁spelling	-8990
sect	-8991
▁investigate	-8992
▁wand	-8993
▁grocery	-8994
▁cher	-8995
▁western	-8996
▁shocked	-8997
▁wider	-8998
▁capabilities	-8999
▁Agency	-9000
▁accidents	-9001
▁chemicals	-9002
▁speakers	-9003
▁wage	-9004
▁Years	-9005
▁pizza	-9006
▁inspire	-9007
▁manufacturers	-9008
star	-9009
was	-9010
▁nursing	-9011
▁reasonably	-9012
▁boyfriend	-9013
UM	-9014
▁overnight	-9015
lay	-9016
▁Protection	-9017
when	-9018
▁advised	-9019
▁handled	-9020
▁Five	-9021
▁gossip	-9022
▁intrig	-9023
Go	-9024
▁Eliz	-9025
▁actor	-9026
▁dramatic	-9027
such	-9028
▁acceler	-9029
▁bump	-9030
▁Lots	-9031
▁Henry	-9032
▁Irish	-9033
▁insult	-9034
▁cann	-9035
▁confront	-9036
▁Moreover	-9037
▁attain	-9038
iac	-9039
▁subsection	-9040
▁psychological	-9041
▁Additionally	-9042
▁harass	-9043
▁Democratic	-9044
▁failing	-9045
▁cul	-9046
▁hired	-9047
▁evaluate	-9048
▁denied	-9049
▁references	-9050
▁Due	-9051
PM	-9052
▁Prince	-9053
?’	-9054
atell	-9055
organ	-9056
▁Friends	-9057
▁lens	-9058
▁Assist	-9059
▁initiatives	-9060
▁appreciation	-9061
about	-9062
▁Northern	-9063
▁sons	-9064
▁Fort	-9065
▁purchases	-9066
▁Mess	-9067
ags	-9068
pany	-9069
sole	-9070
▁buried	-9071
▁prevention	-9072
ua	-9073
▁attempted	-9074
▁stab	-9075
▁obligation	-9076
▁Birth	-9077
kward	-9078
umer	-9079
▁EVER	-9080
▁Doc	-9081
orious	-9082
▁True	-9083
▁decrease	-9084
▁fantasy	-9085
▁Join	-9086
arry	-9087
▁Almost	-9088
rep	-9089
▁Except	-9090
▁Abs	-9091
▁Site	-9092
▁awarded	-9093
five	-9094
▁Ult	-9095
▁cares	-9096
uating	-9097
▁jewel	-9098
alog	-9099
▁Within	-9100
▁endless	-9101
▁realistic	-9102
▁retreat	-9103
▁dirt	-9104
▁fond	-9105
uter	-9106
▁Die	-9107
ordan	-9108
▁ugly	-9109
▁diagnosed	-9110
▁Cir	-9111
▁virus	-9112
requ	-9113
▁regulatory	-9114
▁glory	-9115
▁lawsu	-9116
▁friendship	-9117
▁odds	-9118
▁disabled	-9119
▁bankruptcy	-9120
▁Peace	-9121
▁meantime	-9122
cul	-9123
▁intervention	-9124
▁template	-9125
▁reviewed	-9126
▁container	-9127
▁Works	-9128
▁finishing	-9129
abeth	-9130
▁patch	-9131
▁discipline	-9132
▁hospitals	-9133
▁outfit	-9134
▁subscription	-9135
▁Otherwise	-9136
▁contemporary	-9137
▁oral	-9138
▁deciding	-9139
▁resulted	-9140
▁concluded	-9141
▁fulfill	-9142
▁renov	-9143
bye	-9144
▁Annual	-9145
▁suspend	-9146
▁dict	-9147
▁pepper	-9148
▁bullet	-9149
ealous	-9150
▁viewed	-9151
▁Chair	-9152
ership	-9153
▁nic	-9154
▁supporters	-9155
▁relaxed	-9156
Where	-9157
▁abund	-9158
gra	-9159
▁gest	-9160
iams	-9161
▁royal	-9162
▁pension	-9163
Come	-9164
▁Pop	-9165
▁fifth	-9166
▁Website	-9167
▁clue	-9168
▁SC	-9169
▁abst	-9170
▁ly	-9171
▁dread	-9172
chers	-9173
▁displ	-9174
through	-9175
▁centers	-9176
mma	-9177
▁Brazil	-9178
▁fles	-9179
▁irrit	-9180
▁acquire	-9181
▁gratitude	-9182
week	-9183
▁cooked	-9184
▁Beautiful	-9185
▁themes	-9186
▁Ray	-9187
thew	-9188
▁medications	-9189
▁waves	-9190
▁nin	-9191
▁execution	-9192
▁slip	-9193
▁Rather	-9194
▁Charlie	-9195
▁eleg	-9196
▁Georg	-9197
estly	-9198
▁proportion	-9199
▁Brother	-9200
▁blend	-9201
▁Run	-9202
▁Break	-9203
▁combine	-9204
▁offense	-9205
▁alleg	-9206
▁disabilities	-9207
▁notion	-9208
▁invention	-9209
▁suggesting	-9210
▁exch	-9211
erts	-9212
▁ski	-9213
▁alien	-9214
▁alongside	-9215
▁cooperation	-9216
▁inspection	-9217
▁rocks	-9218
▁fate	-9219
ionship	-9220
your	-9221
aware	-9222
▁desp	-9223
▁wings	-9224
ects	-9225
home	-9226
▁kindness	-9227
ailable	-9228
▁newsletter	-9229
▁Daily	-9230
▁licensed	-9231
▁fears	-9232
▁stranger	-9233
▁accompanied	-9234
IVE	-9235
▁bands	-9236
▁punishment	-9237
mal	-9238
▁actors	-9239
uming	-9240
▁assistant	-9241
▁Member	-9242
sex	-9243
▁spectacular	-9244
▁Jac	-9245
▁Kevin	-9246
▁Pack	-9247
▁certified	-9248
▁indicates	-9249
▁developments	-9250
▁wrapped	-9251
▁favorites	-9252
asm	-9253
ommy	-9254
▁anytime	-9255
▁junk	-9256
▁arrangement	-9257
▁LE	-9258
▁automatic	-9259
▁Ice	-9260
▁timing	-9261
▁comic	-9262
▁Pacific	-9263
▁Pak	-9264
▁fortune	-9265
▁determination	-9266
ura	-9267
▁climb	-9268
▁continuous	-9269
▁bones	-9270
▁LA	-9271
▁Strateg	-9272
▁leather	-9273
▁captured	-9274
▁Fa	-9275
▁violation	-9276
▁collective	-9277
vol	-9278
▁franch	-9279
▁Ve	-9280
finitely	-9281
▁Isn	-9282
ifully	-9283
▁Save	-9284
▁brush	-9285
▁Tar	-9286
Look	-9287
▁Case	-9288
▁WITH	-9289
market	-9290
▁CL	-9291
▁embrace	-9292
▁workshops	-9293
▁effectiveness	-9294
▁Kids	-9295
▁candy	-9296
▁factory	-9297
▁addiction	-9298
▁Dead	-9299
Un	-9300
▁placing	-9301
▁Daniel	-9302
▁Jason	-9303
▁Ash	-9304
▁Viet	-9305
▁graphic	-9306
%,	-9307
▁mothers	-9308
tics	-9309
▁restore	-9310
▁Veg	-9311
▁useless	-9312
▁squee	-9313
▁Congratulations	-9314
nie	-9315
▁cust	-9316
▁refres	-9317
▁CR	-9318
!).	-9319
▁instruments	-9320
imal	-9321
▁hub	-9322
▁Ari	-9323
▁hesitate	-9324
▁Fox	-9325
▁straw	-9326
▁awkward	-9327
oubted	-9328
break	-9329
▁globe	-9330
▁daughters	-9331
▁delete	-9332
▁recip	-9333
fa	-9334
▁contacts	-9335
sell	-9336
▁scores	-9337
▁Low	-9338
▁oldest	-9339
▁Dick	-9340
▁treating	-9341
oning	-9342
▁beds	-9343
▁offensive	-9344
▁Furthermore	-9345
cure	-9346
sized	-9347
▁Hold	-9348
ALLY	-9349
▁disappeared	-9350
▁homeless	-9351
▁Usually	-9352
▁Halloween	-9353
▁basketball	-9354
ouses	-9355
▁Ministry	-9356
▁spokes	-9357
▁competitors	-9358
▁balls	-9359
▁amen	-9360
▁fortunate	-9361
▁hint	-9362
imb	-9363
Com	-9364
▁Van	-9365
Con	-9366
▁None	-9367
itarian	-9368
olid	-9369
▁Trade	-9370
stal	-9371
▁emerging	-9372
▁sed	-9373
▁thrilled	-9374
▁tu	-9375
▁tale	-9376
▁peer	-9377
▁towns	-9378
aundry	-9379
▁damages	-9380
ih	-9381
▁Prem	-9382
▁ceiling	-9383
▁Sex	-9384
gon	-9385
▁unh	-9386
▁achievement	-9387
▁inval	-9388
▁Soft	-9389
▁wooden	-9390
▁Jersey	-9391
▁OS	-9392
▁magnificent	-9393
▁repairs	-9394
▁deserves	-9395
▁conce	-9396
▁mask	-9397
▁universal	-9398
▁recommendation	-9399
▁convert	-9400
▁logical	-9401
▁stack	-9402
▁exit	-9403
▁knowledgeable	-9404
▁wrap	-9405
▁refers	-9406
itated	-9407
acco	-9408
cond	-9409
AND	-9410
▁cancel	-9411
iah	-9412
makers	-9413
▁Bon	-9414
▁Dream	-9415
▁observe	-9416
▁couch	-9417
▁corporations	-9418
▁reck	-9419
urb	-9420
▁steal	-9421
▁boots	-9422
▁lend	-9423
▁beef	-9424
▁Employ	-9425
▁ratio	-9426
▁ministry	-9427
▁centuries	-9428
▁Mir	-9429
ending	-9430
▁happier	-9431
▁Seriously	-9432
▁conversion	-9433
▁irre	-9434
▁Ohio	-9435
isition	-9436
▁assuming	-9437
▁Hollywood	-9438
▁measured	-9439
▁interactive	-9440
PL	-9441
ucks	-9442
ano	-9443
▁wages	-9444
▁loading	-9445
▁disappear	-9446
▁Hmm	-9447
oubtedly	-9448
▁susp	-9449
▁balanced	-9450
▁guides	-9451
See	-9452
rogen	-9453
▁belt	-9454
▁congr	-9455
▁solely	-9456
▁Sud	-9457
▁forums	-9458
▁sounded	-9459
▁graphics	-9460
iences	-9461
ansas	-9462
▁pile	-9463
alysis	-9464
eters	-9465
▁Norm	-9466
▁Afghan	-9467
▁devast	-9468
▁prescribed	-9469
▁HERE	-9470
⠀⠀	-9471
▁angle	-9472
inos	-9473
▁Third	-9474
▁Number	-9475
irable	-9476
athan	-9477
ouring	-9478
▁reveals	-9479
zens	-9480
▁Bring	-9481
▁Bal	-9482
▁praise	-9483
gor	-9484
▁realise	-9485
retty	-9486
rooms	-9487
▁painted	-9488
▁Liz	-9489
▁accum	-9490
▁Mult	-9491
▁adorable	-9492
▁removing	-9493
▁Chall	-9494
▁drops	-9495
▁Williams	-9496
will	-9497
▁por	-9498
▁Major	-9499
▁kil	-9500
▁harsh	-9501
▁Ess	-9502
otion	-9503
▁jurisd	-9504
▁MY	-9505
▁Ly	-9506
▁tune	-9507
▁Student	-9508
▁unnecessary	-9509
▁Overall	-9510
▁deemed	-9511
odge	-9512
▁agreements	-9513
andy	-9514
▁Leave	-9515
▁colours	-9516
▁aggressive	-9517
▁alike	-9518
Cl	-9519
▁practition	-9520
▁sectors	-9521
▁buyer	-9522
▁frozen	-9523
forward	-9524
▁sometime	-9525
▁limitations	-9526
▁Hospital	-9527
▁enables	-9528
▁Name	-9529
▁Palest	-9530
▁hip	-9531
▁Represent	-9532
▁poly	-9533
▁tackle	-9534
cest	-9535
▁confidential	-9536
▁pays	-9537
cho	-9538
▁educated	-9539
▁Action	-9540
AG	-9541
▁lazy	-9542
▁inflation	-9543
▁frank	-9544
▁gal	-9545
isting	-9546
▁stability	-9547
▁racing	-9548
▁perpet	-9549
▁rebu	-9550
▁reverse	-9551
school	-9552
▁authorized	-9553
▁admission	-9554
ressing	-9555
▁forgive	-9556
▁sacrifice	-9557
eling	-9558
RS	-9559
▁Comments	-9560
▁Imagine	-9561
▁wireless	-9562
ART	-9563
▁mic	-9564
▁sits	-9565
▁abandoned	-9566
itched	-9567
ndrome	-9568
onsense	-9569
▁southern	-9570
▁races	-9571
▁petition	-9572
adium	-9573
unes	-9574
▁bust	-9575
▁altogether	-9576
icious	-9577
▁wore	-9578
▁mutual	-9579
▁insane	-9580
▁Festival	-9581
▁Eric	-9582
▁alternatives	-9583
▁Swed	-9584
▁naked	-9585
▁samples	-9586
▁acceptance	-9587
▁applicant	-9588
▁involvement	-9589
orship	-9590
▁Write	-9591
▁duration	-9592
▁filing	-9593
▁legally	-9594
▁suns	-9595
▁parad	-9596
▁Hiya	-9597
▁easiest	-9598
▁blast	-9599
▁expend	-9600
▁forty	-9601
▁HIV	-9602
▁practically	-9603
▁Story	-9604
▁elderly	-9605
ictions	-9606
▁dropping	-9607
umble	-9608
▁interpretation	-9609
▁arranged	-9610
▁labour	-9611
▁considerably	-9612
▁cam	-9613
▁reads	-9614
▁cant	-9615
▁Ut	-9616
▁Muslim	-9617
▁Area	-9618
▁backup	-9619
▁nutri	-9620
▁hurry	-9621
▁Greek	-9622
igence	-9623
With	-9624
▁desires	-9625
▁sink	-9626
▁Six	-9627
▁financing	-9628
▁Jess	-9629
▁regarded	-9630
▁departments	-9631
ystem	-9632
▁ther	-9633
▁mainstream	-9634
▁distributed	-9635
leg	-9636
▁om	-9637
▁directors	-9638
oof	-9639
▁Colorado	-9640
▁km	-9641
▁Staff	-9642
▁achieving	-9643
una	-9644
▁>>	-9645
▁tournament	-9646
walk	-9647
▁woke	-9648
▁holy	-9649
▁independence	-9650
lly	-9651
va	-9652
▁feeding	-9653
vas	-9654
athon	-9655
▁sandw	-9656
icient	-9657
▁trials	-9658
▁MP	-9659
▁deleg	-9660
Ah	-9661
▁desktop	-9662
▁dess	-9663
▁stays	-9664
▁Pakistan	-9665
▁suits	-9666
▁desert	-9667
▁makeup	-9668
▁proposals	-9669
▁Labor	-9670
▁Easy	-9671
▁segment	-9672
allel	-9673
▁poem	-9674
▁focuses	-9675
▁compelling	-9676
▁lease	-9677
itches	-9678
▁profound	-9679
▁Vill	-9680
▁Store	-9681
▁hence	-9682
sl	-9683
gener	-9684
▁mouse	-9685
▁boil	-9686
▁deter	-9687
▁addressing	-9688
▁toy	-9689
▁Heaven	-9690
▁compound	-9691
▁cruel	-9692
▁weigh	-9693
▁lemon	-9694
▁affair	-9695
▁Foreign	-9696
▁donation	-9697
▁pron	-9698
Ar	-9699
IE	-9700
▁shore	-9701
▁Cas	-9702
tical	-9703
▁synt	-9704
▁relatives	-9705
▁maps	-9706
▁Wait	-9707
▁wing	-9708
▁corporation	-9709
▁buttons	-9710
▁separated	-9711
stein	-9712
▁electron	-9713
▁shed	-9714
▁Often	-9715
▁flesh	-9716
▁steam	-9717
▁bottles	-9718
▁creatures	-9719
▁Credit	-9720
▁Eastern	-9721
▁prosper	-9722
tail	-9723
▁grey	-9724
▁genetic	-9725
▁churches	-9726
▁curriculum	-9727
ivals	-9728
found	-9729
▁panic	-9730
itudes	-9731
▁regime	-9732
▁assignment	-9733
▁codes	-9734
retion	-9735
inction	-9736
agan	-9737
▁lasting	-9738
▁Speaking	-9739
▁bacteria	-9740
▁Fortunately	-9741
rimination	-9742
▁homework	-9743
limited	-9744
Did	-9745
▁explicit	-9746
▁ward	-9747
▁Asian	-9748
ocratic	-9749
▁overseas	-9750
▁confirmation	-9751
▁representation	-9752
▁Own	-9753
▁harmful	-9754
▁approached	-9755
best	-9756
▁rehab	-9757
▁claiming	-9758
▁earnings	-9759
▁functionality	-9760
▁fence	-9761
▁designated	-9762
▁chairs	-9763
▁attacked	-9764
master	-9765
▁photographer	-9766
omatic	-9767
▁Studies	-9768
▁poetry	-9769
▁subscribe	-9770
▁«	-9771
▁tissue	-9772
▁overview	-9773
isy	-9774
▁jury	-9775
▁contributed	-9776
▁spam	-9777
▁mechanism	-9778
▁threatened	-9779
▁sheep	-9780
▁transferred	-9781
▁IF	-9782
▁whispered	-9783
▁Ham	-9784
apore	-9785
DP	-9786
▁roots	-9787
ema	-9788
▁FR	-9789
▁piss	-9790
▁align	-9791
aron	-9792
▁municip	-9793
▁underlying	-9794
▁Later	-9795
▁integration	-9796
▁adverse	-9797
▁washing	-9798
apped	-9799
▁Dear	-9800
▁fo	-9801
▁Joseph	-9802
▁potatoes	-9803
aine	-9804
▁grabbed	-9805
▁	-9806
▁debut	-9807
▁discrimination	-9808
▁PL	-9809
▁Games	-9810
▁Jun	-9811
natural	-9812
▁Ford	-9813
▁designers	-9814
onto	-9815
▁Early	-9816
▁Officer	-9817
▁Elizabeth	-9818
▁frequency	-9819
▁Stock	-9820
▁Ren	-9821
▁reass	-9822
▁bran	-9823
▁eaten	-9824
▁newest	-9825
▁brow	-9826
▁shorter	-9827
▁tang	-9828
inst	-9829
▁Dub	-9830
▁Latin	-9831
▁Eth	-9832
▁reflection	-9833
▁folder	-9834
UD	-9835
▁bitter	-9836
▁tactics	-9837
ONE	-9838
tes	-9839
▁Professor	-9840
▁qualities	-9841
ahoo	-9842
PC	-9843
▁protocol	-9844
▁vig	-9845
▁tourist	-9846
▁Gall	-9847
▁Vegas	-9848
▁affiliate	-9849
▁dedication	-9850
ador	-9851
utter	-9852
▁consciousness	-9853
▁counts	-9854
▁Division	-9855
oric	-9856
▁inventory	-9857
▁visitor	-9858
iasm	-9859
▁Jordan	-9860
▁tablet	-9861
▁beloved	-9862
▁answering	-9863
iana	-9864
▁chips	-9865
▁invested	-9866
▁Build	-9867
▁Visit	-9868
▁Personally	-9869
▁cogn	-9870
▁antib	-9871
IST	-9872
▁Video	-9873
▁impacts	-9874
▁operational	-9875
bey	-9876
▁plug	-9877
▁preserve	-9878
▁GM	-9879
▁rhy	-9880
▁donations	-9881
grade	-9882
▁Garden	-9883
▁priorities	-9884
iox	-9885
because	-9886
▁worries	-9887
▁sail	-9888
▁FA	-9889
gments	-9890
▁implications	-9891
hal	-9892
▁Nobody	-9893
▁ethnic	-9894
inch	-9895
ICE	-9896
▁engineer	-9897
▁Bull	-9898
▁Valent	-9899
▁operator	-9900
▁fundra	-9901
▁locate	-9902
▁peers	-9903
ORD	-9904
▁exclaimed	-9905
Please	-9906
airy	-9907
▁sour	-9908
▁SM	-9909
▁Psych	-9910
phy	-9911
inn	-9912
▁fert	-9913
▁confusing	-9914
▁rejected	-9915
ucky	-9916
▁existed	-9917
▁Made	-9918
▁translation	-9919
▁Series	-9920
▁defeat	-9921
▁CAN	-9922
▁presidential	-9923
▁highlights	-9924
▁Type	-9925
▁gallery	-9926
▁cultures	-9927
hi	-9928
▁clip	-9929
▁cyber	-9930
▁credits	-9931
▁§	-9932
▁devoted	-9933
▁Ident	-9934
def	-9935
▁Cert	-9936
▁symp	-9937
owered	-9938
▁conventional	-9939
▁midst	-9940
attered	-9941
▁undoubtedly	-9942
▁Ball	-9943
piece	-9944
▁Study	-9945
▁Gabrie	-9946
▁Kate	-9947
▁stared	-9948
▁treasure	-9949
▁Rog	-9950
▁winners	-9951
Tr	-9952
▁mining	-9953
▁stocks	-9954
ouble	-9955
plus	-9956
somet	-9957
▁empower	-9958
style	-9959
▁burned	-9960
▁nevertheless	-9961
▁span	-9962
▁gains	-9963
▁proceedings	-9964
▁urge	-9965
▁tension	-9966
New	-9967
▁jealous	-9968
▁Apart	-9969
sen	-9970
▁browsing	-9971
rec	-9972
▁radical	-9973
▁disorders	-9974
▁estimates	-9975
▁rab	-9976
▁skip	-9977
▁refrig	-9978
gency	-9979
▁Terms	-9980
▁Baby	-9981
▁shy	-9982
sight	-9983
▁Price	-9984
▁carpet	-9985
▁reprodu	-9986
▁creature	-9987
aneously	-9988
▁visa	-9989
▁collecting	-9990
▁cleared	-9991
▁linking	-9992
▁suppliers	-9993
▁Clean	-9994
urred	-9995
▁euro	-9996
▁Ros	-9997
▁dispute	-9998
anny	-9999
party	-10000
▁domin	-10001
▁Brand	-10002
▁accepting	-10003
▁SS	-10004
▁Regist	-10005
▁Country	-10006
▁overlook	-10007
▁arise	-10008
orous	-10009
▁swall	-10010
▁Answ	-10011
▁commenting	-10012
▁revol	-10013
▁pollution	-10014
▁laundry	-10015
ctr	-10016
▁singer	-10017
▁Inf	-10018
▁Tay	-10019
▁seemingly	-10020
▁Between	-10021
▁approaching	-10022
▁Box	-10023
aus	-10024
▁Natural	-10025
▁implementing	-10026
▁trailer	-10027
▁judges	-10028
▁URL	-10029
▁org	-10030
▁featuring	-10031
▁privilege	-10032
▁narrative	-10033
▁tends	-10034
andal	-10035
▁popularity	-10036
▁Emer	-10037
▁liver	-10038
▁dozens	-10039
▁unemployment	-10040
▁lifted	-10041
▁demonstrated	-10042
▁PH	-10043
▁sighed	-10044
guard	-10045
▁Perform	-10046
ologists	-10047
cycle	-10048
minded	-10049
▁garbage	-10050
olutely	-10051
advant	-10052
▁freely	-10053
▁fridge	-10054
inge	-10055
▁craw	-10056
▁AG	-10057
▁harvest	-10058
▁coinc	-10059
▁export	-10060
▁Scient	-10061
▁observation	-10062
▁Economic	-10063
icket	-10064
▁warranty	-10065
▁ruling	-10066
ervice	-10067
▁Pretty	-10068
got	-10069
▁inher	-10070
▁gradually	-10071
wear	-10072
▁grandmother	-10073
▁theft	-10074
▁mate	-10075
▁Anne	-10076
▁taxpay	-10077
ountered	-10078
▁garlic	-10079
▁dign	-10080
▁Rome	-10081
▁resid	-10082
▁sigh	-10083
▁creep	-10084
▁romance	-10085
▁strive	-10086
▁wheels	-10087
gie	-10088
isure	-10089
▁slide	-10090
gic	-10091
▁Bru	-10092
▁accuracy	-10093
▁foster	-10094
ccer	-10095
gorith	-10096
▁Meeting	-10097
▁toxic	-10098
▁repeatedly	-10099
▁backed	-10100
▁Connect	-10101
▁discounts	-10102
imm	-10103
▁memorable	-10104
▁Laur	-10105
▁ONE	-10106
▁matt	-10107
▁cave	-10108
▁prospects	-10109
▁WILL	-10110
▁Planning	-10111
▁Quick	-10112
▁Roll	-10113
hile	-10114
▁accessories	-10115
whe	-10116
▁condem	-10117
▁priest	-10118
▁Ens	-10119
▁needing	-10120
▁encountered	-10121
▁pressed	-10122
▁Moon	-10123
▁catching	-10124
▁conj	-10125
▁Figure	-10126
▁enthusiasm	-10127
sem	-10128
visor	-10129
▁Rod	-10130
▁directory	-10131
▁transformation	-10132
▁march	-10133
▁Upon	-10134
▁kindly	-10135
▁justify	-10136
▁readily	-10137
▁vine	-10138
▁pale	-10139
▁parks	-10140
uates	-10141
▁Cli	-10142
▁jacket	-10143
▁satisfy	-10144
▁supportive	-10145
▁Matthew	-10146
▁identification	-10147
heast	-10148
▁pleas	-10149
▁artificial	-10150
iosity	-10151
▁soldier	-10152
▁rape	-10153
arms	-10154
pdf	-10155
▁dough	-10156
wall	-10157
gov	-10158
▁AB	-10159
sts	-10160
shine	-10161
▁impr	-10162
▁northern	-10163
▁́	-10164
season	-10165
▁assure	-10166
▁scored	-10167
▁premises	-10168
inator	-10169
▁companion	-10170
IGHT	-10171
▁Nature	-10172
▁viewers	-10173
▁Fac	-10174
▁mum	-10175
▁lamp	-10176
▁instinct	-10177
olds	-10178
▁accommodate	-10179
▁swear	-10180
▁facilitate	-10181
▁legend	-10182
▁teens	-10183
▁vitamin	-10184
▁UP	-10185
arks	-10186
writing	-10187
▁Kn	-10188
▁reactions	-10189
ulse	-10190
▁utility	-10191
▁Nevertheless	-10192
▁placement	-10193
▁submission	-10194
intage	-10195
▁blessing	-10196
vironments	-10197
▁stroke	-10198
▁concentration	-10199
▁Perfect	-10200
proof	-10201
▁exhibition	-10202
▁Singapore	-10203
▁punch	-10204
▁surviv	-10205
▁oxy	-10206
▁awhile	-10207
▁bol	-10208
▁Impro	-10209
▁basics	-10210
▁Pers	-10211
▁engineers	-10212
▁kingdom	-10213
▁Were	-10214
)?	-10215
▁keyboard	-10216
itative	-10217
▁radiation	-10218
▁Others	-10219
▁ax	-10220
▁safer	-10221
▁completing	-10222
▁Bene	-10223
▁striking	-10224
▁donate	-10225
achelor	-10226
▁Governor	-10227
▁Farm	-10228
▁elabor	-10229
▁idiot	-10230
▁olive	-10231
▁monster	-10232
▁Convention	-10233
▁devil	-10234
▁traged	-10235
▁fifteen	-10236
▁Job	-10237
▁CA	-10238
iatric	-10239
▁healthier	-10240
high	-10241
▁corruption	-10242
▁RSS	-10243
▁Unlike	-10244
▁homeown	-10245
▁boundaries	-10246
OME	-10247
▁Kar	-10248
▁mud	-10249
▁satell	-10250
lihood	-10251
ishop	-10252
▁€	-10253
▁Award	-10254
▁commented	-10255
link	-10256
▁jer	-10257
ping	-10258
▁tomatoes	-10259
▁poster	-10260
▁sexy	-10261
▁appet	-10262
▁contacted	-10263
LC	-10264
▁exclus	-10265
▁killer	-10266
alo	-10267
▁layers	-10268
▁jumping	-10269
▁supplements	-10270
mod	-10271
▁pause	-10272
▁clarity	-10273
▁distant	-10274
▁vendors	-10275
▁assert	-10276
▁liable	-10277
▁floors	-10278
▁chuck	-10279
▁transmission	-10280
▁lover	-10281
ambling	-10282
▁Winter	-10283
▁locally	-10284
mg	-10285
▁NFL	-10286
▁Nic	-10287
▁Pub	-10288
▁complaining	-10289
▁identifying	-10290
irk	-10291
▁mentally	-10292
▁indu	-10293
▁determining	-10294
hr	-10295
ribly	-10296
▁thumb	-10297
▁efficiently	-10298
▁Independ	-10299
▁disrupt	-10300
▁happily	-10301
ITY	-10302
▁consequence	-10303
hearted	-10304
▁batteries	-10305
▁excessive	-10306
▁DNA	-10307
▁Andy	-10308
▁celebrating	-10309
,--	-10310
▁terrorist	-10311
American	-10312
PT	-10313
▁Vi	-10314
▁solved	-10315
▁sheets	-10316
▁jam	-10317
▁demanded	-10318
▁inhab	-10319
▁succ	-10320
▁athletes	-10321
▁passenger	-10322
▁servers	-10323
▁requiring	-10324
▁Po	-10325
▁theater	-10326
scale	-10327
!'	-10328
▁tower	-10329
▁dressing	-10330
ho	-10331
▁lawn	-10332
▁organize	-10333
onic	-10334
▁Month	-10335
▁subtle	-10336
▁necessity	-10337
reedom	-10338
▁arbit	-10339
▁guilt	-10340
▁Ce	-10341
▁caps	-10342
▁minority	-10343
▁Application	-10344
▁releases	-10345
▁semin	-10346
▁funded	-10347
erable	-10348
▁interpre	-10349
ilipp	-10350
▁Buff	-10351
▁Java	-10352
▁Truth	-10353
▁occupied	-10354
▁discretion	-10355
▁governor	-10356
▁theatre	-10357
▁grief	-10358
▁doub	-10359
▁cultiv	-10360
offs	-10361
feed	-10362
▁brut	-10363
ieved	-10364
▁incorrect	-10365
▁amenities	-10366
▁sore	-10367
izer	-10368
▁navigate	-10369
▁Tips	-10370
iti	-10371
▁TIP	-10372
▁spirits	-10373
▁annually	-10374
eks	-10375
▁Kent	-10376
▁closet	-10377
▁finest	-10378
▁partly	-10379
▁countless	-10380
▁frustrated	-10381
▁cater	-10382
▁environments	-10383
▁convincing	-10384
overs	-10385
▁Fant	-10386
▁kicked	-10387
edge	-10388
▁adventures	-10389
▁abortion	-10390
▁signature	-10391
▁grants	-10392
hesis	-10393
▁cord	-10394
occ	-10395
▁HR	-10396
▁midnight	-10397
▁ancest	-10398
quarters	-10399
▁Move	-10400
▁render	-10401
▁perceived	-10402
▁Relations	-10403
▁FBI	-10404
▁User	-10405
▁perception	-10406
▁loop	-10407
▁intr	-10408
aired	-10409
▁Bless	-10410
▁firmly	-10411
print	-10412
▁solo	-10413
▁picks	-10414
▁unfair	-10415
especially	-10416
▁spreading	-10417
▁drain	-10418
rape	-10419
▁mathemat	-10420
▁terrific	-10421
▁breathe	-10422
▁stating	-10423
▁Georgia	-10424
appropri	-10425
blo	-10426
▁wars	-10427
▁workforce	-10428
▁sentences	-10429
▁meters	-10430
▁presum	-10431
▁expanded	-10432
▁sac	-10433
▁mattress	-10434
▁variable	-10435
▁composition	-10436
▁defensive	-10437
▁paintings	-10438
▁grows	-10439
conf	-10440
▁careers	-10441
▁agricultural	-10442
▁Lew	-10443
fortunate	-10444
▁HAVE	-10445
▁faithful	-10446
▁Golden	-10447
▁varied	-10448
cellence	-10449
▁Field	-10450
▁feeds	-10451
ogen	-10452
▁bugs	-10453
▁attendance	-10454
iffs	-10455
▁ethical	-10456
▁Easter	-10457
▁Stephen	-10458
hew	-10459
angle	-10460
▁tennis	-10461
▁bonds	-10462
Some	-10463
▁expanding	-10464
▁stakeholders	-10465
ogy	-10466
ults	-10467
▁Orig	-10468
▁audit	-10469
▁hazard	-10470
▁oils	-10471
▁imagined	-10472
▁princess	-10473
▁applicants	-10474
iami	-10475
▁attracted	-10476
▁sew	-10477
▁torn	-10478
▁thoughtful	-10479
▁entrepreneur	-10480
▁branches	-10481
▁gray	-10482
▁nasty	-10483
▁beating	-10484
▁manifest	-10485
▁vague	-10486
▁clouds	-10487
isode	-10488
▁Cut	-10489
pled	-10490
▁Hou	-10491
▁Capital	-10492
▁Turkey	-10493
▁Quality	-10494
▁rewards	-10495
▁newspapers	-10496
▁admire	-10497
store	-10498
▁fever	-10499
▁sequence	-10500
▁accompany	-10501
▁secured	-10502
▁Future	-10503
▁packaging	-10504
▁forb	-10505
MA	-10506
▁inevitable	-10507
▁counting	-10508
▁iPad	-10509
ishers	-10510
uan	-10511
▁Contract	-10512
▁sevent	-10513
▁tastes	-10514
▁modified	-10515
▁Assembly	-10516
▁verify	-10517
▁invitation	-10518
▁configuration	-10519
▁prominent	-10520
olit	-10521
▁Intell	-10522
ifle	-10523
annel	-10524
▁Guy	-10525
▁operated	-10526
▁honour	-10527
▁immigrants	-10528
▁ranging	-10529
onel	-10530
reek	-10531
▁AF	-10532
▁Writing	-10533
▁Pu	-10534
lims	-10535
▁algorith	-10536
▁Cub	-10537
oples	-10538
▁Bang	-10539
▁Kong	-10540
▁bund	-10541
▁Authority	-10542
▁Sche	-10543
▁departure	-10544
▁stones	-10545
▁Seattle	-10546
▁cleaned	-10547
▁briefly	-10548
ushes	-10549
▁advocate	-10550
▁funeral	-10551
▁Brad	-10552
▁searched	-10553
ifer	-10554
▁pursuant	-10555
▁**	-10556
▁Bi	-10557
▁Cru	-10558
ockey	-10559
▁hills	-10560
▁Mobile	-10561
▁jewelry	-10562
▁strip	-10563
CA	-10564
ailing	-10565
▁aston	-10566
▁Depending	-10567
▁genius	-10568
although	-10569
▁authentic	-10570
Pe	-10571
▁cosm	-10572
Because	-10573
▁Along	-10574
▁Cancer	-10575
aiting	-10576
ocus	-10577
▁earning	-10578
▁beautifully	-10579
▁BUT	-10580
zona	-10581
▁simult	-10582
▁Body	-10583
▁semes	-10584
▁deduct	-10585
▁contrad	-10586
Here	-10587
regon	-10588
abling	-10589
atched	-10590
▁comedy	-10591
▁hypot	-10592
▁testimony	-10593
bro	-10594
▁clinic	-10595
▁occasional	-10596
▁understands	-10597
▁reserves	-10598
▁NEW	-10599
▁demanding	-10600
author	-10601
▁convicted	-10602
▁wow	-10603
igious	-10604
:)	-10605
"?	-10606
],	-10607
hire	-10608
imer	-10609
▁subscrib	-10610
▁breach	-10611
▁lands	-10612
lend	-10613
▁frustration	-10614
▁Smart	-10615
▁apologize	-10616
▁Ur	-10617
▁moderate	-10618
arency	-10619
▁carries	-10620
▁disadvant	-10621
God	-10622
▁bicy	-10623
▁immense	-10624
▁soap	-10625
▁closest	-10626
aza	-10627
▁leaf	-10628
▁screening	-10629
▁stem	-10630
▁intake	-10631
▁technological	-10632
▁boats	-10633
▁Silver	-10634
▁conducting	-10635
▁rend	-10636
cia	-10637
cip	-10638
▁avoided	-10639
name	-10640
early	-10641
game	-10642
▁lap	-10643
De	-10644
▁{	-10645
▁pad	-10646
▁cocon	-10647
▁legacy	-10648
Man	-10649
▁portra	-10650
▁lecture	-10651
▁basement	-10652
▁disgust	-10653
▁Clark	-10654
agra	-10655
▁Compan	-10656
aver	-10657
stra	-10658
▁shaking	-10659
▁nearest	-10660
▁landed	-10661
▁representing	-10662
third	-10663
▁Affairs	-10664
▁Private	-10665
▁Success	-10666
liest	-10667
▁connecting	-10668
aters	-10669
▁intu	-10670
▁Wars	-10671
UC	-10672
▁fart	-10673
▁genre	-10674
AST	-10675
isp	-10676
▁Bern	-10677
▁quoted	-10678
▁charming	-10679
▁performances	-10680
▁restricted	-10681
▁Iron	-10682
bet	-10683
neath	-10684
▁suspected	-10685
igen	-10686
▁shapes	-10687
osc	-10688
▁Las	-10689
▁offence	-10690
▁franchise	-10691
check	-10692
▁Rick	-10693
oore	-10694
▁Days	-10695
▁Oil	-10696
▁argued	-10697
▁disposal	-10698
▁slept	-10699
▁Perm	-10700
▁bulk	-10701
▁certification	-10702
▁Luke	-10703
emption	-10704
▁unre	-10705
▁specialized	-10706
eous	-10707
▁Content	-10708
▁tob	-10709
▁tatt	-10710
▁Taylor	-10711
▁Soon	-10712
▁awake	-10713
chester	-10714
▁snack	-10715
cal	-10716
▁Incre	-10717
▁survived	-10718
▁PRO	-10719
▁Cab	-10720
▁shade	-10721
▁celebrated	-10722
▁fatal	-10723
stop	-10724
▁shield	-10725
▁cu	-10726
▁Mach	-10727
▁Shop	-10728
istical	-10729
▁tweet	-10730
▁supplied	-10731
ateral	-10732
▁coaches	-10733
▁barrel	-10734
▁thou	-10735
▁situated	-10736
▁landl	-10737
▁Currently	-10738
▁tourists	-10739
▁scrap	-10740
▁enjoys	-10741
▁touching	-10742
▁progressive	-10743
▁mit	-10744
▁auction	-10745
▁stressed	-10746
▁believing	-10747
▁Syria	-10748
▁shelf	-10749
▁avoiding	-10750
▁Afghanistan	-10751
▁incidents	-10752
omeday	-10753
▁Dise	-10754
▁generic	-10755
▁Line	-10756
piracy	-10757
▁flights	-10758
▁spectrum	-10759
unity	-10760
▁booked	-10761
hole	-10762
▁biological	-10763
▁fluid	-10764
bies	-10765
▁contempl	-10766
▁Professional	-10767
ptic	-10768
▁cope	-10769
▁treats	-10770
enders	-10771
▁camping	-10772
▁gardens	-10773
▁cookie	-10774
▁entities	-10775
▁prisoners	-10776
EE	-10777
▁Amazing	-10778
beat	-10779
backs	-10780
▁mart	-10781
▁unfortunate	-10782
▁rewarding	-10783
▁collapse	-10784
▁tri	-10785
▁cups	-10786
▁Beh	-10787
▁freel	-10788
▁cruise	-10789
TC	-10790
▁fib	-10791
▁mercy	-10792
▁Square	-10793
▁physics	-10794
▁responding	-10795
▁aunt	-10796
▁affecting	-10797
▁hosted	-10798
▁Dun	-10799
gi	-10800
▁casino	-10801
▁designing	-10802
▁bargain	-10803
▁keywords	-10804
▁tuned	-10805
atile	-10806
▁Mountain	-10807
▁contam	-10808
screen	-10809
▁Level	-10810
▁cloth	-10811
▁theories	-10812
orneys	-10813
▁ip	-10814
▁colleges	-10815
ilson	-10816
lete	-10817
▁versus	-10818
izations	-10819
Or	-10820
▁Happ	-10821
ousing	-10822
▁Environmental	-10823
▁grain	-10824
▁Particip	-10825
ierce	-10826
▁pressing	-10827
▁carrier	-10828
▁remed	-10829
osex	-10830
▁Toronto	-10831
▁corrupt	-10832
▁hem	-10833
ilation	-10834
▁WHAT	-10835
cor	-10836
▁bay	-10837
▁piano	-10838
▁Process	-10839
▁Broad	-10840
▁significance	-10841
▁Experience	-10842
▁magazines	-10843
▁calculated	-10844
▁consulting	-10845
▁executed	-10846
adows	-10847
▁Tele	-10848
▁neutral	-10849
▁liberty	-10850
▁wounded	-10851
atal	-10852
kers	-10853
▁vert	-10854
imental	-10855
▁defence	-10856
▁reserved	-10857
ainted	-10858
▁preference	-10859
▁meditation	-10860
▁twist	-10861
▁Niger	-10862
soever	-10863
▁preventing	-10864
▁fatig	-10865
▁gods	-10866
▁licence	-10867
▁mysterious	-10868
▁sup	-10869
▁Download	-10870
▁envelop	-10871
▁broker	-10872
▁mall	-10873
▁strikes	-10874
▁Occ	-10875
▁utilize	-10876
esy	-10877
anguage	-10878
▁intimate	-10879
▁smartphone	-10880
▁cents	-10881
▁oxygen	-10882
oper	-10883
▁gaining	-10884
▁surprisingly	-10885
coin	-10886
▁Hong	-10887
▁flip	-10888
▁agriculture	-10889
IDS	-10890
aska	-10891
uum	-10892
▁curiosity	-10893
throp	-10894
▁Hum	-10895
▁Oregon	-10896
▁Privacy	-10897
wind	-10898
▁Ap	-10899
Book	-10900
▁lord	-10901
▁intimid	-10902
oons	-10903
▁Bed	-10904
alling	-10905
▁Kelly	-10906
▁panels	-10907
▁Ram	-10908
▁nap	-10909
card	-10910
▁weekends	-10911
▁indication	-10912
normal	-10913
▁worrying	-10914
▁formation	-10915
▁buzz	-10916
▁crop	-10917
▁promising	-10918
▁nonsense	-10919
▁bio	-10920
▁Amend	-10921
By	-10922
iries	-10923
ester	-10924
▁coconut	-10925
▁aer	-10926
▁Cover	-10927
▁inflamm	-10928
▁ties	-10929
▁ramp	-10930
iability	-10931
ARD	-10932
▁Arizona	-10933
▁thereof	-10934
aneous	-10935
▁sadly	-10936
HA	-10937
▁phenomenon	-10938
▁BBC	-10939
itating	-10940
▁mature	-10941
▁modify	-10942
▁amended	-10943
▁continually	-10944
▁overwhelmed	-10945
piring	-10946
▁wishing	-10947
▁conviction	-10948
Le	-10949
▁Doug	-10950
▁tobacco	-10951
▁Altern	-10952
▁MR	-10953
▁Didn	-10954
▁Yesterday	-10955
▁competent	-10956
▁carb	-10957
▁caution	-10958
▁Foot	-10959
▁producers	-10960
▁dated	-10961
▁barriers	-10962
▁exped	-10963
▁MORE	-10964
▁profitable	-10965
▁associate	-10966
▁laughter	-10967
▁specialists	-10968
ulpt	-10969
isticated	-10970
▁opponent	-10971
▁apartments	-10972
▁sunny	-10973
ighters	-10974
▁verse	-10975
four	-10976
▁Engineering	-10977
▁grid	-10978
holder	-10979
▁Miami	-10980
▁stressful	-10981
▁Past	-10982
▁describing	-10983
▁HD	-10984
▁trap	-10985
▁Wales	-10986
vard	-10987
▁tube	-10988
watch	-10989
▁conqu	-10990
▁Quest	-10991
▁circuit	-10992
ila	-10993
▁Syd	-10994
▁tid	-10995
prof	-10996
▁Anything	-10997
▁reluct	-10998
▁crown	-10999
▁novels	-11000
▁accordingly	-11001
▁Bit	-11002
▁interactions	-11003
▁("	-11004
▁Houston	-11005
▁bree	-11006
▁preferences	-11007
▁declined	-11008
▁ordering	-11009
▁disclosure	-11010
ACK	-11011
ione	-11012
▁Philipp	-11013
▁recovered	-11014
ounge	-11015
▁conclusions	-11016
▁negotiations	-11017
Bl	-11018
▁enroll	-11019
▁assembly	-11020
▁pant	-11021
two	-11022
have	-11023
▁jar	-11024
▁Labour	-11025
▁Return	-11026
ami	-11027
▁thee	-11028
▁cared	-11029
▁solving	-11030
▁tours	-11031
▁Email	-11032
▁blanket	-11033
▁Imp	-11034
▁banned	-11035
▁Tal	-11036
▁Similar	-11037
▁ric	-11038
▁Greg	-11039
function	-11040
Thanks	-11041
grounds	-11042
▁Regardless	-11043
▁pose	-11044
▁souls	-11045
▁Judge	-11046
worthy	-11047
▁DI	-11048
selling	-11049
▁CS	-11050
▁leaned	-11051
▁dash	-11052
▁Jenn	-11053
▁brid	-11054
▁laying	-11055
▁leisure	-11056
osit	-11057
osity	-11058
▁Standard	-11059
intend	-11060
▁owe	-11061
▁acted	-11062
▁secretary	-11063
▁Barb	-11064
▁Rule	-11065
▁establishing	-11066
orient	-11067
▁Nation	-11068
▁documentary	-11069
▁straightforward	-11070
These	-11071
commerce	-11072
▁Attorney	-11073
▁province	-11074
▁crimin	-11075
▁digest	-11076
▁incorporate	-11077
▁Explore	-11078
▁Simple	-11079
▁tablets	-11080
▁gam	-11081
depth	-11082
▁neighbour	-11083
▁decides	-11084
▁hated	-11085
▁consume	-11086
▁ED	-11087
▁winds	-11088
▁wonders	-11089
▁Hur	-11090
▁affection	-11091
▁fellows	-11092
▁Angel	-11093
▁elegant	-11094
▁hilar	-11095
▁shoe	-11096
▁dive	-11097
▁intentions	-11098
▁Palestin	-11099
table	-11100
▁temple	-11101
▁Pick	-11102
▁ups	-11103
▁folk	-11104
▁custody	-11105
know	-11106
think	-11107
▁Harr	-11108
▁dude	-11109
▁beaches	-11110
▁outdoors	-11111
asted	-11112
▁module	-11113
▁constructed	-11114
OO	-11115
▁Josh	-11116
fting	-11117
▁acres	-11118
▁aging	-11119
▁parliament	-11120
▁metab	-11121
▁diamond	-11122
▁conditioning	-11123
orr	-11124
▁appealing	-11125
▁dentist	-11126
▁reflected	-11127
▁rings	-11128
▁assemb	-11129
▁vaccine	-11130
▁identical	-11131
▁hike	-11132
ricane	-11133
▁worlds	-11134
napped	-11135
▁overt	-11136
▁revel	-11137
▁insect	-11138
▁analyze	-11139
ASE	-11140
▁lobby	-11141
▁Side	-11142
▁Camer	-11143
▁substitute	-11144
▁rounds	-11145
▁crossing	-11146
ustain	-11147
▁essence	-11148
▁paste	-11149
▁Hun	-11150
ciples	-11151
▁slee	-11152
▁aver	-11153
▁wre	-11154
▁font	-11155
mate	-11156
▁mandatory	-11157
▁castle	-11158
gets	-11159
▁journalists	-11160
▁dece	-11161
▁Listen	-11162
▁highway	-11163
▁respected	-11164
▁mole	-11165
▁ruin	-11166
▁Birthday	-11167
▁influenced	-11168
▁continuously	-11169
▁threatening	-11170
shirt	-11171
arts	-11172
Sp	-11173
▁terrorism	-11174
▁artistic	-11175
▁Maria	-11176
ba	-11177
och	-11178
▁Same	-11179
▁Pray	-11180
▁Import	-11181
▁Episode	-11182
▁programmes	-11183
▁embra	-11184
▁realised	-11185
▁Systems	-11186
▁squad	-11187
▁grip	-11188
▁costly	-11189
▁Wonderful	-11190
aka	-11191
marked	-11192
▁blown	-11193
▁PDF	-11194
▁equality	-11195
▁tricky	-11196
▁educate	-11197
umbs	-11198
▁toll	-11199
▁infections	-11200
adel	-11201
illance	-11202
▁VER	-11203
▁tragedy	-11204
▁knocked	-11205
▁adj	-11206
bridge	-11207
▁notification	-11208
▁rust	-11209
▁Appro	-11210
ja	-11211
▁constra	-11212
▁reaches	-11213
ellow	-11214
▁Blood	-11215
nity	-11216
▁Ca	-11217
▁mechanical	-11218
▁exclusively	-11219
why	-11220
Okay	-11221
▁suspended	-11222
▁Rain	-11223
▁haunt	-11224
▁emerged	-11225
▁Different	-11226
▁gaze	-11227
▁Software	-11228
▁charging	-11229
▁concentrate	-11230
▁torture	-11231
▁acquisition	-11232
mare	-11233
▁dried	-11234
▁climbing	-11235
▁PA	-11236
covery	-11237
▁batch	-11238
▁Ways	-11239
▁sins	-11240
▁marvel	-11241
▁struggled	-11242
▁circles	-11243
▁whatsoever	-11244
▁Victoria	-11245
▁tendency	-11246
▁Imm	-11247
▁Diego	-11248
burgh	-11249
▁produces	-11250
▁Woman	-11251
▁Hit	-11252
▁obtaining	-11253
▁hiking	-11254
")	-11255
▁Fast	-11256
▁divine	-11257
▁insist	-11258
▁steep	-11259
▁angles	-11260
▁infant	-11261
▁ratings	-11262
▁fet	-11263
▁displays	-11264
▁Notice	-11265
working	-11266
▁receives	-11267
ixed	-11268
iciency	-11269
inson	-11270
CL	-11271
▁Sports	-11272
▁imposed	-11273
▁semester	-11274
elect	-11275
▁stere	-11276
pool	-11277
pensive	-11278
▁WOR	-11279
▁marketplace	-11280
itual	-11281
▁downloaded	-11282
▁screaming	-11283
▁indoor	-11284
▁Jam	-11285
sis	-11286
▁Finance	-11287
▁suited	-11288
note	-11289
▁Jay	-11290
erals	-11291
▁strictly	-11292
▁Bat	-11293
Me	-11294
supp	-11295
▁handsome	-11296
▁angel	-11297
▁purple	-11298
▁Transport	-11299
▁tempor	-11300
▁fiber	-11301
▁insisted	-11302
▁contributing	-11303
▁Awesome	-11304
▁tourism	-11305
azine	-11306
▁clause	-11307
▁Carl	-11308
▁trace	-11309
▁grandfather	-11310
▁Iss	-11311
▁selecting	-11312
▁Deb	-11313
cular	-11314
▁Prior	-11315
▁competing	-11316
▁cheek	-11317
▁lawsuit	-11318
▁sticking	-11319
▁mindset	-11320
▁classified	-11321
▁Radio	-11322
▁priced	-11323
▁Whenever	-11324
▁descend	-11325
▁floating	-11326
osystem	-11327
raine	-11328
▁grades	-11329
▁slave	-11330
▁Susan	-11331
ropical	-11332
▁makers	-11333
▁neuro	-11334
▁Opp	-11335
yr	-11336
ividually	-11337
leading	-11338
▁brew	-11339
▁Medicine	-11340
▁wasted	-11341
viet	-11342
▁execut	-11343
asses	-11344
lan	-11345
▁surre	-11346
omin	-11347
▁"'	-11348
▁producer	-11349
▁refriger	-11350
▁queen	-11351
▁parameters	-11352
▁merc	-11353
▁Includ	-11354
▁Israeli	-11355
storm	-11356
▁plates	-11357
▁Patrick	-11358
▁loyalty	-11359
▁declare	-11360
▁trim	-11361
▁Resources	-11362
▁Rs	-11363
▁deleted	-11364
▁warri	-11365
▁foolish	-11366
arded	-11367
▁shine	-11368
effective	-11369
▁founder	-11370
▁operators	-11371
around	-11372
▁Stone	-11373
▁pockets	-11374
▁wides	-11375
bound	-11376
▁heritage	-11377
▁wealthy	-11378
levant	-11379
SP	-11380
low	-11381
▁Hor	-11382
ender	-11383
▁Seems	-11384
▁guided	-11385
▁lonely	-11386
▁consolid	-11387
▁inclined	-11388
▁%	-11389
emic	-11390
▁thats	-11391
▁substances	-11392
istol	-11393
▁Valentine	-11394
▁Lisa	-11395
▁flew	-11396
▁emotionally	-11397
▁cabinet	-11398
▁dys	-11399
▁mos	-11400
▁approve	-11401
▁Property	-11402
▁servant	-11403
▁Script	-11404
▁Ont	-11405
▁caf	-11406
▁Ven	-11407
ader	-11408
oting	-11409
▁compromise	-11410
▁seller	-11411
▁wildlife	-11412
dem	-11413
▁hello	-11414
▁Prep	-11415
▁fitting	-11416
▁obliged	-11417
▁Simon	-11418
▁dramatically	-11419
▁OP	-11420
▁strengths	-11421
▁tum	-11422
FF	-11423
▁chip	-11424
▁pp	-11425
gree	-11426
▁exhausted	-11427
▁welcoming	-11428
OUN	-11429
pread	-11430
▁fare	-11431
▁contractor	-11432
▁stain	-11433
▁sophisticated	-11434
▁Consult	-11435
▁Revolution	-11436
▁Wilson	-11437
▁specify	-11438
▁whereas	-11439
flow	-11440
▁Vietnam	-11441
▁NOW	-11442
open	-11443
tha	-11444
▁hardest	-11445
▁overd	-11446
▁Sydney	-11447
▁divers	-11448
▁quarters	-11449
▁Generally	-11450
▁AI	-11451
▁Cool	-11452
▁Forest	-11453
▁sensible	-11454
▁Books	-11455
yer	-11456
▁observations	-11457
▁que	-11458
▁rude	-11459
▁Doesn	-11460
▁chaos	-11461
written	-11462
▁economics	-11463
sle	-11464
▁indul	-11465
▁curve	-11466
▁inquiry	-11467
▁snacks	-11468
▁Var	-11469
▁cotton	-11470
▁rib	-11471
▁infin	-11472
▁functioning	-11473
▁deadly	-11474
▁paths	-11475
▁conservation	-11476
▁Ocean	-11477
▁Nowadays	-11478
▁jurisdiction	-11479
▁(“	-11480
▁finances	-11481
▁valued	-11482
▁SA	-11483
blem	-11484
▁consultant	-11485
cur	-11486
▁Columbia	-11487
▁inherent	-11488
▁rushed	-11489
▁Empire	-11490
itivity	-11491
ceptions	-11492
▁guessing	-11493
▁nest	-11494
bury	-11495
berries	-11496
▁pond	-11497
▁gre	-11498
▁ruled	-11499
▁graduated	-11500
▁Drive	-11501
rup	-11502
▁suite	-11503
▁examined	-11504
▁mistaken	-11505
▁districts	-11506
▁Snow	-11507
▁Luckily	-11508
▁peoples	-11509
▁Sadly	-11510
▁Hawai	-11511
▁discoura	-11512
ACT	-11513
▁BB	-11514
▁Gi	-11515
▁Amy	-11516
inois	-11517
CD	-11518
▁amendment	-11519
▁hosts	-11520
▁MO	-11521
utical	-11522
▁bent	-11523
▁webpage	-11524
▁Companies	-11525
▁transparent	-11526
▁Uk	-11527
▁Rub	-11528
▁bin	-11529
▁propag	-11530
oded	-11531
▁Definitely	-11532
▁Steven	-11533
▁Vice	-11534
▁financially	-11535
▁indirect	-11536
▁anticipated	-11537
door	-11538
▁remarks	-11539
▁Recently	-11540
END	-11541
ji	-11542
▁sewing	-11543
abis	-11544
▁texts	-11545
▁Analy	-11546
▁polite	-11547
▁composed	-11548
▁hal	-11549
xx	-11550
▁eternal	-11551
▁misunder	-11552
ools	-11553
▁sincere	-11554
▁balcon	-11555
isons	-11556
▁hints	-11557
▁bun	-11558
▁unbel	-11559
▁nerve	-11560
CO	-11561
wan	-11562
▁incon	-11563
▁trauma	-11564
▁cognitive	-11565
▁revenues	-11566
liness	-11567
▁spacious	-11568
▁Muslims	-11569
▁arguing	-11570
▁lyrics	-11571
▁Thought	-11572
▁robust	-11573
▁Hig	-11574
▁encouragement	-11575
appropriate	-11576
Have	-11577
▁todd	-11578
▁ranks	-11579
▁fastest	-11580
▁challenged	-11581
hend	-11582
▁embed	-11583
▁login	-11584
▁drum	-11585
▁belongs	-11586
▁Islamic	-11587
dog	-11588
▁audiences	-11589
▁praying	-11590
▁Grace	-11591
▁Sell	-11592
▁chapters	-11593
plan	-11594
▁brains	-11595
▁consec	-11596
▁breed	-11597
▁trucks	-11598
▁robot	-11599
▁nurses	-11600
▁musicians	-11601
▁femin	-11602
chair	-11603
erge	-11604
▁psychology	-11605
▁parallel	-11606
▁bail	-11607
ouncing	-11608
▁earthqu	-11609
▁talents	-11610
▁Brook	-11611
▁dignity	-11612
▁witnesses	-11613
▁practicing	-11614
▁bothered	-11615
▁belly	-11616
▁Luc	-11617
▁Auto	-11618
▁expressing	-11619
▁noon	-11620
arios	-11621
▁sneak	-11622
▁pills	-11623
▁Soviet	-11624
▁provin	-11625
▁Interesting	-11626
▁Davis	-11627
▁rubber	-11628
▁heck	-11629
▁abstract	-11630
▁Absolutely	-11631
▁Pur	-11632
▁Bridge	-11633
▁Ang	-11634
▁Cro	-11635
iley	-11636
▁Pict	-11637
▁differ	-11638
▁chef	-11639
children	-11640
▁breakdown	-11641
▁prospective	-11642
▁ware	-11643
▁attorneys	-11644
eman	-11645
▁transf	-11646
▁tasty	-11647
pa	-11648
▁vintage	-11649
▁epic	-11650
▁Linux	-11651
▁facebook	-11652
▁Tru	-11653
▁premiums	-11654
▁struggles	-11655
▁mold	-11656
▁pity	-11657
▁Complete	-11658
▁dawn	-11659
▁Parents	-11660
ipes	-11661
▁transparency	-11662
▁Provide	-11663
”?	-11664
ctic	-11665
▁tire	-11666
▁mush	-11667
bally	-11668
▁threads	-11669
▁signals	-11670
▁widespread	-11671
▁individually	-11672
▁Airport	-11673
▁democratic	-11674
DR	-11675
▁absent	-11676
▁waist	-11677
icken	-11678
lace	-11679
▁seam	-11680
▁Sound	-11681
▁chamber	-11682
▁therapist	-11683
▁capability	-11684
taining	-11685
▁guards	-11686
Ad	-11687
▁Prop	-11688
▁caut	-11689
▁stiff	-11690
▁Cry	-11691
▁dull	-11692
▁labels	-11693
▁humble	-11694
▁promptly	-11695
▁disk	-11696
▁repay	-11697
▁Ord	-11698
▁nutrients	-11699
▁retailers	-11700
▁rolls	-11701
▁complexity	-11702
onies	-11703
▁Sweet	-11704
▁enl	-11705
▁reflects	-11706
▁recognise	-11707
MENT	-11708
▁charm	-11709
▁instructor	-11710
▁automated	-11711
▁Industry	-11712
▁hug	-11713
▁blocked	-11714
▁consuming	-11715
▁bloody	-11716
▁complement	-11717
▁Fre	-11718
graduate	-11719
▁Cheers	-11720
▁horn	-11721
▁backpack	-11722
▁Legal	-11723
▁Station	-11724
▁Wil	-11725
▁bubble	-11726
▁satellite	-11727
▁Naz	-11728
▁strangers	-11729
▁documented	-11730
▁investigations	-11731
▁heroes	-11732
▁texture	-11733
▁jokes	-11734
▁Computer	-11735
▁whoever	-11736
Any	-11737
▁smiles	-11738
▁lighter	-11739
lix	-11740
sal	-11741
▁poorly	-11742
▁BL	-11743
▁"...	-11744
▁adjusted	-11745
▁blond	-11746
▁Modern	-11747
▁Hillary	-11748
▁revers	-11749
▁BT	-11750
▁dwell	-11751
▁nowadays	-11752
▁Navy	-11753
▁presenting	-11754
▁anch	-11755
▁shru	-11756
▁Miche	-11757
prises	-11758
▁outer	-11759
▁Austin	-11760
▁behaviors	-11761
▁kidding	-11762
olis	-11763
ington	-11764
▁controversial	-11765
▁delayed	-11766
▁soccer	-11767
▁outlined	-11768
▁leak	-11769
▁retrie	-11770
brid	-11771
▁footage	-11772
▁presentations	-11773
▁Alice	-11774
▁Miller	-11775
▁curtain	-11776
▁Lot	-11777
▁utterly	-11778
rot	-11779
▁sadd	-11780
▁addict	-11781
▁travels	-11782
▁horr	-11783
▁lovers	-11784
▁imprison	-11785
—"	-11786
▁sculpt	-11787
▁bearing	-11788
Get	-11789
aga	-11790
▁beaten	-11791
▁onions	-11792
▁Saud	-11793
▁Individual	-11794
vania	-11795
▁tags	-11796
▁Larry	-11797
▁Freedom	-11798
▁variables	-11799
▁Bureau	-11800
▁arriving	-11801
▁exceptions	-11802
archy	-11803
▁packing	-11804
▁dimin	-11805
▁unhappy	-11806
▁remarked	-11807
ipedia	-11808
▁valley	-11809
▁glanced	-11810
▁sacrific	-11811
▁Method	-11812
▁replacing	-11813
▁traditions	-11814
▁Ton	-11815
▁fires	-11816
▁Conserv	-11817
▁harassment	-11818
▁hurts	-11819
▁corners	-11820
impse	-11821
▁seal	-11822
isan	-11823
mart	-11824
▁fut	-11825
▁commands	-11826
Maybe	-11827
inging	-11828
held	-11829
▁WW	-11830
▁uncertainty	-11831
▁Hug	-11832
itations	-11833
▁respectively	-11834
▁leap	-11835
▁pir	-11836
pres	-11837
▁underground	-11838
aceutical	-11839
▁Answer	-11840
▁dar	-11841
▁converted	-11842
▁Half	-11843
▁EVERY	-11844
▁Laura	-11845
Per	-11846
▁junior	-11847
▁scholarship	-11848
inery	-11849
▁Billy	-11850
App	-11851
▁Avenue	-11852
▁jeans	-11853
▁Faith	-11854
▁accurately	-11855
aws	-11856
▁Cooper	-11857
▁Century	-11858
▁brick	-11859
php	-11860
esity	-11861
▁Send	-11862
▁vegan	-11863
▁gluten	-11864
ikipedia	-11865
▁Might	-11866
▁dairy	-11867
▁deficit	-11868
▁suspicion	-11869
▁hobby	-11870
▁ignorance	-11871
▁protective	-11872
formed	-11873
▁experiments	-11874
▁artwork	-11875
iller	-11876
▁Basically	-11877
▁investor	-11878
▁ink	-11879
▁Meet	-11880
▁qualifications	-11881
▁publications	-11882
▁Disease	-11883
▁hilarious	-11884
▁alright	-11885
▁fleet	-11886
comed	-11887
IB	-11888
▁Senator	-11889
ationally	-11890
▁KN	-11891
▁absurd	-11892
azing	-11893
OUR	-11894
plant	-11895
core	-11896
▁Pope	-11897
▁outline	-11898
▁scarce	-11899
▁contractors	-11900
Os	-11901
▁Pra	-11902
▁Comb	-11903
▁crowded	-11904
▁terminal	-11905
▁barrier	-11906
▁unlimited	-11907
▁accountable	-11908
oen	-11909
▁EM	-11910
▁BY	-11911
▁clips	-11912
icular	-11913
▁orientation	-11914
▁frankly	-11915
▁Arm	-11916
▁quilt	-11917
▁smoothly	-11918
▁conflicts	-11919
oops	-11920
▁portray	-11921
thm	-11922
▁urgent	-11923
▁Mexican	-11924
▁Grant	-11925
▁thresh	-11926
▁CN	-11927
▁Term	-11928
▁Atlantic	-11929
▁bucks	-11930
▁ritual	-11931
conscious	-11932
▁isolated	-11933
▁faint	-11934
fly	-11935
▁desperately	-11936
▁ensures	-11937
▁positively	-11938
▁refreshing	-11939
ructive	-11940
▁ranking	-11941
▁syndrome	-11942
▁scenarios	-11943
idity	-11944
▁lacking	-11945
▁lightly	-11946
fund	-11947
▁bureau	-11948
▁Left	-11949
▁laser	-11950
▁Pete	-11951
▁slot	-11952
actly	-11953
▁doctr	-11954
▁technically	-11955
click	-11956
▁CP	-11957
▁depr	-11958
▁Express	-11959
▁seve	-11960
INE	-11961
▁Rachel	-11962
▁“...	-11963
▁perfection	-11964
▁notify	-11965
igs	-11966
▁assumption	-11967
▁Rand	-11968
▁Rules	-11969
building	-11970
▁sustainability	-11971
ickets	-11972
▁Clin	-11973
▁Bruce	-11974
unct	-11975
▁exploration	-11976
▁Senior	-11977
▁broader	-11978
▁Lic	-11979
▁dessert	-11980
▁crypt	-11981
▁distinction	-11982
▁lasted	-11983
▁refugees	-11984
▁succeeded	-11985
rous	-11986
▁enqu	-11987
▁dealer	-11988
▁WAS	-11989
▁pupils	-11990
▁honored	-11991
▁veterans	-11992
▁appearing	-11993
▁Xena	-11994
▁intensity	-11995
▁simultaneously	-11996
▁slipped	-11997
▁tires	-11998
▁fatigue	-11999
▁transit	-12000
▁incorporated	-12001
▁cited	-12002
▁washed	-12003
▁sustained	-12004
▁vet	-12005
▁Joy	-12006
▁tens	-12007
▁propose	-12008
▁Respons	-12009
uations	-12010
ito	-12011
▁scam	-12012
▁Estate	-12013
▁Karen	-12014
▁cheapest	-12015
dated	-12016
▁gramm	-12017
▁exempt	-12018
▁console	-12019
▁Lewis	-12020
allas	-12021
▁Robin	-12022
awa	-12023
▁lifting	-12024
oln	-12025
▁underneath	-12026
umbling	-12027
▁VERY	-12028
▁homemade	-12029
product	-12030
▁matching	-12031
▁theore	-12032
▁bedrooms	-12033
▁thereby	-12034
▁procl	-12035
▁Avoid	-12036
▁Ted	-12037
▁acknowledged	-12038
itzer	-12039
▁mailing	-12040
▁suspension	-12041
aints	-12042
▁ecosystem	-12043
boards	-12044
▁iT	-12045
▁tomato	-12046
▁Ban	-12047
▁Lad	-12048
closure	-12049
▁Bear	-12050
▁betray	-12051
love	-12052
istically	-12053
mary	-12054
ylvania	-12055
Qu	-12056
▁literary	-12057
▁restored	-12058
▁Dutch	-12059
▁prejud	-12060
▁Kansas	-12061
▁municipal	-12062
▁conspiracy	-12063
▁BO	-12064
▁notified	-12065
econom	-12066
▁cub	-12067
▁hunger	-12068
▁farming	-12069
▁ashamed	-12070
ira	-12071
▁enlight	-12072
▁printer	-12073
▁Challenge	-12074
▁summar	-12075
▁portable	-12076
▁antibiot	-12077
▁Yep	-12078
GH	-12079
▁Final	-12080
▁populations	-12081
▁forcing	-12082
▁champion	-12083
group	-12084
▁Greece	-12085
olester	-12086
▁longest	-12087
▁slic	-12088
▁bias	-12089
inf	-12090
▁bears	-12091
▁beast	-12092
▁sheer	-12093
▁metap	-12094
owa	-12095
▁heels	-12096
peror	-12097
▁derived	-12098
▁vessels	-12099
rix	-12100
▁huh	-12101
▁uncons	-12102
▁Around	-12103
▁anonymous	-12104
▁sticks	-12105
▁Illinois	-12106
▁honesty	-12107
▁hers	-12108
url	-12109
▁Os	-12110
▁schemes	-12111
axy	-12112
iii	-12113
▁aest	-12114
▁shouted	-12115
▁maj	-12116
itants	-12117
▁acute	-12118
▁paused	-12119
▁edges	-12120
▁fer	-12121
▁Organization	-12122
arre	-12123
▁Olymp	-12124
▁Portug	-12125
▁remedy	-12126
▁quicker	-12127
▁Jean	-12128
▁Mail	-12129
▁Girls	-12130
▁participated	-12131
▁Begin	-12132
,,	-12133
▁evolved	-12134
▁cho	-12135
▁Produ	-12136
▁supervision	-12137
▁prizes	-12138
▁purely	-12139
▁vacuum	-12140
▁Together	-12141
▁suspicious	-12142
pson	-12143
▁miracle	-12144
▁inclusion	-12145
▁Cloud	-12146
▁viable	-12147
fty	-12148
▁tempted	-12149
▁securities	-12150
▁maker	-12151
▁monetary	-12152
▁measuring	-12153
nected	-12154
▁wheat	-12155
▁Neither	-12156
igenous	-12157
▁Total	-12158
▁confess	-12159
▁haha	-12160
▁resign	-12161
CS	-12162
▁Mayor	-12163
osition	-12164
▁legislative	-12165
REAT	-12166
▁pillow	-12167
▁IV	-12168
fish	-12169
isible	-12170
▁senses	-12171
▁witnessed	-12172
▁welcomed	-12173
▁Sab	-12174
▁sunshine	-12175
▁seeks	-12176
rations	-12177
▁Assess	-12178
▁Les	-12179
▁foss	-12180
▁reun	-12181
▁booth	-12182
▁Cand	-12183
km	-12184
▁exhibit	-12185
cm	-12186
▁separation	-12187
▁ignorant	-12188
pectives	-12189
▁ma	-12190
▁governance	-12191
▁Ol	-12192
▁racial	-12193
▁vitamins	-12194
EAR	-12195
▁commod	-12196
gh	-12197
▁cooling	-12198
ilitation	-12199
▁dupl	-12200
▁accus	-12201
▁Py	-12202
vious	-12203
▁customs	-12204
▁Partners	-12205
▁attitudes	-12206
▁assumptions	-12207
▁conferences	-12208
▁Hence	-12209
▁Awards	-12210
▁Practice	-12211
▁attraction	-12212
▁farmer	-12213
tan	-12214
breaking	-12215
▁Amendment	-12216
▁camps	-12217
▁youngest	-12218
▁opponents	-12219
rating	-12220
▁alph	-12221
▁elite	-12222
▁pursuing	-12223
After	-12224
▁reviewing	-12225
udge	-12226
▁pean	-12227
▁Village	-12228
▁shaped	-12229
▁renewable	-12230
▁controlling	-12231
▁learnt	-12232
▁households	-12233
▁stepping	-12234
▁NAS	-12235
ounding	-12236
▁organizational	-12237
amous	-12238
′′	-12239
▁servants	-12240
▁Advent	-12241
▁autism	-12242
enter	-12243
▁Pain	-12244
▁reasoning	-12245
hill	-12246
▁taxi	-12247
white	-12248
▁sends	-12249
▁interrupted	-12250
”)	-12251
first	-12252
▁strain	-12253
▁veteran	-12254
▁appointments	-12255
▁Korean	-12256
▁Mic	-12257
▁Opt	-12258
▁irr	-12259
▁Tree	-12260
▁Agr	-12261
▁someday	-12262
▁streaming	-12263
oli	-12264
▁BR	-12265
▁kissed	-12266
▁freak	-12267
▁clarify	-12268
▁RO	-12269
▁miserable	-12270
▁dimensions	-12271
▁prohibited	-12272
▁trains	-12273
incoln	-12274
▁bleeding	-12275
▁counted	-12276
fulness	-12277
▁Ontario	-12278
▁noble	-12279
▁socks	-12280
▁executives	-12281
nsylvania	-12282
▁disappointment	-12283
▁Sa	-12284
omer	-12285
nut	-12286
ARE	-12287
▁libraries	-12288
▁complications	-12289
every	-12290
▁cancelled	-12291
▁borders	-12292
▁phrases	-12293
▁appli	-12294
▁raises	-12295
▁rated	-12296
▁encourages	-12297
▁variations	-12298
▁puppy	-12299
ivities	-12300
▁execute	-12301
▁beta	-12302
▁Indians	-12303
▁separately	-12304
▁buddy	-12305
▁rally	-12306
roph	-12307
▁optional	-12308
people	-12309
▁surveillance	-12310
▁scientist	-12311
▁wasting	-12312
▁worthwhile	-12313
Up	-12314
ela	-12315
▁predicted	-12316
▁ethics	-12317
▁congress	-12318
▁wrest	-12319
▁conclude	-12320
▁preview	-12321
▁surveys	-12322
▁enabling	-12323
▁hood	-12324
▁Legisl	-12325
▁essays	-12326
▁restra	-12327
▁ranked	-12328
vable	-12329
▁rect	-12330
▁installing	-12331
▁owns	-12332
mercial	-12333
▁Lyn	-12334
▁allegations	-12335
▁momentum	-12336
▁Schools	-12337
▁consumed	-12338
isers	-12339
▁chill	-12340
▁destro	-12341
▁Forum	-12342
▁Ali	-12343
girl	-12344
▁bikes	-12345
▁teaches	-12346
▁cough	-12347
▁complained	-12348
achers	-12349
▁vegetable	-12350
▁Uncle	-12351
▁partial	-12352
cker	-12353
▁Mov	-12354
IME	-12355
▁consensus	-12356
▁Anna	-12357
▁containers	-12358
▁contra	-12359
▁prolong	-12360
▁accountability	-12361
ANK	-12362
lee	-12363
▁revealing	-12364
▁Holiday	-12365
▁Host	-12366
count	-12367
▁browse	-12368
mn	-12369
▁epid	-12370
▁obstacles	-12371
▁teenagers	-12372
▁holder	-12373
▁inviting	-12374
▁reporters	-12375
▁Climate	-12376
▁chemistry	-12377
roit	-12378
▁debts	-12379
▁mm	-12380
▁buck	-12381
▁Fu	-12382
ttes	-12383
▁enhanced	-12384
▁withdrawal	-12385
plex	-12386
arette	-12387
▁Magic	-12388
▁insured	-12389
human	-12390
▁medicines	-12391
▁volumes	-12392
ala	-12393
▁Amanda	-12394
▁les	-12395
esis	-12396
▁ML	-12397
etts	-12398
▁spoil	-12399
▁vamp	-12400
inar	-12401
▁CB	-12402
▁Located	-12403
▁Been	-12404
▁fairy	-12405
▁erect	-12406
▁pencil	-12407
▁perceive	-12408
▁Doing	-12409
▁Eventually	-12410
▁achievements	-12411
▁crops	-12412
▁gentlemen	-12413
▁collections	-12414
▁elementary	-12415
▁consistency	-12416
fare	-12417
▁Nut	-12418
▁bucket	-12419
▁facial	-12420
▁cardio	-12421
▁glimpse	-12422
▁NC	-12423
▁surroundings	-12424
▁vegg	-12425
EP	-12426
▁jet	-12427
▁Dor	-12428
▁Date	-12429
▁corresponding	-12430
▁constitutional	-12431
▁whist	-12432
llers	-12433
▁charts	-12434
terior	-12435
▁chains	-12436
▁updating	-12437
▁selfish	-12438
Very	-12439
▁softly	-12440
▁graduation	-12441
▁rides	-12442
IES	-12443
▁attractions	-12444
▁biz	-12445
▁iTunes	-12446
▁Commissioner	-12447
▁PO	-12448
,...	-12449
isite	-12450
▁traveled	-12451
hma	-12452
▁hi	-12453
▁coin	-12454
▁recognised	-12455
▁MAN	-12456
▁soda	-12457
▁Reserve	-12458
▁iOS	-12459
writer	-12460
TV	-12461
thur	-12462
▁Hop	-12463
▁eyebr	-12464
▁islands	-12465
olesterol	-12466
▁switching	-12467
▁treas	-12468
cus	-12469
atis	-12470
▁blowing	-12471
▁Ox	-12472
burn	-12473
income	-12474
▁Course	-12475
▁Defense	-12476
▁kilomet	-12477
edu	-12478
robe	-12479
▁variation	-12480
▁satisfying	-12481
▁recruitment	-12482
▁Exchange	-12483
▁bride	-12484
▁colleague	-12485
▁actress	-12486
▁melt	-12487
▁partially	-12488
▁planted	-12489
▁reson	-12490
▁titled	-12491
achus	-12492
▁twin	-12493
▁Products	-12494
▁descriptions	-12495
▁encry	-12496
▁undertaking	-12497
▁ACT	-12498
▁travelers	-12499
▁organizing	-12500
▁albums	-12501
▁MA	-12502
▁sacred	-12503
▁Ensure	-12504
▁publisher	-12505
▁teenager	-12506
ima	-12507
▁Regulation	-12508
▁merg	-12509
▁acquaint	-12510
▁rage	-12511
▁sized	-12512
▁nightmare	-12513
▁physicians	-12514
▁reservation	-12515
ontin	-12516
▁Herm	-12517
▁offerings	-12518
▁heated	-12519
▁passport	-12520
phia	-12521
▁digging	-12522
text	-12523
▁Details	-12524
▁forming	-12525
▁sketch	-12526
▁Malays	-12527
▁Sleep	-12528
▁behave	-12529
▁questioned	-12530
▁nu	-12531
▁Budd	-12532
▁Mort	-12533
▁critics	-12534
▁leaning	-12535
▁relates	-12536
▁bake	-12537
▁navigation	-12538
▁Emily	-12539
▁ballot	-12540
▁Description	-12541
oom	-12542
▁routes	-12543
qual	-12544
enery	-12545
ucked	-12546
winning	-12547
type	-12548
▁trails	-12549
▁ox	-12550
oriented	-12551
▁excellence	-12552
▁palm	-12553
▁snap	-12554
▁resemb	-12555
forced	-12556
▁locals	-12557
shit	-12558
▁alternate	-12559
▁chase	-12560
▁puzzle	-12561
▁reduces	-12562
▁permits	-12563
▁Certainly	-12564
otte	-12565
▁trapped	-12566
▁criminals	-12567
▁eastern	-12568
shire	-12569
▁Gary	-12570
▁Magazine	-12571
▁occupation	-12572
▁ft	-12573
ollar	-12574
phant	-12575
▁cooler	-12576
????	-12577
▁noting	-12578
---	-12579
▁compelled	-12580
¡¦	-12581
▁Princess	-12582
▁demo	-12583
▁introducing	-12584
ella	-12585
▁sexually	-12586
▁Pennsylvania	-12587
.-	-12588
▁apples	-12589
▁embod	-12590
▁doubts	-12591
▁***	-12592
▁Friend	-12593
▁personalized	-12594
▁shipped	-12595
▁glorious	-12596
ulin	-12597
▁sucks	-12598
▁racist	-12599
urring	-12600
▁fitted	-12601
kel	-12602
OULD	-12603
▁patent	-12604
▁Starting	-12605
People	-12606
▁Dallas	-12607
nedy	-12608
▁Saudi	-12609
oto	-12610
▁gri	-12611
▁penalties	-12612
▁disturbing	-12613
ixty	-12614
▁openly	-12615
▁curs	-12616
▁costume	-12617
▁pursuit	-12618
ailed	-12619
umbers	-12620
▁modest	-12621
rett	-12622
▁arc	-12623
ascular	-12624
▁mechanisms	-12625
▁Howard	-12626
▁Subject	-12627
UE	-12628
nell	-12629
ulator	-12630
olved	-12631
uther	-12632
▁potato	-12633
▁minimize	-12634
▁generating	-12635
▁Lincoln	-12636
▁Band	-12637
▁Gabrielle	-12638
IK	-12639
▁Song	-12640
▁scroll	-12641
trans	-12642
▁mast	-12643
▁nonprofit	-12644
▁Mars	-12645
▁Honestly	-12646
▁III	-12647
rative	-12648
▁aggreg	-12649
▁overly	-12650
▁Knowing	-12651
arity	-12652
achusetts	-12653
bitious	-12654
iots	-12655
▁outrage	-12656
▁figuring	-12657
▁proceeds	-12658
▁explosion	-12659
▁rope	-12660
welling	-12661
▁translate	-12662
▁twitter	-12663
stration	-12664
unge	-12665
▁adoles	-12666
▁sixth	-12667
▁sympathy	-12668
▁AW	-12669
▁mes	-12670
▁stuffed	-12671
▁ego	-12672
▁prevented	-12673
hol	-12674
▁probability	-12675
▁coupon	-12676
▁Mine	-12677
ati	-12678
▁Univers	-12679
▁unconscious	-12680
▁GR	-12681
▁advances	-12682
▁submitting	-12683
parents	-12684
bean	-12685
▁freeze	-12686
▁permanently	-12687
ICK	-12688
▁Quotes	-12689
▁murdered	-12690
▁journalist	-12691
▁battles	-12692
▁propri	-12693
news	-12694
▁paperwork	-12695
▁Cold	-12696
▁obey	-12697
cca	-12698
▁sovere	-12699
icop	-12700
pless	-12701
▁FL	-12702
▁gambling	-12703
▁counseling	-12704
utic	-12705
▁cleaner	-12706
▁Quite	-12707
adelphia	-12708
▁Title	-12709
▁Beyond	-12710
▁searches	-12711
urious	-12712
healthy	-12713
▁simpler	-12714
ORT	-12715
▁arrives	-12716
▁supplier	-12717
▁Barack	-12718
▁reloc	-12719
▁structured	-12720
▁operates	-12721
iens	-12722
▁Laure	-12723
.--	-12724
▁maid	-12725
▁tunnel	-12726
▁startup	-12727
▁mayor	-12728
▁eh	-12729
vised	-12730
▁balcony	-12731
▁comparing	-12732
pert	-12733
▁collaps	-12734
▁conform	-12735
▁scare	-12736
▁leverage	-12737
▁Sudden	-12738
▁_____	-12739
▁fixing	-12740
stick	-12741
▁wallet	-12742
▁stats	-12743
▁onion	-12744
▁hast	-12745
▁amuse	-12746
service	-12747
▁Innov	-12748
▁justified	-12749
▁promotional	-12750
▁Ast	-12751
▁voluntary	-12752
▁Trib	-12753
▁structural	-12754
reach	-12755
▁forehead	-12756
▁wrist	-12757
▁realizing	-12758
▁newer	-12759
▁speeds	-12760
▁dangers	-12761
▁upstairs	-12762
▁zomb	-12763
▁annoyed	-12764
▁rival	-12765
▁righteous	-12766
▁independently	-12767
▁Response	-12768
▁promoted	-12769
hist	-12770
email	-12771
▁incons	-12772
▁optimal	-12773
roduction	-12774
▁responsive	-12775
▁willingness	-12776
uscript	-12777
▁Gulf	-12778
▁recycling	-12779
story	-12780
▁recipient	-12781
▁Mater	-12782
▁backs	-12783
pop	-12784
▁accidentally	-12785
commun	-12786
▁Agricult	-12787
▁unpre	-12788
▁stimul	-12789
▁dresses	-12790
▁bitch	-12791
▁Kennedy	-12792
▁compact	-12793
▁towel	-12794
▁outlet	-12795
▁realm	-12796
▁agrees	-12797
▁Exp	-12798
▁LORD	-12799
▁abandon	-12800
▁dismissed	-12801
▁switched	-12802
▁disclose	-12803
TR	-12804
imens	-12805
▁herbs	-12806
Se	-12807
assy	-12808
▁query	-12809
apa	-12810
▁lasts	-12811
▁Cash	-12812
▁Fine	-12813
More	-12814
▁vibrant	-12815
▁Anth	-12816
▁interviewed	-12817
▁lou	-12818
tends	-12819
ELL	-12820
▁Oak	-12821
▁rou	-12822
▁Beat	-12823
▁fundament	-12824
▁Pros	-12825
▁marine	-12826
otive	-12827
▁tragic	-12828
▁Duke	-12829
▁peek	-12830
▁discom	-12831
▁Finding	-12832
▁reporter	-12833
▁Linked	-12834
▁profiles	-12835
Ps	-12836
EA	-12837
▁laboratory	-12838
▁terrorists	-12839
▁sponsored	-12840
▁institutional	-12841
▁beg	-12842
▁debr	-12843
▁proves	-12844
size	-12845
▁bum	-12846
▁Sale	-12847
▁colored	-12848
▁manually	-12849
▁Tech	-12850
▁Update	-12851
▁credibility	-12852
▁Hay	-12853
▁gaps	-12854
uity	-12855
▁incentive	-12856
▁investigating	-12857
▁Youth	-12858
keeping	-12859
▁swift	-12860
▁Allah	-12861
▁Jimmy	-12862
▁threshold	-12863
▁Front	-12864
▁graduates	-12865
iscons	-12866
▁inexpensive	-12867
▁substantially	-12868
▁nit	-12869
▁clearing	-12870
▁stall	-12871
▁occurring	-12872
▁cease	-12873
▁intensive	-12874
▁neglig	-12875
ulously	-12876
▁stew	-12877
bourne	-12878
▁Believe	-12879
▁specially	-12880
estone	-12881
▁invisible	-12882
▁delightful	-12883
▁subscribers	-12884
▁Large	-12885
amic	-12886
▁Drug	-12887
second	-12888
non	-12889
▁accent	-12890
▁uh	-12891
▁penet	-12892
▁width	-12893
▁seniors	-12894
▁Atlanta	-12895
▁inclusive	-12896
▁ingredient	-12897
▁Mission	-12898
isconsin	-12899
▁teenage	-12900
annah	-12901
except	-12902
opath	-12903
inth	-12904
town	-12905
ritional	-12906
range	-12907
▁Risk	-12908
▁Fer	-12909
▁reign	-12910
▁Purch	-12911
▁slower	-12912
Gu	-12913
ufficient	-12914
▁commentary	-12915
hard	-12916
▁Deep	-12917
OCK	-12918
▁Alan	-12919
▁remotely	-12920
ishment	-12921
▁warn	-12922
▁na	-12923
▁Edward	-12924
▁delicate	-12925
▁united	-12926
▁compatible	-12927
▁mobility	-12928
▁Questions	-12929
▁researching	-12930
▁scoring	-12931
▁nails	-12932
▁unions	-12933
▁Base	-12934
▁Paper	-12935
▁wicked	-12936
outube	-12937
▁waking	-12938
vals	-12939
leans	-12940
▁sofa	-12941
▁Toy	-12942
▁failures	-12943
ffe	-12944
erer	-12945
▁Than	-12946
▁gloves	-12947
▁Massachusetts	-12948
▁Poor	-12949
▁cottage	-12950
▁measurement	-12951
▁pasta	-12952
▁activists	-12953
▁discovering	-12954
blog	-12955
▁Analysis	-12956
agle	-12957
gger	-12958
▁seated	-12959
arations	-12960
▁headache	-12961
▁echo	-12962
nesota	-12963
▁Chairman	-12964
▁compatibility	-12965
▁lod	-12966
▁Iowa	-12967
▁troll	-12968
▁discon	-12969
▁Haven	-12970
▁sells	-12971
fi	-12972
▁violations	-12973
▁obsessed	-12974
Ind	-12975
▁terribly	-12976
▁spotted	-12977
▁horizon	-12978
green	-12979
bes	-12980
opt	-12981
▁seasonal	-12982
pages	-12983
▁needle	-12984
▁Sit	-12985
▁appliances	-12986
▁Directors	-12987
▁gover	-12988
▁unwanted	-12989
bly	-12990
oca	-12991
▁flee	-12992
▁renewed	-12993
▁ignoring	-12994
▁organised	-12995
▁depressed	-12996
▁Wish	-12997
▁vendor	-12998
▁enact	-12999
▁racism	-13000
▁porch	-13001
▁endorse	-13002
▁patri	-13003
▁backing	-13004
▁Guess	-13005
▁insert	-13006
▁inconven	-13007
▁Ele	-13008
▁NYC	-13009
▁hassle	-13010
▁Gun	-13011
▁stroll	-13012
▁escaped	-13013
▁nonetheless	-13014
▁baked	-13015
▁earliest	-13016
▁muse	-13017
ifiable	-13018
▁partnerships	-13019
▁Bird	-13020
ardon	-13021
▁prints	-13022
▁implies	-13023
▁Du	-13024
▁distracted	-13025
▁fascinated	-13026
▁Liter	-13027
▁desirable	-13028
▁blew	-13029
▁tuition	-13030
▁transformed	-13031
atus	-13032
▁unsure	-13033
▁flowing	-13034
dam	-13035
▁replies	-13036
▁bacon	-13037
▁Clearly	-13038
▁consecutive	-13039
semble	-13040
rise	-13041
itably	-13042
▁mixing	-13043
▁yourselves	-13044
▁shadows	-13045
▁Blu	-13046
▁attributes	-13047
arettes	-13048
▁cm	-13049
Will	-13050
▁highlighted	-13051
▁nurt	-13052
▁vocal	-13053
▁Memorial	-13054
▁ambitious	-13055
issa	-13056
▁Wolf	-13057
▁outlets	-13058
dge	-13059
▁Emma	-13060
▁mighty	-13061
RC	-13062
▁cattle	-13063
▁Budget	-13064
▁recession	-13065
▁expectation	-13066
▁autumn	-13067
ammed	-13068
▁durable	-13069
▁rode	-13070
▁targeting	-13071
gered	-13072
▁fraction	-13073
▁whisper	-13074
▁fog	-13075
DER	-13076
pen	-13077
▁flows	-13078
▁Growth	-13079
▁turkey	-13080
▁remembering	-13081
▁considers	-13082
▁Linda	-13083
▁billions	-13084
▁Wisconsin	-13085
▁bru	-13086
▁warmth	-13087
▁distress	-13088
▁stadium	-13089
specific	-13090
aned	-13091
maybe	-13092
▁catalog	-13093
aby	-13094
▁EV	-13095
rons	-13096
▁feas	-13097
▁Appreci	-13098
▁adjustments	-13099
▁deliberately	-13100
▁CC	-13101
▁memor	-13102
oline	-13103
▁poker	-13104
▁Beth	-13105
▁aqu	-13106
▁oun	-13107
▁Anti	-13108
▁Ba	-13109
oker	-13110
▁calculate	-13111
▁lined	-13112
▁resting	-13113
▁dragon	-13114
▁despair	-13115
▁Cape	-13116
driven	-13117
▁portal	-13118
oenix	-13119
▁cops	-13120
▁disturb	-13121
ruit	-13122
▁Inn	-13123
Tw	-13124
▁Veter	-13125
▁edited	-13126
▁metres	-13127
▁backyard	-13128
▁HOW	-13129
ordon	-13130
▁cholesterol	-13131
▁cycl	-13132
▁frames	-13133
▁LOT	-13134
▁crystal	-13135
▁builds	-13136
imination	-13137
▁missions	-13138
armed	-13139
▁saves	-13140
▁preval	-13141
▁Dru	-13142
▁Isa	-13143
▁copper	-13144
▁protests	-13145
▁slice	-13146
▁Marg	-13147
▁bass	-13148
▁locks	-13149
▁Orange	-13150
▁questioning	-13151
▁underm	-13152
▁cannabis	-13153
▁interfere	-13154
seen	-13155
▁hatred	-13156
▁appetite	-13157
▁survivors	-13158
sur	-13159
▁Tea	-13160
▁Available	-13161
▁astron	-13162
▁Gro	-13163
▁pix	-13164
something	-13165
mers	-13166
▁sentiment	-13167
▁pulls	-13168
▁Lat	-13169
▁kidney	-13170
▁tin	-13171
TML	-13172
jam	-13173
HING	-13174
▁Photos	-13175
▁conscience	-13176
▁donated	-13177
▁incentives	-13178
security	-13179
▁defendant	-13180
▁Christianity	-13181
▁Compet	-13182
▁farther	-13183
▁Leon	-13184
iated	-13185
tech	-13186
▁adjustment	-13187
▁Fif	-13188
▁allies	-13189
▁hind	-13190
morrow	-13191
▁scandal	-13192
▁advocates	-13193
quo	-13194
▁trium	-13195
▁infring	-13196
▁discharge	-13197
▁Hunt	-13198
▁fundraising	-13199
▁Lie	-13200
▁Surely	-13201
▁catast	-13202
pleasant	-13203
acent	-13204
▁trillion	-13205
▁Fat	-13206
▁ONLY	-13207
▁temporarily	-13208
▁subt	-13209
▁surfing	-13210
▁liking	-13211
▁Indones	-13212
▁Justin	-13213
otherapy	-13214
▁backwards	-13215
▁enjoyment	-13216
▁Yahoo	-13217
▁ultra	-13218
▁societies	-13219
▁Rus	-13220
utory	-13221
▁fisher	-13222
▁Philadelphia	-13223
▁Kitchen	-13224
▁Edition	-13225
sea	-13226
▁stove	-13227
▁Coming	-13228
ersion	-13229
.:	-13230
esc	-13231
▁touches	-13232
▁ank	-13233
▁Detroit	-13234
bird	-13235
arma	-13236
▁wont	-13237
▁devastating	-13238
▁perspectives	-13239
▁arena	-13240
vo	-13241
obe	-13242
▁shining	-13243
▁electronics	-13244
▁Minnesota	-13245
▁Corporation	-13246
▁assignments	-13247
▁accred	-13248
▁draws	-13249
usalem	-13250
▁upside	-13251
▁salvation	-13252
div	-13253
▁Representatives	-13254
Donald	-13255
▁chairman	-13256
▁splend	-13257
▁relieved	-13258
ista	-13259
▁gospel	-13260
▁Revenue	-13261
▁arising	-13262
▁elaborate	-13263
neys	-13264
ouver	-13265
big	-13266
▁alumin	-13267
▁tv	-13268
gmail	-13269
▁Allow	-13270
▁urged	-13271
▁vertical	-13272
▁boom	-13273
ggy	-13274
▁Sac	-13275
▁lump	-13276
▁pedest	-13277
▁obesity	-13278
▁conjunction	-13279
▁outlook	-13280
▁embarrassed	-13281
▁backgrounds	-13282
▁sunlight	-13283
▁abundance	-13284
erver	-13285
criptions	-13286
bul	-13287
gling	-13288
▁prophe	-13289
▁wellness	-13290
▁tailored	-13291
▁Lucy	-13292
▁hydro	-13293
▁betting	-13294
▁DON	-13295
▁Orleans	-13296
pol	-13297
▁trainer	-13298
▁infer	-13299
▁trades	-13300
▁CF	-13301
▁fathers	-13302
▁rip	-13303
▁thrive	-13304
rapeutic	-13305
▁destinations	-13306
start	-13307
▁Copy	-13308
▁centres	-13309
▁Bry	-13310
="	-13311
rimin	-13312
edia	-13313
▁Emb	-13314
▁greed	-13315
▁halfway	-13316
▁launching	-13317
▁manuscript	-13318
▁colorful	-13319
▁generosity	-13320
▁dual	-13321
▁dos	-13322
▁wounds	-13323
▁infected	-13324
Pal	-13325
▁Focus	-13326
▁um	-13327
▁athe	-13328
verted	-13329
▁abused	-13330
▁integrate	-13331
▁Source	-13332
▁TW	-13333
▁eleven	-13334
▁unbeliev	-13335
▁virtue	-13336
▁scrut	-13337
▁lesser	-13338
iblings	-13339
▁parenting	-13340
user	-13341
▁Everybody	-13342
sub	-13343
▁deserved	-13344
▁attacking	-13345
▁fame	-13346
keep	-13347
▁Trek	-13348
▁politically	-13349
▁computing	-13350
ostic	-13351
ONG	-13352
Su	-13353
Day	-13354
▁hockey	-13355
▁pupp	-13356
oler	-13357
▁termin	-13358
▁gene	-13359
ancouver	-13360
▁rul	-13361
▁mounted	-13362
▁Additional	-13363
▁blade	-13364
▁indicating	-13365
▁embro	-13366
olitan	-13367
▁resil	-13368
▁gravity	-13369
▁denial	-13370
ventions	-13371
▁breeze	-13372
▁OUT	-13373
▁Moore	-13374
irlines	-13375
▁enthusiastic	-13376
▁namely	-13377
▁releasing	-13378
▁Ow	-13379
dig	-13380
▁publishers	-13381
▁delays	-13382
cium	-13383
▁Bowl	-13384
▁SEC	-13385
▁spo	-13386
▁overl	-13387
ido	-13388
mbre	-13389
▁deer	-13390
cost	-13391
▁quantities	-13392
▁Sem	-13393
▁dot	-13394
▁exams	-13395
▁lane	-13396
TO	-13397
▁candle	-13398
▁EC	-13399
eded	-13400
▁prisoner	-13401
▁notable	-13402
▁Diet	-13403
▁fierce	-13404
▁tattoo	-13405
▁communicating	-13406
Mr	-13407
chief	-13408
▁Castle	-13409
▁restoration	-13410
▁vic	-13411
▁Grad	-13412
▁Inside	-13413
▁discomfort	-13414
▁undertaken	-13415
avan	-13416
▁lbs	-13417
▁Berlin	-13418
▁firing	-13419
▁merchand	-13420
cerpt	-13421
▁kicking	-13422
▁homeowners	-13423
oard	-13424
▁bang	-13425
ioned	-13426
anship	-13427
▁tropical	-13428
▁surprises	-13429
▁automobile	-13430
othy	-13431
▁Ross	-13432
▁Tower	-13433
▁airline	-13434
▁inappropriate	-13435
▁sunset	-13436
▁maximize	-13437
web	-13438
▁Manchester	-13439
▁greenhouse	-13440
▁translated	-13441
▁pour	-13442
▁inequ	-13443
▁slim	-13444
▁ster	-13445
▁posters	-13446
BM	-13447
May	-13448
OUT	-13449
▁crisp	-13450
▁negotiate	-13451
▁toug	-13452
ello	-13453
pling	-13454
▁pine	-13455
▁hospitality	-13456
cs	-13457
▁severely	-13458
▁Jerusalem	-13459
▁economies	-13460
!),	-13461
▁fli	-13462
▁Morgan	-13463
▁likelihood	-13464
▁collaborative	-13465
bot	-13466
closed	-13467
▁traff	-13468
▁stamps	-13469
▁farms	-13470
▁tribute	-13471
half	-13472
▁cycling	-13473
▁Gene	-13474
▁yog	-13475
ifier	-13476
▁Users	-13477
▁Olympic	-13478
▁Creative	-13479
▁minerals	-13480
▁civilization	-13481
▁varying	-13482
lights	-13483
▁Roger	-13484
▁Discuss	-13485
too	-13486
▁murm	-13487
iaries	-13488
▁additionally	-13489
▁fossil	-13490
▁Suddenly	-13491
▁males	-13492
▁considerations	-13493
▁wax	-13494
AKE	-13495
maker	-13496
▁panc	-13497
▁slaves	-13498
▁villages	-13499
▁repet	-13500
▁practitioners	-13501
▁refresh	-13502
▁constitu	-13503
▁mentor	-13504
▁comprehend	-13505
▁bout	-13506
▁typing	-13507
▁expects	-13508
▁Motor	-13509
bn	-13510
▁headquarters	-13511
▁BS	-13512
▁mates	-13513
▁adapted	-13514
▁Michelle	-13515
▁Medicare	-13516
▁Sep	-13517
▁stub	-13518
PP	-13519
abs	-13520
▁reset	-13521
▁Allen	-13522
▁remainder	-13523
▁undertake	-13524
▁optimization	-13525
▁shrugged	-13526
ancer	-13527
▁angels	-13528
▁binding	-13529
▁mankind	-13530
umbing	-13531
▁constitute	-13532
▁OFF	-13533
▁hooked	-13534
▁Nether	-13535
▁Speaker	-13536
▁invented	-13537
accept	-13538
▁assass	-13539
woman	-13540
eled	-13541
▁Eat	-13542
▁swap	-13543
▁Maj	-13544
▁lugg	-13545
aria	-13546
▁alot	-13547
▁wherein	-13548
river	-13549
▁Portland	-13550
▁Text	-13551
▁Compl	-13552
▁pairs	-13553
rolling	-13554
▁REALLY	-13555
▁spends	-13556
thrit	-13557
▁shelves	-13558
▁Marsh	-13559
▁=)	-13560
▁inability	-13561
▁prone	-13562
▁wipe	-13563
hattan	-13564
pace	-13565
▁Balt	-13566
▁Channel	-13567
▁SD	-13568
ector	-13569
▁Citiz	-13570
adequ	-13571
▁Language	-13572
▁coins	-13573
workers	-13574
encer	-13575
▁stretched	-13576
▁declaration	-13577
▁carriage	-13578
ige	-13579
nals	-13580
▁integral	-13581
eek	-13582
▁Prim	-13583
speed	-13584
▁Jerry	-13585
inkle	-13586
▁Jr	-13587
sels	-13588
▁Hus	-13589
▁Nik	-13590
▁acids	-13591
perform	-13592
▁inflammation	-13593
utenant	-13594
▁Electric	-13595
▁defending	-13596
▁passive	-13597
▁enterprises	-13598
▁Integr	-13599
▁analytics	-13600
▁Ready	-13601
▁prompted	-13602
▁cigarette	-13603
▁sponsor	-13604
atherine	-13605
▁supposedly	-13606
▁Tomorrow	-13607
▁Agent	-13608
▁Denver	-13609
▁optimistic	-13610
▁pharmaceutical	-13611
▁schedules	-13612
otype	-13613
▁commence	-13614
▁Film	-13615
▁equation	-13616
▁animation	-13617
rose	-13618
▁LED	-13619
ologically	-13620
bur	-13621
Script	-13622
▁Johnny	-13623
▁Seven	-13624
▁simplest	-13625
▁serial	-13626
ori	-13627
▁Chem	-13628
▁BM	-13629
izard	-13630
▁reimb	-13631
▁Indiana	-13632
IAL	-13633
▁queries	-13634
▁stylish	-13635
▁lengthy	-13636
▁congreg	-13637
▁Specific	-13638
track	-13639
▁machinery	-13640
▁rug	-13641
▁Safe	-13642
▁airpl	-13643
▁exagger	-13644
orie	-13645
▁toes	-13646
▁persist	-13647
keys	-13648
▁Marine	-13649
▁goodbye	-13650
▁sandwich	-13651
▁rifle	-13652
▁dietary	-13653
▁unpleasant	-13654
▁rack	-13655
umns	-13656
▁Pam	-13657
▁Cher	-13658
▁judicial	-13659
▁invaluable	-13660
▁resur	-13661
▁reforms	-13662
▁thesis	-13663
▁Viol	-13664
▁penny	-13665
▁lively	-13666
▁irrelevant	-13667
▁prince	-13668
▁Present	-13669
▁forthcoming	-13670
▁Trad	-13671
▁Thinking	-13672
▁Osc	-13673
▁Colonel	-13674
▁homosex	-13675
ictionary	-13676
▁lenses	-13677
▁sentenced	-13678
▁marketers	-13679
ohn	-13680
flix	-13681
hero	-13682
▁prest	-13683
.).	-13684
▁Scottish	-13685
▁strongest	-13686
▁Harvard	-13687
▁Conditions	-13688
▁Target	-13689
full	-13690
▁Sym	-13691
aunting	-13692
▁traits	-13693
▁customized	-13694
▁fract	-13695
fox	-13696
▁Makes	-13697
▁stitch	-13698
▁Mix	-13699
▁ber	-13700
pton	-13701
▁comf	-13702
▁autonom	-13703
▁Volunt	-13704
ivate	-13705
▁priorit	-13706
▁nationwide	-13707
course	-13708
▁lounge	-13709
▁shifts	-13710
▁helicop	-13711
▁crowds	-13712
▁Barbara	-13713
inet	-13714
▁masses	-13715
▁surgeon	-13716
▁marathon	-13717
HER	-13718
▁organs	-13719
paper	-13720
▁altered	-13721
▁demonstration	-13722
▁Temple	-13723
entials	-13724
▁pools	-13725
▁budgets	-13726
ouri	-13727
▁Der	-13728
▁Core	-13729
▁pharmacy	-13730
▁los	-13731
▁bicycle	-13732
avy	-13733
bad	-13734
▁definite	-13735
ailand	-13736
▁excuses	-13737
▁luggage	-13738
▁Celebr	-13739
▁sla	-13740
▁snapped	-13741
▁surg	-13742
his	-13743
esters	-13744
▁energ	-13745
▁😀	-13746
▁timeline	-13747
▁Aunt	-13748
▁Vancouver	-13749
▁Hub	-13750
▁manages	-13751
▁reportedly	-13752
▁dragged	-13753
chain	-13754
,''	-13755
▁WHO	-13756
▁scal	-13757
▁aspiring	-13758
▁delivers	-13759
▁distinctive	-13760
▁Tai	-13761
▁prost	-13762
▁DJ	-13763
▁SW	-13764
▁fulfilled	-13765
▁assisted	-13766
▁KNOW	-13767
▁nutritional	-13768
ateur	-13769
▁bark	-13770
iblical	-13771
▁brutal	-13772
▁controversy	-13773
FC	-13774
onge	-13775
ussy	-13776
▁paragraphs	-13777
ika	-13778
▁Sweden	-13779
abul	-13780
▁debris	-13781
▁hurting	-13782
kg	-13783
AYS	-13784
▁shortage	-13785
▁processor	-13786
stud	-13787
certain	-13788
&#	-13789
oust	-13790
▁assessments	-13791
▁FO	-13792
▁gates	-13793
▁Bond	-13794
words	-13795
▁stare	-13796
friends	-13797
▁Double	-13798
▁:(	-13799
▁allegedly	-13800
▁professionally	-13801
▁analys	-13802
▁popping	-13803
elson	-13804
▁Virt	-13805
▁unclear	-13806
igration	-13807
▁NOTE	-13808
ittees	-13809
▁advisor	-13810
▁NEVER	-13811
▁moder	-13812
.......	-13813
▁rhet	-13814
▁microw	-13815
▁pumpkin	-13816
angel	-13817
▁fled	-13818
▁Estab	-13819
▁Nancy	-13820
▁Treatment	-13821
OUS	-13822
anke	-13823
rand	-13824
▁Value	-13825
▁hopeful	-13826
▁statistical	-13827
FA	-13828
▁â	-13829
pse	-13830
tage	-13831
igate	-13832
▁Chuck	-13833
▁flavors	-13834
▁tanks	-13835
▁Anthony	-13836
▁associations	-13837
▁fel	-13838
▁density	-13839
▁skept	-13840
▁OM	-13841
eu	-13842
▁Editor	-13843
▁diagram	-13844
▁siblings	-13845
▁Deal	-13846
▁aspir	-13847
▁Emergency	-13848
▁gad	-13849
▁Typ	-13850
▁supper	-13851
▁motorcycle	-13852
▁Congrats	-13853
lder	-13854
▁Debt	-13855
ement	-13856
▁sporting	-13857
▁HTML	-13858
▁assurance	-13859
▁apt	-13860
▁Satan	-13861
▁relaxation	-13862
fold	-13863
changing	-13864
▁Throughout	-13865
ani	-13866
handed	-13867
▁varieties	-13868
▁Sean	-13869
atar	-13870
▁filters	-13871
▁embarrassing	-13872
▁chin	-13873
▁amid	-13874
▁medi	-13875
▁vaccines	-13876
inance	-13877
▁enrolled	-13878
▁shirts	-13879
▁appropriately	-13880
▁jaw	-13881
▁impose	-13882
▁editors	-13883
▁subur	-13884
TP	-13885
▁py	-13886
▁unst	-13887
▁uncover	-13888
shore	-13889
▁surrender	-13890
▁participant	-13891
▁lungs	-13892
▁venues	-13893
▁pharmac	-13894
Christ	-13895
▁MUST	-13896
▁shareholders	-13897
pers	-13898
▁cav	-13899
matic	-13900
▁vinegar	-13901
▁Spot	-13902
▁rhythm	-13903
▁judgement	-13904
▁Julie	-13905
oft	-13906
▁pony	-13907
▁renewal	-13908
▁crafts	-13909
▁varies	-13910
▁satur	-13911
▁envelope	-13912
▁assessed	-13913
aturity	-13914
▁dealers	-13915
▁sch	-13916
▁Philippines	-13917
▁extrem	-13918
▁projected	-13919
▁skirt	-13920
▁accessed	-13921
telling	-13922
▁vit	-13923
astically	-13924
▁Manhattan	-13925
Fr	-13926
▁Lt	-13927
▁USB	-13928
orate	-13929
▁embark	-13930
▁Registration	-13931
▁pending	-13932
▁apologies	-13933
▁blessings	-13934
▁pickup	-13935
▁summit	-13936
▁portrait	-13937
▁shocking	-13938
rator	-13939
▁slavery	-13940
via	-13941
agen	-13942
▁moisture	-13943
gue	-13944
amps	-13945
brew	-13946
mented	-13947
▁Stew	-13948
izable	-13949
▁freezing	-13950
▁prosecution	-13951
▁subsequently	-13952
▁Kyle	-13953
▁pork	-13954
▁Netherlands	-13955
▁cens	-13956
educ	-13957
▁endure	-13958
▁decorated	-13959
PG	-13960
▁Phone	-13961
ols	-13962
▁Bott	-13963
▁purse	-13964
▁Seeing	-13965
▁absorb	-13966
▁seized	-13967
▁fried	-13968
attering	-13969
▁unity	-13970
▁Morning	-13971
▁measurements	-13972
las	-13973
▁iphone	-13974
▁!!	-13975
oken	-13976
ali	-13977
thod	-13978
▁Arthur	-13979
▁civilian	-13980
▁Na	-13981
anas	-13982
▁comics	-13983
iper	-13984
million	-13985
▁Discover	-13986
▁utilizing	-13987
▁MD	-13988
▁championship	-13989
▁cleans	-13990
▁classical	-13991
▁merit	-13992
▁coding	-13993
▁unlock	-13994
▁stair	-13995
▁courtesy	-13996
▁lending	-13997
▁correl	-13998
▁relieve	-13999
▁thunder	-14000
▁Vin	-14001
▁Charlotte	-14002
▁Interview	-14003
beit	-14004
quet	-14005
▁guessed	-14006
▁sellers	-14007
▁Trying	-14008
▁scenery	-14009
TF	-14010
economic	-14011
▁vain	-14012
▁expose	-14013
▁refrigerator	-14014
▁internationally	-14015
cha	-14016
▁stealing	-14017
▁Exactly	-14018
▁escal	-14019
rane	-14020
ulative	-14021
ographical	-14022
▁rehe	-14023
▁parked	-14024
▁od	-14025
▁pul	-14026
▁viagra	-14027
▁Lost	-14028
Am	-14029
dies	-14030
dings	-14031
▁impat	-14032
▁Strong	-14033
▁arrog	-14034
▁slides	-14035
▁Model	-14036
gate	-14037
▁Belg	-14038
▁Housing	-14039
▁informal	-14040
▁Sony	-14041
design	-14042
▁Alliance	-14043
▁celebrity	-14044
▁manufactured	-14045
▁theirs	-14046
▁climbed	-14047
rehens	-14048
▁Sett	-14049
▁smallest	-14050
▁Mu	-14051
▁governing	-14052
thritis	-14053
anim	-14054
take	-14055
▁frightened	-14056
ieving	-14057
Even	-14058
▁Print	-14059
▁polls	-14060
▁Hawaii	-14061
▁explanations	-14062
unks	-14063
▁Lay	-14064
▁sealed	-14065
▁respondents	-14066
NS	-14067
lu	-14068
phew	-14069
▁Soul	-14070
▁distribute	-14071
respect	-14072
▁Terry	-14073
▁elevator	-14074
▁une	-14075
opard	-14076
▁Keeping	-14077
[...]
